<pad>	0
<s>	0
</s>	0
<unk>	0
<|stream|>	0
<|vision|>	0
<|endofvision|>	0
<|audio|>	0
<|endofaudio|>	0
<|think|>	0
<|endofthink|>	0
<|spike|>	0
<|tool_call|>	0
<|endoftool_call|>	0
<|system|>	0
<|endofsystem|>	0
<|user|>	0
<|endofuser|>	0
<|assistant|>	0
<|endofassistant|>	0
<0x00>	0
<0x01>	0
<0x02>	0
<0x03>	0
<0x04>	0
<0x05>	0
<0x06>	0
<0x07>	0
<0x08>	0
<0x09>	0
<0x0A>	0
<0x0B>	0
<0x0C>	0
<0x0D>	0
<0x0E>	0
<0x0F>	0
<0x10>	0
<0x11>	0
<0x12>	0
<0x13>	0
<0x14>	0
<0x15>	0
<0x16>	0
<0x17>	0
<0x18>	0
<0x19>	0
<0x1A>	0
<0x1B>	0
<0x1C>	0
<0x1D>	0
<0x1E>	0
<0x1F>	0
<0x20>	0
<0x21>	0
<0x22>	0
<0x23>	0
<0x24>	0
<0x25>	0
<0x26>	0
<0x27>	0
<0x28>	0
<0x29>	0
<0x2A>	0
<0x2B>	0
<0x2C>	0
<0x2D>	0
<0x2E>	0
<0x2F>	0
<0x30>	0
<0x31>	0
<0x32>	0
<0x33>	0
<0x34>	0
<0x35>	0
<0x36>	0
<0x37>	0
<0x38>	0
<0x39>	0
<0x3A>	0
<0x3B>	0
<0x3C>	0
<0x3D>	0
<0x3E>	0
<0x3F>	0
<0x40>	0
<0x41>	0
<0x42>	0
<0x43>	0
<0x44>	0
<0x45>	0
<0x46>	0
<0x47>	0
<0x48>	0
<0x49>	0
<0x4A>	0
<0x4B>	0
<0x4C>	0
<0x4D>	0
<0x4E>	0
<0x4F>	0
<0x50>	0
<0x51>	0
<0x52>	0
<0x53>	0
<0x54>	0
<0x55>	0
<0x56>	0
<0x57>	0
<0x58>	0
<0x59>	0
<0x5A>	0
<0x5B>	0
<0x5C>	0
<0x5D>	0
<0x5E>	0
<0x5F>	0
<0x60>	0
<0x61>	0
<0x62>	0
<0x63>	0
<0x64>	0
<0x65>	0
<0x66>	0
<0x67>	0
<0x68>	0
<0x69>	0
<0x6A>	0
<0x6B>	0
<0x6C>	0
<0x6D>	0
<0x6E>	0
<0x6F>	0
<0x70>	0
<0x71>	0
<0x72>	0
<0x73>	0
<0x74>	0
<0x75>	0
<0x76>	0
<0x77>	0
<0x78>	0
<0x79>	0
<0x7A>	0
<0x7B>	0
<0x7C>	0
<0x7D>	0
<0x7E>	0
<0x7F>	0
<0x80>	0
<0x81>	0
<0x82>	0
<0x83>	0
<0x84>	0
<0x85>	0
<0x86>	0
<0x87>	0
<0x88>	0
<0x89>	0
<0x8A>	0
<0x8B>	0
<0x8C>	0
<0x8D>	0
<0x8E>	0
<0x8F>	0
<0x90>	0
<0x91>	0
<0x92>	0
<0x93>	0
<0x94>	0
<0x95>	0
<0x96>	0
<0x97>	0
<0x98>	0
<0x99>	0
<0x9A>	0
<0x9B>	0
<0x9C>	0
<0x9D>	0
<0x9E>	0
<0x9F>	0
<0xA0>	0
<0xA1>	0
<0xA2>	0
<0xA3>	0
<0xA4>	0
<0xA5>	0
<0xA6>	0
<0xA7>	0
<0xA8>	0
<0xA9>	0
<0xAA>	0
<0xAB>	0
<0xAC>	0
<0xAD>	0
<0xAE>	0
<0xAF>	0
<0xB0>	0
<0xB1>	0
<0xB2>	0
<0xB3>	0
<0xB4>	0
<0xB5>	0
<0xB6>	0
<0xB7>	0
<0xB8>	0
<0xB9>	0
<0xBA>	0
<0xBB>	0
<0xBC>	0
<0xBD>	0
<0xBE>	0
<0xBF>	0
<0xC0>	0
<0xC1>	0
<0xC2>	0
<0xC3>	0
<0xC4>	0
<0xC5>	0
<0xC6>	0
<0xC7>	0
<0xC8>	0
<0xC9>	0
<0xCA>	0
<0xCB>	0
<0xCC>	0
<0xCD>	0
<0xCE>	0
<0xCF>	0
<0xD0>	0
<0xD1>	0
<0xD2>	0
<0xD3>	0
<0xD4>	0
<0xD5>	0
<0xD6>	0
<0xD7>	0
<0xD8>	0
<0xD9>	0
<0xDA>	0
<0xDB>	0
<0xDC>	0
<0xDD>	0
<0xDE>	0
<0xDF>	0
<0xE0>	0
<0xE1>	0
<0xE2>	0
<0xE3>	0
<0xE4>	0
<0xE5>	0
<0xE6>	0
<0xE7>	0
<0xE8>	0
<0xE9>	0
<0xEA>	0
<0xEB>	0
<0xEC>	0
<0xED>	0
<0xEE>	0
<0xEF>	0
<0xF0>	0
<0xF1>	0
<0xF2>	0
<0xF3>	0
<0xF4>	0
<0xF5>	0
<0xF6>	0
<0xF7>	0
<0xF8>	0
<0xF9>	0
<0xFA>	0
<0xFB>	0
<0xFC>	0
<0xFD>	0
<0xFE>	0
<0xFF>	0
▁t	-0
▁a	-1
in	-2
he	-3
re	-4
on	-5
er	-6
▁s	-7
at	-8
▁the	-9
or	-10
en	-11
▁c	-12
es	-13
it	-14
▁w	-15
is	-16
an	-17
▁o	-18
al	-19
▁f	-20
▁p	-21
ing	-22
ed	-23
▁b	-24
ar	-25
ou	-26
▁d	-27
▁an	-28
▁m	-29
el	-30
▁in	-31
ion	-32
▁to	-33
ic	-34
le	-35
▁of	-36
as	-37
▁and	-38
om	-39
et	-40
▁h	-41
▁th	-42
st	-43
▁n	-44
ent	-45
ct	-46
▁re	-47
。	-48
il	-49
ro	-50
▁l	-51
▁T	-52
am	-53
▁e	-54
ut	-55
id	-56
im	-57
▁,	-58
ot	-59
▁=	-60
▁I	-61
▁g	-62
▁is	-63
▁(	-64
ve	-65
ce	-66
ol	-67
se	-68
▁S	-69
▁A	-70
ur	-71
▁for	-72
ig	-73
ad	-74
20	-75
.	-76
ow	-77
ation	-78
▁u	-79
elf	-80
ly	-81
▁be	-82
ay	-83
▁C	-84
ver	-85
ch	-86
▁on	-87
if	-88
)	-89
▁1	-90
od	-91
▁y	-92
▁that	-93
▁st	-94
ul	-95
ra	-96
▁'	-97
ith	-98
▁de	-99
est	-100
ir	-101
▁"	-102
▁M	-103
ate	-104
--	-105
▁it	-106
ag	-107
▁con	-108
▁as	-109
pe	-110
um	-111
▁P	-112
ter	-113
00	-114
▁with	-115
▁you	-116
qu	-117
ck	-118
▁The	-119
▁self	-120
em	-121
▁B	-122
un	-123
ri	-124
ab	-125
ist	-126
▁al	-127
▁he	-128
ers	-129
▁pro	-130
▁wh	-131
ort	-132
▁v	-133
ke	-134
res	-135
▁#	-136
▁W	-137
▁F	-138
pp	-139
▁ex	-140
rom	-141
ess	-142
▁D	-143
us	-144
nd	-145
ill	-146
▁we	-147
ect	-148
▁or	-149
:	-150
op	-151
ame	-152
and	-153
▁N	-154
▁are	-155
▁R	-156
her	-157
▁H	-158
▁com	-159
▁r	-160
ore	-161
▁_	-162
▁)	-163
ld	-164
nt	-165
▁-	-166
ht	-167
▁at	-168
os	-169
▁L	-170
pt	-171
▁not	-172
201	-173
ity	-174
▁from	-175
ue	-176
▁2	-177
▁:	-178
ex	-179
▁ha	-180
一个	-181
art	-182
ass	-183
▁su	-184
pl	-185
▁E	-186
end	-187
ain	-188
##	-189
ment	-190
ew	-191
▁G	-192
th	-193
ant	-194
iv	-195
▁by	-196
all	-197
ive	-198
▁was	-199
▁if	-200
可以	-201
▁O	-202
▁se	-203
▁def	-204
ies	-205
▁this	-206
ight	-207
',	-208
oc	-209
▁sh	-210
我们	-211
▁can	-212
▁im	-213
ial	-214
▁have	-215
▁ch	-216
out	-217
公司	-218
og	-219
ust	-220
▁[	-221
ions	-222
red	-223
one	-224
self	-225
ert	-226
ould	-227
ang	-228
age	-229
our	-230
▁3	-231
iz	-232
ult	-233
ine	-234
▁le	-235
ost	-236
----	-237
▁“	-238
port	-239
):	-240
ack	-241
▁$	-242
ure	-243
ac	-244
▁cl	-245
rou	-246
ud	-247
ile	-248
▁\	-249
int	-250
▁us	-251
ard	-252
con	-253
中国	-254
ff	-255
▁ab	-256
orm	-257
cl	-258
ap	-259
able	-260
工作	-261
▁J	-262
ind	-263
ome	-264
,	-265
▁0	-266
▁U	-267
▁pl	-268
发展	-269
ime	-270
▁res	-271
▁int	-272
ast	-273
ok	-274
▁j	-275
act	-276
▁k	-277
ork	-278
ip	-279
urn	-280
▁Th	-281
ell	-282
▁all	-283
ice	-284
ans	-285
ib	-286
ak	-287
企业	-288
▁has	-289
ide	-290
▁will	-291
ath	-292
▁whe	-293
ich	-294
get	-295
10	-296
ry	-297
▁do	-298
ally	-299
ated	-300
▁In	-301
ub	-302
are	-303
▁ad	-304
▁cont	-305
技术	-306
▁en	-307
ther	-308
ord	-309
..	-310
▁comp	-311
▁ne	-312
▁out	-313
lo	-314
ext	-315
ance	-316
per	-317
▁but	-318
ase	-319
▁4	-320
▁go	-321
ere	-322
ction	-323
自己	-324
cc	-325
▁your	-326
进行	-327
ep	-328
__	-329
ign	-330
ations	-331
ong	-332
▁{	-333
ail	-334
▁me	-335
ata	-336
ace	-337
ake	-338
ge	-339
==	-340
ary	-341
ber	-342
('	-343
▁ret	-344
▁ar	-345
ear	-346
▁sa	-347
ress	-348
ens	-349
服务	-350
ite	-351
▁they	-352
▁un	-353
ous	-354
form	-355
使用	-356
200	-357
▁more	-358
▁their	-359
ype	-360
▁5	-361
ject	-362
▁which	-363
▁up	-364
▁so	-365
管理	-366
**	-367
####	-368
ical	-369
▁K	-370
▁201	-371
com	-372
▁St	-373
▁+	-374
gh	-375
ire	-376
▁one	-377
ru	-378
name	-379
ode	-380
),	-381
so	-382
du	-383
产品	-384
没有	-385
ount	-386
▁/	-387
19	-388
ook	-389
""	-390
▁qu	-391
ple	-392
ob	-393
▁his	-394
▁V	-395
ents	-396
ach	-397
ence	-398
ict	-399
▁tr	-400
ia	-401
问题	-402
需要	-403
ie	-404
ose	-405
▁return	-406
iel	-407
时间	-408
▁import	-409
':	-410
▁el	-411
▁Y	-412
▁per	-413
av	-414
▁ev	-415
▁get	-416
ition	-417
vers	-418
▁about	-419
▁other	-420
通过	-421
提供	-422
ike	-423
ield	-424
ory	-425
very	-426
这个	-427
▁sc	-428
▁dis	-429
市场	-430
ors	-431
国家	-432
ely	-433
他们	-434
alue	-435
12	-436
▁man	-437
▁It	-438
▁who	-439
ll	-440
研究	-441
own	-442
▁sp	-443
ree	-444
就是	-445
▁mod	-446
ft	-447
▁new	-448
ound	-449
vel	-450
▁time	-451
au	-452
▁part	-453
▁work	-454
▁any	-455
▁This	-456
ings	-457
rib	-458
ays	-459
可能	-460
▁some	-461
▁app	-462
▁ag	-463
数据	-464
ph	-465
ild	-466
eth	-467
▁off	-468
ink	-469
put	-470
?	-471
▁6	-472
▁there	-473
--------	-474
▁would	-475
项目	-476
lic	-477
11	-478
ark	-479
▁said	-480
']	-481
._	-482
▁also	-483
▁were	-484
▁pre	-485
low	-486
▁when	-487
▁ro	-488
erv	-489
ys	-490
arg	-491
fere	-492
pro	-493
ces	-494
如果	-495
教育	-496
▁over	-497
▁%	-498
▁ass	-499
▁spe	-500
▁test	-501
ates	-502
▁fun	-503
ove	-504
ax	-505
▁been	-506
).	-507
ick	-508
系统	-509
",	-510
▁19	-511
社会	-512
▁pr	-513
什么	-514
▁comm	-515
生活	-516
de	-517
因为	-518
irst	-519
▁Ch	-520
信息	-521
▁my	-522
▁than	-523
▁them	-524
经济	-525
ize	-526
生产	-527
以及	-528
影响	-529
专业	-530
▁had	-531
主要	-532
▁pe	-533
建设	-534
▁like	-535
▁year	-536
reat	-537
▁set	-538
we	-539
0.	-540
▁x	-541
ror	-542
的人	-543
ption	-544
ov	-545
cre	-546
oint	-547
设计	-548
▁kn	-549
▁]	-550
同时	-551
wo	-552
学生	-553
ari	-554
eg	-555
重要	-556
ise	-557
ual	-558
▁what	-559
是一	-560
▁num	-561
▁acc	-562
000	-563
nder	-564
['	-565
old	-566
pon	-567
▁te	-568
世界	-569
▁its	-570
ener	-571
▁no	-572
▁add	-573
))	-574
ring	-575
▁ob	-576
▁into	-577
▁}	-578
环境	-579
15	-580
ps	-581
。”	-582
▁ind	-583
这些	-584
ix	-585
pect	-586
▁use	-587
1.	-588
行业	-589
30	-590
rue	-591
方面	-592
已经	-593
活动	-594
▁.	-595
▁our	-596
学习	-597
"	-598
工程	-599
mod	-600
par	-601
成为	-602
("	-603
安全	-604
row	-605
文化	-606
▁just	-607
▁des	-608
che	-609
ange	-610
”，	-611
ific	-612
fter	-613
▁em	-614
中的	-615
ople	-616
assert	-617
cess	-618
te	-619
▁how	-620
set	-621
▁7	-622
]	-623
▁We	-624
key	-625
▁class	-626
▁ra	-627
ms	-628
▁sy	-629
ient	-630
▁inter	-631
▁col	-632
▁bet	-633
▁att	-634
▁dif	-635
▁bec	-636
▁rec	-637
▁*	-638
clud	-639
rit	-640
包括	-641
相关	-642
的一	-643
▁>	-644
▁mat	-645
qual	-646
大学	-647
app	-648
ning	-649
不同	-650
▁only	-651
▁act	-652
ns	-653
ish	-654
ule	-655
▁first	-656
ues	-657
▁need	-658
▁data	-659
▁pol	-660
根据	-661
情况	-662
▁co	-663
vi	-664
▁在	-665
les	-666
▁fe	-667
up	-668
ian	-669
▁|	-670
▁under	-671
▁people	-672
▁two	-673
好的	-674
ause	-675
▁<	-676
开始	-677
2.	-678
能力	-679
第一	-680
其他	-681
ne	-682
▁may	-683
ics	-684
▁am	-685
ribut	-686
要求	-687
ont	-688
▁If	-689
大的	-690
▁pos	-691
iss	-692
ec	-693
国际	-694
▁cons	-695
▁8	-696
▁form	-697
ade	-698
ful	-699
作为	-700
els	-701
中心	-702
50	-703
具有	-704
一些	-705
▁1.	-706
====	-707
非常	-708
所以	-709
▁"""	-710
▁hel	-711
tt	-712
政府	-713
igh	-714
不是	-715
投资	-716
▁sub	-717
▁rel	-718
ER	-719
▁tra	-720
但是	-721
▁reg	-722
ied	-723
▁inst	-724
▁–	-725
处理	-726
add	-727
很多	-728
()	-729
产业	-730
城市	-731
ram	-732
——	-733
▁Wh	-734
ble	-735
ating	-736
16	-737
()	-738
▁name	-739
ible	-740
18	-741
方式	-742
▁requ	-743
ident	-744
ool	-745
ock	-746
stem	-747
人员	-748
部分	-749
sh	-750
▁should	-751
▁par	-752
path	-753
应用	-754
')	-755
▁bu	-756
对于	-757
aw	-758
设备	-759
人的	-760
其中	-761
时候	-762
1,	-763
智能	-764
val	-765
ility	-766
')	-767
学校	-768
▁As	-769
▁He	-770
选择	-771
▁prov	-772
▁these	-773
实现	-774
read	-775
▁her	-776
########	-777
▁None	-778
目前	-779
::	-780
▁2.	-781
enc	-782
▁supp	-783
type	-784
到了	-785
▁make	-786
▁spec	-787
ities	-788
健康	-789
▁could	-790
day	-791
提高	-792
也是	-793
▁then	-794
▁result	-795
▁where	-796
its	-797
这样	-798
：“	-799
▁9	-800
美国	-801
自己的	-802
科技	-803
round	-804
▁20	-805
▁str	-806
▁see	-807
ular	-808
fore	-809
ative	-810
der	-811
质量	-812
▁after	-813
▁10	-814
▁200	-815
现在	-816
25	-817
▁back	-818
ense	-819
▁inv	-820
ough	-821
ract	-822
▁call	-823
14	-824
ault	-825
组织	-826
ug	-827
▁help	-828
▁includ	-829
ices	-830
▁play	-831
的是	-832
▁Un	-833
roup	-834
▁rem	-835
ater	-836
▁exp	-837
att	-838
▁==	-839
oth	-840
oy	-841
itt	-842
rough	-843
ng	-844
人民	-845
▁differe	-846
▁i	-847
ank	-848
▁know	-849
增长	-850
▁most	-851
13	-852
hed	-853
min	-854
表示	-855
▁such	-856
ased	-857
cept	-858
man	-859
ethod	-860
▁value	-861
▁list	-862
能够	-863
als	-864
标准	-865
mer	-866
ublic	-867
创新	-868
ments	-869
ection	-870
ures	-871
ons	-872
▁used	-873
科学	-874
以上	-875
▁ph	-876
所有	-877
单位	-878
合作	-879
IN	-880
▁she	-881
还是	-882
▁want	-883
alse	-884
olog	-885
▁trans	-886
ON	-887
都是	-888
urre	-889
▁sim	-890
ator	-891
▁produ	-892
个人	-893
ced	-894
',	-895
fig	-896
领域	-897
过程	-898
或者	-899
to	-900
file	-901
work	-902
发现	-903
资源	-904
ational	-905
17	-906
//	-907
eng	-908
▁right	-909
▁eff	-910
▁Re	-911
ower	-912
▁&	-913
有限	-914
▁even	-915
pr	-916
集团	-917
▁every	-918
▁look	-919
大家	-920
▁end	-921
▁through	-922
开发	-923
▁does	-924
0,	-925
因此	-926
▁start	-927
ample	-928
atch	-929
▁You	-930
ollow	-931
方法	-932
AT	-933
arch	-934
irect	-935
▁`	-936
uth	-937
fo	-938
▁state	-939
],	-940
ik	-941
▁point	-942
▁fil	-943
全国	-944
▁because	-945
line	-946
▁dist	-947
▁way	-948
▁But	-949
▁val	-950
▁cre	-951
ruct	-952
.”	-953
建筑	-954
），	-955
ource	-956
ner	-957
▁ent	-958
了一	-959
用户	-960
orld	-961
基础	-962
出现	-963
ames	-964
▁op	-965
这种	-966
内容	-967
ser	-968
ull	-969
▁many	-970
▁For	-971
不断	-972
地区	-973
材料	-974
test	-975
▁And	-976
▁3.	-977
获得	-978
▁0.	-979
▁now	-980
uch	-981
▁function	-982
网络	-983
▁don	-984
olut	-985
sc	-986
nce	-987
全球	-988
erson	-989
分析	-990
yp	-991
ef	-992
定的	-993
uring	-994
部门	-995
eter	-996
如何	-997
▁const	-998
3.	-999
▁Com	-1000
ash	-1001
ween	-1002
来的	-1003
平台	-1004
▁show	-1005
text	-1006
▁dec	-1007
▁number	-1008
电影	-1009
▁well	-1010
ward	-1011
St	-1012
ines	-1013
了解	-1014
认为	-1015
▁che	-1016
aking	-1017
▁gener	-1018
...	-1019
▁ext	-1020
str	-1021
▁stud	-1022
24	-1023
tern	-1024
rror	-1025
▁sm	-1026
▁Pro	-1027
▁pres	-1028
rac	-1029
计算	-1030
ages	-1031
▁system	-1032
True	-1033
保护	-1034
完成	-1035
旅游	-1036
计划	-1037
ood	-1038
▁think	-1039
年的	-1040
▁**	-1041
io	-1042
不能	-1043
▁find	-1044
ss	-1045
other	-1046
▁did	-1047
亿元	-1048
▁min	-1049
机构	-1050
以下	-1051
游戏	-1052
ES	-1053
▁him	-1054
▁between	-1055
业务	-1056
▁each	-1057
▁again	-1058
▁ser	-1059
自然	-1060
▁fin	-1061
ier	-1062
ting	-1063
▁years	-1064
北京	-1065
amp	-1066
='	-1067
▁$$	-1068
wn	-1069
ited	-1070
知道	-1071
▁Q	-1072
汽车	-1073
▁sign	-1074
发生	-1075
▁ac	-1076
imes	-1077
▁follow	-1078
ek	-1079
),	-1080
▁file	-1081
▁bel	-1082
支持	-1083
由于	-1084
Error	-1085
AR	-1086
data	-1087
ray	-1088
pos	-1089
▁long	-1090
▁Se	-1091
▁same	-1092
ric	-1093
治疗	-1094
$$	-1095
▁using	-1096
urrent	-1097
增加	-1098
▁vari	-1099
工业	-1100
品牌	-1101
22	-1102
▁loc	-1103
▁Al	-1104
▁being	-1105
历史	-1106
▁different	-1107
100	-1108
第二	-1109
hen	-1110
):	-1111
比较	-1112
▁fl	-1113
args	-1114
解决	-1115
帮助	-1116
▁line	-1117
为了	-1118
ask	-1119
国内	-1120
▁bl	-1121
作用	-1122
之一	-1123
cond	-1124
功能	-1125
▁count	-1126
▁very	-1127
▁An	-1128
version	-1129
ily	-1130
孩子	-1131
ins	-1132
客户	-1133
ev	-1134
▁ter	-1135
ists	-1136
ince	-1137
ars	-1138
应该	-1139
▁giv	-1140
IT	-1141
▁run	-1142
各种	-1143
还有	-1144
▁arg	-1145
▁cor	-1146
需求	-1147
ox	-1148
更多	-1149
60	-1150
velop	-1151
这一	-1152
In	-1153
▁while	-1154
消费	-1155
ement	-1156
有限公司	-1157
▁respon	-1158
▁down	-1159
The	-1160
学院	-1161
上的	-1162
基本	-1163
co	-1164
air	-1165
▁last	-1166
ason	-1167
▁before	-1168
----------------	-1169
▁those	-1170
url	-1171
有关	-1172
▁read	-1173
ave	-1174
ually	-1175
控制	-1176
ote	-1177
dd	-1178
40	-1179
right	-1180
结构	-1181
▁prog	-1182
电子	-1183
2,	-1184
led	-1185
raph	-1186
80	-1187
▁much	-1188
py	-1189
▁mon	-1190
▁high	-1191
ever	-1192
ams	-1193
ience	-1194
那么	-1195
ired	-1196
代表	-1197
▁How	-1198
ized	-1199
利用	-1200
▁•	-1201
▁Ex	-1202
▁sur	-1203
▁type	-1204
any	-1205
")	-1206
ten	-1207
▁gu	-1208
这是	-1209
ify	-1210
▁good	-1211
date	-1212
▁serv	-1213
▁support	-1214
▁hand	-1215
新的	-1216
net	-1217
艺术	-1218
Equal	-1219
▁@	-1220
一步	-1221
之间	-1222
{\	-1223
%，	-1224
ale	-1225
▁here	-1226
的时候	-1227
价格	-1228
知识	-1229
lock	-1230
ife	-1231
gan	-1232
关系	-1233
formation	-1234
▁ins	-1235
▁ed	-1236
ember	-1237
alk	-1238
2019	-1239
▁;	-1240
ument	-1241
之后	-1242
规定	-1243
存在	-1244
ature	-1245
一般	-1246
最后	-1247
水平	-1248
fl	-1249
view	-1250
="	-1251
人们	-1252
产生	-1253
拥有	-1254
23	-1255
关于	-1256
希望	-1257
cial	-1258
，“	-1259
政策	-1260
▁fact	-1261
两个	-1262
而且	-1263
？	-1264
ving	-1265
▁som	-1266
99	-1267
▁field	-1268
未来	-1269
chn	-1270
OR	-1271
▁med	-1272
必须	-1273
他的	-1274
经营	-1275
,”	-1276
许多	-1277
积极	-1278
销售	-1279
▁comple	-1280
▁key	-1281
ential	-1282
▁pass	-1283
提升	-1284
▁So	-1285
atic	-1286
ody	-1287
患者	-1288
▁real	-1289
ision	-1290
不会	-1291
▁ap	-1292
▁z	-1293
一定	-1294
bers	-1295
▁take	-1296
▁—	-1297
arn	-1298
▁del	-1299
▁assert	-1300
cent	-1301
ann	-1302
ven	-1303
4.	-1304
▁rep	-1305
成功	-1306
field	-1307
▁model	-1308
▁（	-1309
▁X	-1310
oin	-1311
▁log	-1312
ware	-1313
达到	-1314
虽然	-1315
'	-1316
alth	-1317
21	-1318
▁er	-1319
vern	-1320
▁found	-1321
特别	-1322
▁lead	-1323
运动	-1324
导致	-1325
▁Tr	-1326
az	-1327
▁both	-1328
▁New	-1329
持续	-1330
":	-1331
制造	-1332
▁process	-1333
负责	-1334
list	-1335
opy	-1336
喜欢	-1337
▁person	-1338
精神	-1339
▁print	-1340
▁world	-1341
EN	-1342
the	-1343
gy	-1344
传统	-1345
ider	-1346
▁made	-1347
地方	-1348
▁av	-1349
son	-1350
ght	-1351
uss	-1352
▁say	-1353
▁gr	-1354
init	-1355
目标	-1356
”。	-1357
▁proble	-1358
上海	-1359
我们的	-1360
来说	-1361
▁mark	-1362
ern	-1363
我的	-1364
随着	-1365
然后	-1366
采用	-1367
▁4.	-1368
；	-1369
用于	-1370
▁Sh	-1371
▁develop	-1372
有效	-1373
[0	-1374
▁vi	-1375
▁own	-1376
形成	-1377
▁There	-1378
开展	-1379
ters	-1380
ape	-1381
▁great	-1382
发布	-1383
2020	-1384
3::	-1385
▁exper	-1386
ST	-1387
注意	-1388
28	-1389
交通	-1390
5.	-1391
直接	-1392
结果	-1393
back	-1394
我国	-1395
ism	-1396
cri	-1397
▁ke	-1398
requ	-1399
▁char	-1400
超过	-1401
显示	-1402
一直	-1403
ets	-1404
综合	-1405
保持	-1406
value	-1407
一起	-1408
meric	-1409
参加	-1410
教学	-1411
▁object	-1412
assertEqual	-1413
yn	-1414
你的	-1415
ren	-1416
iqu	-1417
进入	-1418
建立	-1419
减少	-1420
hip	-1421
医院	-1422
ved	-1423
▁__	-1424
▁appro	-1425
不仅	-1426
▁equ	-1427
实际	-1428
▁direct	-1429
▁try	-1430
ml	-1431
ness	-1432
27	-1433
更加	-1434
▁still	-1435
今年	-1436
行为	-1437
任何	-1438
rite	-1439
ious	-1440
▁art	-1441
金融	-1442
ton	-1443
▁report	-1444
条件	-1445
AN	-1446
▁cour	-1447
LE	-1448
ump	-1449
▁Z	-1450
▁ref	-1451
。”	-1452
▁expl	-1453
作品	-1454
ather	-1455
sible	-1456
▁Ar	-1457
变化	-1458
ead	-1459
▁open	-1460
酒店	-1461
vent	-1462
26	-1463
://	-1464
way	-1465
责任	-1466
系列	-1467
ivers	-1468
akes	-1469
inst	-1470
▁opt	-1471
db	-1472
▁method	-1473
▁allow	-1474
ery	-1475
例如	-1476
▁quest	-1477
log	-1478
}}	-1479
实施	-1480
！	-1481
ond	-1482
vert	-1483
ww	-1484
None	-1485
：	-1486
▁head	-1487
ional	-1488
联网	-1489
是一个	-1490
arent	-1491
gg	-1492
oci	-1493
ems	-1494
价值	-1495
fil	-1496
▁Cl	-1497
▁must	-1498
▁current	-1499
ah	-1500
音乐	-1501
方案	-1502
万元	-1503
重点	-1504
olum	-1505
介绍	-1506
网站	-1507
play	-1508
继续	-1509
人类	-1510
▁Americ	-1511
进一步	-1512
ared	-1513
银行	-1514
thon	-1515
essage	-1516
by	-1517
pre	-1518
▁commun	-1519
▁partic	-1520
▁cle	-1521
▁expect	-1522
========	-1523
▁program	-1524
朋友	-1525
报告	-1526
医疗	-1527
module	-1528
▁going	-1529
-1	-1530
参与	-1531
iness	-1532
be	-1533
ization	-1534
])	-1535
只有	-1536
,"	-1537
会议	-1538
def	-1539
90	-1540
arget	-1541
能源	-1542
▁post	-1543
pert	-1544
一样	-1545
ases	-1546
cont	-1547
比赛	-1548
▁effect	-1549
第三	-1550
▁我	-1551
建议	-1552
lect	-1553
▁information	-1554
收入	-1555
ology	-1556
▁week	-1557
模式	-1558
申请	-1559
time	-1560
▁around	-1561
▁car	-1562
ma	-1563
ives	-1564
erest	-1565
6.	-1566
arly	-1567
ts	-1568
ified	-1569
▁three	-1570
▁Con	-1571
vir	-1572
(	-1573
现代	-1574
ache	-1575
▁They	-1576
甚至	-1577
eb	-1578
ength	-1579
▁case	-1580
▁oper	-1581
comm	-1582
职业	-1583
日本	-1584
的大	-1585
▁second	-1586
▁top	-1587
▁contin	-1588
数字	-1589
_{	-1590
frac	-1591
inal	-1592
一种	-1593
▁group	-1594
▁day	-1595
按照	-1596
70	-1597
▁det	-1598
▁techn	-1599
sw	-1600
▁incre	-1601
▁without	-1602
ants	-1603
起来	-1604
语言	-1605
▁build	-1606
不过	-1607
ency	-1608
▁fam	-1609
▁disc	-1610
▁during	-1611
SE	-1612
tr	-1613
其实	-1614
▁check	-1615
ouse	-1616
ves	-1617
▁law	-1618
▁cent	-1619
规模	-1620
oot	-1621
提出	-1622
land	-1623
▁user	-1624
规划	-1625
ined	-1626
uc	-1627
它们	-1628
身体	-1629
▁child	-1630
atus	-1631
AL	-1632
▁sk	-1633
原因	-1634
看到	-1635
▁('	-1636
▁Is	-1637
▁govern	-1638
造成	-1639
▁really	-1640
load	-1641
人工	-1642
性的	-1643
这里	-1644
less	-1645
ross	-1646
oun	-1647
▁iss	-1648
not	-1649
▁bus	-1650
▁main	-1651
▁game	-1652
rol	-1653
▁True	-1654
stand	-1655
范围	-1656
▁given	-1657
生物	-1658
▁example	-1659
▁level	-1660
▁public	-1661
故事	-1662
▁mem	-1663
努力	-1664
ability	-1665
加强	-1666
ural	-1667
2018	-1668
▁path	-1669
得到	-1670
▁best	-1671
▁met	-1672
ral	-1673
无法	-1674
.”	-1675
ccess	-1676
29	-1677
并且	-1678
icense	-1679
user	-1680
ID	-1681
经验	-1682
for	-1683
表现	-1684
))	-1685
ration	-1686
结合	-1687
▁##	-1688
体系	-1689
7.	-1690
▁pri	-1691
食品	-1692
nect	-1693
全面	-1694
ats	-1695
时代	-1696
olution	-1697
关注	-1698
效果	-1699
▁order	-1700
▁since	-1701
此外	-1702
生态	-1703
▁against	-1704
是否	-1705
一次	-1706
IC	-1707
的发展	-1708
▁cr	-1709
rid	-1710
▁product	-1711
▁provid	-1712
具体	-1713
ically	-1714
教师	-1715
任务	-1716
ute	-1717
▁5.	-1718
老师	-1719
领导	-1720
▁mult	-1721
自动	-1722
util	-1723
angu	-1724
▁few	-1725
记者	-1726
class	-1727
简单	-1728
3,	-1729
append	-1730
ords	-1731
决定	-1732
5,	-1733
cul	-1734
成立	-1735
白癜	-1736
白癜风	-1737
手机	-1738
▁else	-1739
成本	-1740
ething	-1741
▁stand	-1742
分别	-1743
▁dep	-1744
期间	-1745
ways	-1746
math	-1747
共同	-1748
风险	-1749
################	-1750
me	-1751
委员	-1752
▁That	-1753
▁happ	-1754
▁18	-1755
ains	-1756
团队	-1757
▁tri	-1758
32	-1759
elect	-1760
param	-1761
med	-1762
bs	-1763
ger	-1764
▁non	-1765
容易	-1766
itive	-1767
▁power	-1768
▁tem	-1769
ital	-1770
促进	-1771
ron	-1772
}{	-1773
怎么	-1774
▁--	-1775
疫情	-1776
oh	-1777
主题	-1778
媒体	-1779
基金	-1780
orth	-1781
▁est	-1782
文章	-1783
ception	-1784
交易	-1785
觉得	-1786
▁interest	-1787
▁too	-1788
法律	-1789
ustom	-1790
ished	-1791
▁writ	-1792
▁might	-1793
关键	-1794
RE	-1795
行政	-1796
▁On	-1797
▁project	-1798
空间	-1799
▁$\	-1800
专家	-1801
▁fr	-1802
▁To	-1803
▁adv	-1804
人才	-1805
▁next	-1806
▁small	-1807
64	-1808
是一种	-1809
不要	-1810
比如	-1811
ots	-1812
▁lo	-1813
▁id	-1814
35	-1815
urs	-1816
."	-1817
▁another	-1818
;	-1819
取得	-1820
》，	-1821
执行	-1822
chool	-1823
ream	-1824
yle	-1825
▁design	-1826
▁ide	-1827
▁text	-1828
程序	-1829
▁important	-1830
▁What	-1831
家庭	-1832
illion	-1833
▁When	-1834
here	-1835
▁os	-1836
▁raise	-1837
dir	-1838
▁version	-1839
AS	-1840
Field	-1841
ety	-1842
除了	-1843
mb	-1844
▁let	-1845
▁chang	-1846
of	-1847
ey	-1848
arm	-1849
▁request	-1850
环保	-1851
受到	-1852
▁eas	-1853
美元	-1854
opt	-1855
ered	-1856
带来	-1857
▁pat	-1858
▁{'	-1859
ivid	-1860
▁vis	-1861
正在	-1862
▁life	-1863
分钟	-1864
▁care	-1865
8.	-1866
▁imp	-1867
推动	-1868
丰富	-1869
ately	-1870
▁opp	-1871
▁di	-1872
45	-1873
▁including	-1874
sp	-1875
.,	-1876
anc	-1877
以来	-1878
▁something	-1879
▁change	-1880
过程中	-1881
lease	-1882
▁team	-1883
reg	-1884
优势	-1885
▁Ph	-1886
IS	-1887
经过	-1888
▁plan	-1889
量的	-1890
机器	-1891
▁create	-1892
▁ca	-1893
▁default	-1894
▁pop	-1895
oid	-1896
▁ns	-1897
ango	-1898
▁bre	-1899
ertain	-1900
▁invest	-1901
▁False	-1902
aj	-1903
）	-1904
竞争	-1905
ypes	-1906
ole	-1907
uthor	-1908
是在	-1909
▁sol	-1910
培训	-1911
面积	-1912
操作	-1913
▁lim	-1914
▁month	-1915
▁htt	-1916
."	-1917
最终	-1918
Ex	-1919
object	-1920
性能	-1921
▁sl	-1922
thing	-1923
每个	-1924
▁values	-1925
▁following	-1926
0000	-1927
的事	-1928
ailable	-1929
坚持	-1930
miss	-1931
____	-1932
▁place	-1933
员工	-1934
小时	-1935
交流	-1936
▁cal	-1937
培养	-1938
人工智能	-1939
▁health	-1940
ples	-1941
▁called	-1942
▁says	-1943
fe	-1944
疾病	-1945
▁left	-1946
▁home	-1947
研发	-1948
▁put	-1949
同比	-1950
ling	-1951
lob	-1952
完全	-1953
!	-1954
也不	-1955
ively	-1956
才能	-1957
resent	-1958
▁net	-1959
▁ask	-1960
▁Sc	-1961
viron	-1962
来越	-1963
▁De	-1964
([	-1965
▁dem	-1966
▁Ind	-1967
ope	-1968
之前	-1969
▁things	-1970
rand	-1971
广泛	-1972
AC	-1973
ording	-1974
措施	-1975
越来越	-1976
▁conf	-1977
▁belie	-1978
▁perform	-1979
互联网	-1980
ession	-1981
考虑	-1982
资金	-1983
确保	-1984
jango	-1985
一下	-1986
▁better	-1987
有的	-1988
核心	-1989
Test	-1990
▁keep	-1991
机会	-1992
年来	-1993
-0	-1994
改革	-1995
▁beh	-1996
▁param	-1997
und	-1998
▁inc	-1999
▁All	-2000
▁cho	-2001
污染	-2002
▁这	-2003
▁free	-2004
商业	-2005
推进	-2006
体验	-2007
今天	-2008
ploy	-2009
mat	-2010
^{	-2011
oss	-2012
▁leg	-2013
来自	-2014
ries	-2015
▁big	-2016
保障	-2017
ends	-2018
理解	-2019
联合	-2020
info	-2021
▁less	-2022
anguage	-2023
接受	-2024
ought	-2025
UT	-2026
abel	-2027
****	-2028
▁mean	-2029
itle	-2030
▁code	-2031
33	-2032
不同的	-2033
▁ve	-2034
ither	-2035
软件	-2036
▁cond	-2037
Ch	-2038
▁book	-2039
位于	-2040
出了	-2041
制作	-2042
ference	-2043
▁problem	-2044
优秀	-2045
itions	-2046
vious	-2047
ush	-2048
▁anal	-2049
考试	-2050
ocial	-2051
严重	-2052
检查	-2053
▁government	-2054
ior	-2055
AP	-2056
▁appe	-2057
▁business	-2058
毕业	-2059
战略	-2060
制度	-2061
met	-2062
uff	-2063
ler	-2064
实验	-2065
区域	-2066
形式	-2067
的问题	-2068
▁12	-2069
也有	-2070
▁Pl	-2071
▁hum	-2072
ython	-2073
下降	-2074
▁always	-2075
设施	-2076
因素	-2077
阶段	-2078
ateg	-2079
降低	-2080
只是	-2081
▁view	-2082
▁elect	-2083
ribute	-2084
num	-2085
▁output	-2086
AM	-2087
意见	-2088
▁organ	-2089
▁prom	-2090
ET	-2091
arge	-2092
ready	-2093
▁rece	-2094
▁Be	-2095
▁dev	-2096
▁sum	-2097
^2	-2098
高的	-2099
……	-2100
Pro	-2101
org	-2102
▁wom	-2103
face	-2104
▁License	-2105
ables	-2106
▁cap	-2107
icle	-2108
indow	-2109
▁15	-2110
压力	-2111
▁feel	-2112
电视	-2113
▁doc	-2114
调整	-2115
并不	-2116
ta	-2117
的高	-2118
▁ident	-2119
amb	-2120
▁《	-2121
▁module	-2122
place	-2123
ining	-2124
iversity	-2125
卫生	-2126
创造	-2127
的重要	-2128
ittle	-2129
▁response	-2130
▁bo	-2131
现场	-2132
conom	-2133
▁aut	-2134
有一	-2135
改变	-2136
▁old	-2137
机械	-2138
▁mov	-2139
▁come	-2140
▁sing	-2141
ee	-2142
▁event	-2143
▁1,	-2144
sub	-2145
▁grow	-2146
保证	-2147
▁got	-2148
的新	-2149
▁turn	-2150
itional	-2151
▁hard	-2152
4,	-2153
▁prot	-2154
col	-2155
instance	-2156
ails	-2157
code	-2158
▁‘	-2159
▁understand	-2160
count	-2161
应当	-2162
不可	-2163
▁np	-2164
）、	-2165
▁based	-2166
dict	-2167
▁Sp	-2168
▁However	-2169
属于	-2170
▁offic	-2171
uture	-2172
正式	-2173
9.	-2174
方向	-2175
word	-2176
课程	-2177
当时	-2178
首先	-2179
▁size	-2180
长期	-2181
▁except	-2182
ering	-2183
生命	-2184
tain	-2185
满足	-2186
format	-2187
2017	-2188
▁range	-2189
感觉	-2190
cle	-2191
orn	-2192
ending	-2193
整个	-2194
dis	-2195
稳定	-2196
False	-2197
成绩	-2198
search	-2199
▁specific	-2200
快速	-2201
config	-2202
ED	-2203
▁never	-2204
ived	-2205
].	-2206
农业	-2207
ium	-2208
▁US	-2209
ister	-2210
及时	-2211
明显	-2212
}$	-2213
rel	-2214
rix	-2215
▁cost	-2216
确定	-2217
过去	-2218
化的	-2219
”。	-2220
ources	-2221
36	-2222
劳动	-2223
准备	-2224
ique	-2225
▁possible	-2226
▁input	-2227
%。	-2228
▁lot	-2229
▁distribut	-2230
head	-2231
资产	-2232
["	-2233
▁pay	-2234
▁local	-2235
▁eng	-2236
ises	-2237
重要的	-2238
",	-2239
施工	-2240
▁charact	-2241
htt	-2242
cur	-2243
▁sure	-2244
▁Or	-2245
代码	-2246
).	-2247
▁len	-2248
duct	-2249
体育	-2250
当地	-2251
``	-2252
▁move	-2253
ably	-2254
▁config	-2255
▁already	-2256
▁dri	-2257
▁Go	-2258
▁available	-2259
运营	-2260
▁access	-2261
▁At	-2262
他们的	-2263
▁pot	-2264
都有	-2265
size	-2266
▁orig	-2267
aces	-2268
ised	-2269
生成	-2270
的话	-2271
符合	-2272
sy	-2273
从而	-2274
▁context	-2275
uck	-2276
文件	-2277
左右	-2278
▁integ	-2279
然而	-2280
文本	-2281
心理	-2282
▁job	-2283
raw	-2284
ression	-2285
reen	-2286
iter	-2287
ention	-2288
指导	-2289
▁string	-2290
避免	-2291
充分	-2292
ently	-2293
检测	-2294
ott	-2295
ured	-2296
▁meas	-2297
出的	-2298
▁polit	-2299
中央	-2300
ances	-2301
联系	-2302
▁max	-2303
▁pract	-2304
视频	-2305
icy	-2306
▁results	-2307
respon	-2308
▁本	-2309
组成	-2310
por	-2311
▁16	-2312
后的	-2313
事业	-2314
▁bas	-2315
保险	-2316
▁init	-2317
action	-2318
▁Res	-2319
▁prob	-2320
）。	-2321
特色	-2322
199	-2323
used	-2324
plic	-2325
my	-2326
▁manag	-2327
▁course	-2328
办公	-2329
UR	-2330
ubl	-2331
东西	-2332
、“	-2333
▁won	-2334
erial	-2335
ty	-2336
出来	-2337
加入	-2338
▁et	-2339
ality	-2340
委员会	-2341
程度	-2342
▁little	-2343
run	-2344
__(	-2345
就会	-2346
Type	-2347
行动	-2348
ids	-2349
ftware	-2350
empt	-2351
ories	-2352
的影响	-2353
目的	-2354
ename	-2355
arning	-2356
▁One	-2357
RO	-2358
75	-2359
plit	-2360
nal	-2361
▁dat	-2362
先进	-2363
▁aff	-2364
ights	-2365
▁rest	-2366
idd	-2367
▁within	-2368
▁custom	-2369
wargs	-2370
▁question	-2371
Th	-2372
为什么	-2373
发展的	-2374
▁hist	-2375
31	-2376
[1	-2377
rem	-2378
ged	-2379
协会	-2380
oney	-2381
▁four	-2382
▁full	-2383
▁success	-2384
ird	-2385
状态	-2386
。“	-2387
加工	-2388
▁water	-2389
▁provide	-2390
fer	-2391
真正	-2392
models	-2393
88	-2394
▁target	-2395
这样的	-2396
hes	-2397
▁activ	-2398
▁prof	-2399
世纪	-2400
verse	-2401
另外	-2402
训练	-2403
fields	-2404
mp	-2405
适合	-2406
max	-2407
▁super	-2408
不得	-2409
ividual	-2410
公共	-2411
ina	-2412
▁redu	-2413
ran	-2414
资料	-2415
wit	-2416
▁company	-2417
意义	-2418
Con	-2419
▁step	-2420
▁sit	-2421
平均	-2422
rad	-2423
普通	-2424
default	-2425
▁She	-2426
aim	-2427
理论	-2428
ait	-2429
▁ener	-2430
rect	-2431
效率	-2432
uro	-2433
运行	-2434
ches	-2435
调查	-2436
ulation	-2437
da	-2438
state	-2439
规范	-2440
▁often	-2441
针对	-2442
▁present	-2443
物质	-2444
ret	-2445
▁Can	-2446
ideo	-2447
roll	-2448
香港	-2449
推荐	-2450
▁lik	-2451
part	-2452
发挥	-2453
serv	-2454
消费者	-2455
▁impro	-2456
join	-2457
采取	-2458
▁elif	-2459
cription	-2460
公开	-2461
ging	-2462
ards	-2463
▁bro	-2464
新闻	-2465
▁根据	-2466
aps	-2467
500	-2468
注册	-2469
ination	-2470
▁why	-2471
▁enc	-2472
▁These	-2473
▁times	-2474
的小	-2475
▁give	-2476
速度	-2477
▁able	-2478
中华	-2479
aster	-2480
▁es	-2481
▁cls	-2482
▁applic	-2483
▁unt	-2484
use	-2485
宣传	-2486
.__	-2487
▁30	-2488
▁Sy	-2489
▁control	-2490
做好	-2491
意识	-2492
34	-2493
通常	-2494
化学	-2495
▁making	-2496
当然	-2497
思想	-2498
▁percent	-2499
每天	-2500
AB	-2501
计算机	-2502
▁source	-2503
bo	-2504
....	-2505
模型	-2506
ift	-2507
▁No	-2508
▁space	-2509
ences	-2510
veral	-2511
▁pur	-2512
开放	-2513
▁expected	-2514
▁doesn	-2515
▁Le	-2516
atures	-2517
1-	-2518
▁With	-2519
复杂	-2520
合同	-2521
有些	-2522
▁talk	-2523
公里	-2524
ops	-2525
bl	-2526
▁pack	-2527
pped	-2528
fun	-2529
2016	-2530
▁exist	-2531
vironment	-2532
▁school	-2533
string	-2534
真的	-2535
ators	-2536
▁一	-2537
咨询	-2538
ION	-2539
ctions	-2540
正常	-2541
It	-2542
主义	-2543
了一个	-2544
技能	-2545
▁Do	-2546
▁tot	-2547
整体	-2548
工艺	-2549
▁individual	-2550
ored	-2551
▁option	-2552
method	-2553
挑战	-2554
1)	-2555
55	-2556
▁dict	-2557
来看	-2558
个月	-2559
▁propert	-2560
osed	-2561
▁least	-2562
"""	-2563
完善	-2564
年度	-2565
特点	-2566
▁fri	-2567
▁account	-2568
▁win	-2569
▁market	-2570
▁language	-2571
new	-2572
plement	-2573
ended	-2574
最大	-2575
统计	-2576
▁Ad	-2577
包含	-2578
▁means	-2579
办法	-2580
isk	-2581
空气	-2582
温度	-2583
}\	-2584
aut	-2585
▁By	-2586
▁later	-2587
▁social	-2588
▁econom	-2589
▁along	-2590
英国	-2591
上市	-2592
▁far	-2593
verage	-2594
loc	-2595
工具	-2596
▁body	-2597
▁occ	-2598
nection	-2599
arl	-2600
▁either	-2601
▁told	-2602
▁block	-2603
它的	-2604
ensor	-2605
的情况	-2606
38	-2607
start	-2608
▁ben	-2609
lobal	-2610
37	-2611
同学	-2612
book	-2613
▁ann	-2614
▁represent	-2615
▁据	-2616
rain	-2617
cer	-2618
打造	-2619
▁consider	-2620
实践	-2621
ogle	-2622
动物	-2623
uild	-2624
▁energy	-2625
▁100	-2626
roups	-2627
omet	-2628
ules	-2629
▁!	-2630
iod	-2631
▁working	-2632
尤其	-2633
ajor	-2634
位置	-2635
力量	-2636
太阳	-2637
▁port	-2638
经历	-2639
IP	-2640
都会	-2641
▁country	-2642
通知	-2643
▁camp	-2644
▁Trump	-2645
数量	-2646
▁large	-2647
▁11	-2648
▁answ	-2649
side	-2650
▁address	-2651
明确	-2652
ands	-2653
off	-2654
left	-2655
监督	-2656
▁第	-2657
绿色	-2658
测试	-2659
▁invol	-2660
运输	-2661
▁Im	-2662
多的	-2663
不少	-2664
most	-2665
▁family	-2666
▁area	-2667
▁la	-2668
▁service	-2669
▁network	-2670
create	-2671
")	-2672
'}	-2673
▁beg	-2674
购买	-2675
itor	-2676
的工作	-2677
制定	-2678
▁App	-2679
如此	-2680
引起	-2681
ags	-2682
48	-2683
ortun	-2684
rec	-2685
▁kind	-2686
▁whether	-2687
▁host	-2688
let	-2689
▁Bl	-2690
▁short	-2691
ched	-2692
OT	-2693
rist	-2694
资格	-2695
▁Rep	-2696
imate	-2697
▁mus	-2698
Re	-2699
增强	-2700
之间的	-2701
类型	-2702
▁contain	-2703
时期	-2704
▁particular	-2705
面的	-2706
▁above	-2707
就业	-2708
▁single	-2709
39	-2710
▁foc	-2711
▁bit	-2712
▁Col	-2713
▁struct	-2714
call	-2715
7,	-2716
▁mil	-2717
▁action	-2718
tings	-2719
多个	-2720
over	-2721
良好的	-2722
▁potential	-2723
odes	-2724
array	-2725
食物	-2726
只要	-2727
▁known	-2728
▁error	-2729
▁instance	-2730
valid	-2731
▁days	-2732
公司的	-2733
基地	-2734
深入	-2735
▁enough	-2736
CT	-2737
ormal	-2738
安排	-2739
▁several	-2740
ane	-2741
主任	-2742
DE	-2743
政治	-2744
面对	-2745
▁miss	-2746
rop	-2747
细胞	-2748
▁fail	-2749
upp	-2750
▁thing	-2751
▁14	-2752
▁content	-2753
儿童	-2754
落实	-2755
▁past	-2756
▁points	-2757
移动	-2758
"]	-2759
ero	-2760
力的	-2761
index	-2762
重大	-2763
相对	-2764
机关	-2765
ients	-2766
从事	-2767
ides	-2768
▁inf	-2769
十分	-2770
无论	-2771
那些	-2772
ete	-2773
▁copy	-2774
no	-2775
▁air	-2776
社区	-2777
group	-2778
▁include	-2779
amples	-2780
▁comput	-2781
▁desc	-2782
iple	-2783
平方	-2784
理念	-2785
▁lib	-2786
安装	-2787
▁until	-2788
可能会	-2789
▁certain	-2790
电话	-2791
年轻	-2792
ffic	-2793
▁199	-2794
欢迎	-2795
attr	-2796
▁exc	-2797
from	-2798
andom	-2799
loat	-2800
▁image	-2801
inc	-2802
65	-2803
最高	-2804
urther	-2805
创建	-2806
经常	-2807
说明	-2808
这么	-2809
▁parent	-2810
找到	-2811
imal	-2812
▁million	-2813
▁tell	-2814
▁true	-2815
Cl	-2816
成果	-2817
▁experience	-2818
不到	-2819
创业	-2820
▁6.	-2821
const	-2822
教授	-2823
改善	-2824
▁creat	-2825
▁didn	-2826
ref	-2827
▁deb	-2828
▁link	-2829
comp	-2830
”	-2831
去年	-2832
▁done	-2833
▁required	-2834
举办	-2835
ising	-2836
▁May	-2837
体的	-2838
▁thought	-2839
point	-2840
nc	-2841
全部	-2842
78	-2843
事件	-2844
股份	-2845
▁comb	-2846
成长	-2847
▁low	-2848
商品	-2849
ours	-2850
▁season	-2851
▁Joh	-2852
▁American	-2853
▁deter	-2854
吸引	-2855
pec	-2856
合理	-2857
CO	-2858
下来	-2859
▁side	-2860
outh	-2861
也会	-2862
del	-2863
2015	-2864
ene	-2865
check	-2866
aper	-2867
▁become	-2868
▁United	-2869
▁diff	-2870
request	-2871
供应	-2872
广告	-2873
描述	-2874
用的	-2875
host	-2876
aring	-2877
▁signific	-2878
acy	-2879
md	-2880
▁media	-2881
》、	-2882
▁message	-2883
三个	-2884
ips	-2885
分类	-2886
▁base	-2887
▁actually	-2888
▁money	-2889
AI	-2890
物流	-2891
告诉	-2892
集中	-2893
Name	-2894
write	-2895
▁fore	-2896
反应	-2897
plate	-2898
▁Gener	-2899
▁Not	-2900
▁major	-2901
等等	-2902
自身	-2903
▁study	-2904
We	-2905
▁away	-2906
▁Te	-2907
自由	-2908
”、“	-2909
▁pred	-2910
▁common	-2911
机制	-2912
▁human	-2913
arr	-2914
▁rele	-2915
Get	-2916
rm	-2917
▁light	-2918
▁sugg	-2919
▁calcul	-2920
▁dom	-2921
▁Man	-2922
▁suggest	-2923
wh	-2924
相信	-2925
ecut	-2926
▁crit	-2927
▁special	-2928
▁having	-2929
下的	-2930
ony	-2931
▁future	-2932
生的	-2933
评价	-2934
▁men	-2935
展示	-2936
▁connect	-2937
eral	-2938
最大的	-2939
pecial	-2940
▁cir	-2941
▁options	-2942
mit	-2943
更多的	-2944
wards	-2945
ctor	-2946
ibility	-2947
▁hig	-2948
ney	-2949
▁others	-2950
6,	-2951
ury	-2952
▁press	-2953
▁fund	-2954
▁Che	-2955
ayer	-2956
▁reason	-2957
ilar	-2958
ension	-2959
alf	-2960
uments	-2961
utils	-2962
ification	-2963
AD	-2964
raft	-2965
▁page	-2966
▁Mar	-2967
结束	-2968
利润	-2969
为主	-2970
名的	-2971
举行	-2972
▁University	-2973
▁trad	-2974
lib	-2975
也可以	-2976
方便	-2977
idence	-2978
ians	-2979
▁cult	-2980
▁author	-2981
▁indust	-2982
▁rad	-2983
▁series	-2984
探索	-2985
贡献	-2986
▁story	-2987
此次	-2988
人口	-2989
2)	-2990
▁Qu	-2991
eters	-2992
科研	-2993
民族	-2994
now	-2995
▁hold	-2996
样的	-2997
▁children	-2998
欧洲	-2999
只能	-3000
经理	-3001
▁relations	-3002
▁Cont	-3003
大多	-3004
▁though	-3005
▁node	-3006
▁general	-3007
▁mind	-3008
▁0,	-3009
▁Ob	-3010
django	-3011
ING	-3012
大量	-3013
称为	-3014
趋势	-3015
▁women	-3016
距离	-3017
逐渐	-3018
ued	-3019
投入	-3020
HE	-3021
阅读	-3022
cript	-3023
▁AN	-3024
资本	-3025
句子	-3026
go	-3027
▁http	-3028
深圳	-3029
rt	-3030
金属	-3031
▁models	-3032
▁sent	-3033
困难	-3034
▁meet	-3035
▁total	-3036
▁ens	-3037
▁1、	-3038
▁personal	-3039
▁match	-3040
正确	-3041
认识	-3042
▁makes	-3043
▁neg	-3044
报名	-3045
严格	-3046
.[	-3047
▁happen	-3048
[0]	-3049
▁###	-3050
土地	-3051
olume	-3052
▁abs	-3053
▁today	-3054
ysis	-3055
学科	-3056
▁strong	-3057
▁Fr	-3058
▁priv	-3059
报道	-3060
表达	-3061
连续	-3062
▁table	-3063
▁Eng	-3064
sum	-3065
▁chall	-3066
更好	-3067
指出	-3068
内的	-3069
统一	-3070
ones	-3071
▁record	-3072
inary	-3073
▁phys	-3074
以后	-3075
ama	-3076
▁tax	-3077
分为	-3078
英语	-3079
你们	-3080
▁如果	-3081
▁terms	-3082
ML	-3083
bb	-3084
▁numbers	-3085
▁claim	-3086
出口	-3087
多种	-3088
85	-3089
▁url	-3090
品质	-3091
值得	-3092
▁Here	-3093
进行了	-3094
▁doing	-3095
▁Add	-3096
证明	-3097
植物	-3098
len	-3099
▁mom	-3100
而是	-3101
▁Pol	-3102
医学	-3103
▁My	-3104
饮食	-3105
▁?	-3106
gether	-3107
▁cur	-3108
▁together	-3109
curity	-3110
最佳	-3111
▁fac	-3112
context	-3113
▁members	-3114
维护	-3115
▁stre	-3116
▁employ	-3117
元素	-3118
▁Inst	-3119
▁2、	-3120
▁tool	-3121
特殊	-3122
氧化	-3123
有人	-3124
▁larg	-3125
▁attack	-3126
▁cou	-3127
44	-3128
resh	-3129
aken	-3130
▁discuss	-3131
日常	-3132
▁needs	-3133
涉及	-3134
result	-3135
▁learn	-3136
▁deal	-3137
▁colle	-3138
性和	-3139
地球	-3140
OS	-3141
▁red	-3142
动力	-3143
基于	-3144
66	-3145
mm	-3146
▁Cal	-3147
imum	-3148
▁gl	-3149
▁community	-3150
▁从	-3151
支付	-3152
▁across	-3153
成员	-3154
相比	-3155
etime	-3156
atform	-3157
ements	-3158
aff	-3159
cal	-3160
sel	-3161
ison	-3162
▁17	-3163
记录	-3164
习惯	-3165
fix	-3166
▁environment	-3167
大型	-3168
istic	-3169
']	-3170
消息	-3171
ires	-3172
智慧	-3173
恢复	-3174
▁significant	-3175
解释	-3176
Com	-3177
▁['	-3178
▁among	-3179
皮肤	-3180
▁once	-3181
inter	-3182
eturn	-3183
▁Now	-3184
▁...	-3185
重新	-3186
农村	-3187
▁character	-3188
iving	-3189
():	-3190
原则	-3191
文明	-3192
▁After	-3193
itut	-3194
作者	-3195
▁给	-3196
rap	-3197
推广	-3198
▁online	-3199
▁official	-3200
▁index	-3201
费用	-3202
的时间	-3203
</	-3204
lish	-3205
独立	-3206
▁mag	-3207
}	-3208
uation	-3209
mission	-3210
▁mass	-3211
▁ant	-3212
ley	-3213
epend	-3214
优化	-3215
▁video	-3216
▁below	-3217
想要	-3218
电池	-3219
▁research	-3220
ux	-3221
ales	-3222
49	-3223
分享	-3224
http	-3225
具备	-3226
预计	-3227
▁Test	-3228
另一	-3229
升级	-3230
▁love	-3231
Set	-3232
▁city	-3233
营养	-3234
几个	-3235
ks	-3236
IM	-3237
pper	-3238
▁students	-3239
▁due	-3240
▁simple	-3241
现实	-3242
status	-3243
风格	-3244
航空	-3245
▁publ	-3246
一点	-3247
▁date	-3248
▁risk	-3249
一年	-3250
order	-3251
Cont	-3252
▁po	-3253
▁25	-3254
▁seen	-3255
优质	-3256
贸易	-3257
观众	-3258
每年	-3259
▁ever	-3260
▁2,	-3261
▁benef	-3262
书记	-3263
cher	-3264
▁previous	-3265
▁phot	-3266
ental	-3267
des	-3268
UL	-3269
300	-3270
▁material	-3271
山东	-3272
oad	-3273
最近	-3274
▁select	-3275
输入	-3276
▁cell	-3277
gs	-3278
ills	-3279
▁according	-3280
2000	-3281
ambda	-3282
▁describ	-3283
with	-3284
享受	-3285
kwargs	-3286
%。	-3287
▁length	-3288
评估	-3289
大利	-3290
▁task	-3291
▁period	-3292
监管	-3293
现象	-3294
相当	-3295
▁files	-3296
irt	-3297
▁food	-3298
ai	-3299
道路	-3300
▁likely	-3301
lim	-3302
变得	-3303
avor	-3304
ograph	-3305
input	-3306
高速	-3307
do	-3308
出版	-3309
气候	-3310
医生	-3311
icro	-3312
pping	-3313
▁dest	-3314
限制	-3315
OP	-3316
▁Int	-3317
▁position	-3318
成了	-3319
clus	-3320
api	-3321
▁array	-3322
▁development	-3323
▁added	-3324
▁looking	-3325
www	-3326
af	-3327
公园	-3328
来源	-3329
une	-3330
广州	-3331
后来	-3332
▁While	-3333
半年	-3334
▁require	-3335
lex	-3336
》（	-3337
▁Mon	-3338
▁mot	-3339
贷款	-3340
CH	-3341
client	-3342
▁rate	-3343
-8	-3344
▁came	-3345
idth	-3346
▁graph	-3347
德国	-3348
▁break	-3349
感到	-3350
▁yet	-3351
▁similar	-3352
先生	-3353
的方式	-3354
aign	-3355
▁为	-3356
▁command	-3357
tra	-3358
fact	-3359
dat	-3360
asing	-3361
度的	-3362
▁respect	-3363
Mod	-3364
uration	-3365
▁idea	-3366
》、《	-3367
里的	-3368
方面的	-3369
营销	-3370
▁ge	-3371
年代	-3372
哪些	-3373
obj	-3374
▁的	-3375
学术	-3376
台湾	-3377
▁names	-3378
IL	-3379
群众	-3380
▁Let	-3381
2014	-3382
▁Some	-3383
在线	-3384
▁implement	-3385
mber	-3386
协议	-3387
▁early	-3388
▁amount	-3389
多少	-3390
让人	-3391
岗位	-3392
================	-3393
公布	-3394
▁clear	-3395
▁begin	-3396
色的	-3397
加快	-3398
预测	-3399
▁Euro	-3400
充满	-3401
▁Pr	-3402
AG	-3403
设置	-3404
Add	-3405
▁中国	-3406
▁>>	-3407
几乎	-3408
rary	-3409
yl	-3410
▁initial	-3411
比例	-3412
▁software	-3413
▁State	-3414
商务	-3415
▁random	-3416
▁games	-3417
cret	-3418
表面	-3419
董事	-3420
▁answer	-3421
居民	-3422
▁role	-3423
准确	-3424
ude	-3425
有着	-3426
▁13	-3427
77	-3428
ogn	-3429
▁changes	-3430
▁tre	-3431
▁equal	-3432
network	-3433
Res	-3434
oding	-3435
US	-3436
atter	-3437
广东	-3438
".	-3439
内部	-3440
旅行	-3441
IG	-3442
error	-3443
文学	-3444
病毒	-3445
适应	-3446
重视	-3447
sg	-3448
▁Mr	-3449
mon	-3450
ilt	-3451
▁Cent	-3452
ilities	-3453
▁sort	-3454
▁limit	-3455
▁correct	-3456
▁valid	-3457
abor	-3458
oud	-3459
ENT	-3460
▁impact	-3461
月份	-3462
掌握	-3463
必要	-3464
各类	-3465
MP	-3466
ply	-3467
者的	-3468
trans	-3469
▁quick	-3470
'):	-3471
▁fig	-3472
sq	-3473
企业的	-3474
▁，	-3475
▁getting	-3476
社交	-3477
osp	-3478
各地	-3479
▁comes	-3480
真实	-3481
▁treat	-3482
您的	-3483
大会	-3484
垃圾	-3485
ript	-3486
▁Per	-3487
node	-3488
reed	-3489
尽管	-3490
iver	-3491
▁police	-3492
▁dou	-3493
core	-3494
仍然	-3495
▁Am	-3496
▁Christ	-3497
▁news	-3498
hel	-3499
enn	-3500
▁associ	-3501
工作的	-3502
产品的	-3503
及其	-3504
▁complex	-3505
▁50	-3506
独特	-3507
证券	-3508
连接	-3509
update	-3510
兴趣	-3511
▁''	-3512
症状	-3513
▁instead	-3514
▁Mc	-3515
artment	-3516
▁rather	-3517
illed	-3518
▁pick	-3519
▁took	-3520
▁document	-3521
▁political	-3522
86	-3523
itted	-3524
year	-3525
▁cut	-3526
▁Pres	-3527
▁[],	-3528
▁item	-3529
95	-3530
游客	-3531
atural	-3532
▁infl	-3533
json	-3534
使得	-3535
▁remain	-3536
她的	-3537
创作	-3538
model	-3539
将在	-3540
背景	-3541
tes	-3542
())	-3543
讨论	-3544
▁write	-3545
中小	-3546
▁land	-3547
▁necess	-3548
特征	-3549
处于	-3550
鼓励	-3551
的主要	-3552
ication	-3553
情感	-3554
rc	-3555
公路	-3556
面临	-3557
财政	-3558
▁2016	-3559
▁States	-3560
▁groups	-3561
ournal	-3562
ges	-3563
amed	-3564
params	-3565
ager	-3566
▁gen	-3567
▁focus	-3568
Un	-3569
至少	-3570
▁search	-3571
江苏	-3572
map	-3573
box	-3574
身份	-3575
▁Co	-3576
▁dig	-3577
令人	-3578
▁relationship	-3579
▁works	-3580
▁我们	-3581
相应	-3582
推出	-3583
▁effort	-3584
split	-3585
▁install	-3586
▁squ	-3587
▁issue	-3588
景区	-3589
▁cannot	-3590
▁args	-3591
重庆	-3592
认证	-3593
车辆	-3594
mbol	-3595
ivity	-3596
uid	-3597
人士	-3598
地产	-3599
▁problems	-3600
▁services	-3601
▁Ge	-3602
dev	-3603
▁load	-3604
单词	-3605
玻璃	-3606
法院	-3607
有所	-3608
输出	-3609
ming	-3610
cing	-3611
8,	-3612
▁months	-3613
oll	-3614
再次	-3615
Value	-3616
().	-3617
广大	-3618
突破	-3619
▁young	-3620
nces	-3621
▁ax	-3622
上升	-3623
的地方	-3624
双方	-3625
当前	-3626
博士	-3627
认真	-3628
ender	-3629
▁issues	-3630
▁five	-3631
算法	-3632
承担	-3633
▁created	-3634
iff	-3635
Id	-3636
铁路	-3637
style	-3638
接触	-3639
▁ver	-3640
▁trying	-3641
▁further	-3642
'),	-3643
▁technology	-3644
length	-3645
▁night	-3646
List	-3647
▁seem	-3648
法国	-3649
不足	-3650
机场	-3651
▁campaign	-3652
bit	-3653
mark	-3654
tem	-3655
PS	-3656
▁See	-3657
quence	-3658
就可以	-3659
down	-3660
而言	-3661
地址	-3662
天气	-3663
追求	-3664
▁history	-3665
青年	-3666
进步	-3667
▁original	-3668
▁York	-3669
ball	-3670
沟通	-3671
▁started	-3672
)，	-3673
ken	-3674
."""	-3675
驾驶	-3676
▁fields	-3677
的一个	-3678
同样	-3679
rate	-3680
pack	-3681
46	-3682
自我	-3683
icult	-3684
亿美元	-3685
▁3、	-3686
状况	-3687
概念	-3688
parse	-3689
之外	-3690
————	-3691
▁Fl	-3692
▁site	-3693
美丽	-3694
数学	-3695
output	-3696
幸福	-3697
HT	-3698
曾经	-3699
▁Intern	-3700
排名	-3701
2-	-3702
▁General	-3703
同比增长	-3704
▁taking	-3705
▁En	-3706
▁six	-3707
那个	-3708
'),	-3709
的产品	-3710
anies	-3711
电脑	-3712
47	-3713
])	-3714
▁Europe	-3715
▁Me	-3716
于是	-3717
▁IN	-3718
负责人	-3719
▁John	-3720
though	-3721
药物	-3722
selves	-3723
参考	-3724
▁track	-3725
▁president	-3726
排放	-3727
▁positive	-3728
gor	-3729
宣布	-3730
▁assum	-3731
((	-3732
unch	-3733
▁went	-3734
▁needed	-3735
▁``	-3736
equal	-3737
izing	-3738
1000	-3739
▁solution	-3740
▁approach	-3741
本身	-3742
▁policy	-3743
▁2019	-3744
的生活	-3745
doc	-3746
依法	-3747
▁complet	-3748
覆盖	-3749
▁educ	-3750
下面	-3751
和国	-3752
ival	-3753
▁systems	-3754
如今	-3755
一定要	-3756
学会	-3757
▁ways	-3758
常见	-3759
球队	-3760
rodu	-3761
▁someone	-3762
四川	-3763
高校	-3764
▁$$\	-3765
大部分	-3766
感染	-3767
▁fix	-3768
女性	-3769
oo	-3770
▁IS	-3771
融合	-3772
▁final	-3773
html	-3774
物理	-3775
▁isinstance	-3776
▁improve	-3777
▁Min	-3778
神经	-3779
▁Part	-3780
_1	-3781
▁webs	-3782
ounds	-3783
▁various	-3784
▁Russ	-3785
▁err	-3786
角色	-3787
▁Ab	-3788
▁7.	-3789
▁isn	-3790
rong	-3791
rest	-3792
rew	-3793
▁close	-3794
▁music	-3795
节能	-3796
▁hope	-3797
▁security	-3798
▁global	-3799
蛋白	-3800
▁questions	-3801
回答	-3802
hand	-3803
▁opportun	-3804
>	-3805
▁+=	-3806
▁2017	-3807
arth	-3808
▁colum	-3809
识别	-3810
事实	-3811
家长	-3812
强调	-3813
2013	-3814
▁ago	-3815
body	-3816
会计	-3817
▁div	-3818
详细	-3819
▁entire	-3820
▁anything	-3821
▁easy	-3822
▁ang	-3823
(),	-3824
ached	-3825
▁Don	-3826
▁q	-3827
错误	-3828
pi	-3829
一切	-3830
▁row	-3831
▁believe	-3832
形象	-3833
▁words	-3834
循环	-3835
▁half	-3836
肯定	-3837
扩大	-3838
▁continue	-3839
往往	-3840
▁offer	-3841
▁functions	-3842
高度	-3843
pri	-3844
不知道	-3845
传播	-3846
▁bi	-3847
迅速	-3848
ding	-3849
免费	-3850
有一个	-3851
▁vot	-3852
fully	-3853
▁matrix	-3854
item	-3855
flow	-3856
▁Ass	-3857
即使	-3858
oken	-3859
有了	-3860
是指	-3861
▁force	-3862
(\	-3863
▁sense	-3864
eta	-3865
▁Med	-3866
tim	-3867
▁review	-3868
▁face	-3869
▁ess	-3870
主动	-3871
rag	-3872
▁features	-3873
▁behav	-3874
▁taken	-3875
▁express	-3876
有机	-3877
是什么	-3878
ensive	-3879
▁recent	-3880
gorith	-3881
▁accept	-3882
提供了	-3883
自主	-3884
hing	-3885
ocr	-3886
，《	-3887
子的	-3888
▁coll	-3889
ava	-3890
base	-3891
▁standard	-3892
▁war	-3893
LO	-3894
▁sat	-3895
。（	-3896
PE	-3897
▁2015	-3898
发表	-3899
dom	-3900
▁fall	-3901
▁protect	-3902
▁bad	-3903
浙江	-3904
高级	-3905
▁Republic	-3906
ster	-3907
iting	-3908
anks	-3909
到的	-3910
财务	-3911
公众	-3912
▁provided	-3913
ze	-3914
上述	-3915
chie	-3916
▁collect	-3917
▁poss	-3918
下午	-3919
节目	-3920
indows	-3921
高效	-3922
89	-3923
▁color	-3924
更新	-3925
截至	-3926
▁wor	-3927
▁higher	-3928
aries	-3929
一位	-3930
▁sw	-3931
iddle	-3932
）。	-3933
apt	-3934
▁!=	-3935
rip	-3936
文字	-3937
wise	-3938
▁players	-3939
,000	-3940
:00	-3941
▁Des	-3942
▁whole	-3943
登记	-3944
▁room	-3945
▁investig	-3946
▁former	-3947
思考	-3948
技术的	-3949
将会	-3950
▁consum	-3951
▁shows	-3952
▁Jan	-3953
erc	-3954
父母	-3955
▁40	-3956
▁word	-3957
▁unique	-3958
CE	-3959
▁West	-3960
年龄	-3961
演员	-3962
▁exact	-3963
▁difficult	-3964
ls	-3965
情绪	-3966
发行	-3967
平方米	-3968
▁running	-3969
干部	-3970
▁mar	-3971
唯一	-3972
pecially	-3973
▁almost	-3974
融资	-3975
根本	-3976
▁share	-3977
iction	-3978
59	-3979
▁industry	-3980
ocol	-3981
▁lines	-3982
67	-3983
并在	-3984
ports	-3985
成都	-3986
可以在	-3987
人物	-3988
感受	-3989
更是	-3990
国务	-3991
娱乐	-3992
lement	-3993
▁events	-3994
预防	-3995
ancial	-3996
HO	-3997
▁seems	-3998
▁Dem	-3999
地位	-4000
oper	-4001
▁mor	-4002
▁states	-4003
▁multiple	-4004
▁email	-4005
▁cred	-4006
营业	-4007
BC	-4008
列表	-4009
▁performance	-4010
pass	-4011
对象	-4012
ili	-4013
sk	-4014
的基础	-4015
▁compet	-4016
df	-4017
▁der	-4018
主管	-4019
▁details	-4020
办理	-4021
经典	-4022
▁President	-4023
▁bar	-4024
包装	-4025
▁lower	-4026
给予	-4027
▁dr	-4028
解决方案	-4029
▁element	-4030
塑料	-4031
shape	-4032
fr	-4033
▁types	-4034
ana	-4035
的技术	-4036
函数	-4037
▁root	-4038
xy	-4039
示范	-4040
都在	-4041
▁prim	-4042
▁products	-4043
▁24	-4044
▁conc	-4045
▁live	-4046
微信	-4047
添加	-4048
一家	-4049
▁deg	-4050
简称	-4051
▁indic	-4052
▁Public	-4053
本次	-4054
▁2014	-4055
▁clos	-4056
▁companies	-4057
百分	-4058
启动	-4059
▁near	-4060
▁viol	-4061
AA	-4062
values	-4063
)$	-4064
别人	-4065
fect	-4066
▁obtain	-4067
▁Acc	-4068
▁term	-4069
response	-4070
'],	-4071
izer	-4072
10.	-4073
季度	-4074
少年	-4075
葡萄	-4076
▁however	-4077
▁Car	-4078
oice	-4079
呈现	-4080
File	-4081
决策	-4082
寻找	-4083
相同	-4084
ites	-4085
▁stay	-4086
cast	-4087
▁users	-4088
quest	-4089
▁conditions	-4090
▁execut	-4091
▁extra	-4092
法规	-4093
▁More	-4094
▁asked	-4095
▁black	-4096
知名	-4097
▁cases	-4098
▁increase	-4099
ological	-4100
▁Then	-4101
process	-4102
▁Par	-4103
公告	-4104
▁pie	-4105
做到	-4106
分子	-4107
▁property	-4108
▁analysis	-4109
▁training	-4110
如下	-4111
▁house	-4112
类似	-4113
尤其是	-4114
utes	-4115
▁hy	-4116
▁br	-4117
▁learning	-4118
▁quality	-4119
▁client	-4120
冠军	-4121
▁Ed	-4122
▁rights	-4123
▁matter	-4124
官方	-4125
▁server	-4126
在于	-4127
pen	-4128
家的	-4129
利益	-4130
▁aud	-4131
始终	-4132
首次	-4133
苹果	-4134
▁simply	-4135
▁2020	-4136
▁bring	-4137
州市	-4138
万人	-4139
'])	-4140
近年来	-4141
电动	-4142
运用	-4143
特别是	-4144
指标	-4145
cs	-4146
国务院	-4147
▁buy	-4148
ruction	-4149
annel	-4150
▁display	-4151
设立	-4152
做出	-4153
心的	-4154
强的	-4155
??	-4156
print	-4157
名称	-4158
▁status	-4159
咖啡	-4160
▁attempt	-4161
▁Dis	-4162
▁”	-4163
这次	-4164
tty	-4165
职工	-4166
也就是	-4167
的数据	-4168
gen	-4169
▁Dep	-4170
%；	-4171
完整	-4172
3-	-4173
▁Sim	-4174
临床	-4175
▁Just	-4176
▁subject	-4177
▁building	-4178
aid	-4179
▁moment	-4180
▁third	-4181
▁admin	-4182
股票	-4183
69	-4184
试验	-4185
▁ur	-4186
XX	-4187
Data	-4188
pha	-4189
翻译	-4190
Par	-4191
二十	-4192
▁itself	-4193
irm	-4194
▁Mod	-4195
一段	-4196
角度	-4197
各个	-4198
medi	-4199
ynam	-4200
que	-4201
加上	-4202
lying	-4203
深度	-4204
build	-4205
大多数	-4206
▁probably	-4207
让我	-4208
▁dim	-4209
各项	-4210
通信	-4211
本科	-4212
sl	-4213
▁>>>	-4214
▁den	-4215
▁sche	-4216
ourse	-4217
体现	-4218
▁measure	-4219
▁pain	-4220
▁comment	-4221
ground	-4222
▁Sun	-4223
BA	-4224
▁device	-4225
2012	-4226
▁tw	-4227
▁hom	-4228
▁)	-4229
ided	-4230
▁而	-4231
以前	-4232
bar	-4233
▁sex	-4234
':	-4235
▁loss	-4236
观察	-4237
共和国	-4238
电力	-4239
▁foot	-4240
▁World	-4241
▁ensure	-4242
▁math	-4243
▁prior	-4244
▁separ	-4245
▁grad	-4246
68	-4247
oved	-4248
治理	-4249
协调	-4250
证书	-4251
root	-4252
ounter	-4253
配合	-4254
实力	-4255
▁format	-4256
unk	-4257
79	-4258
▁everything	-4259
不错	-4260
su	-4261
颜色	-4262
▁received	-4263
oph	-4264
rown	-4265
▁ey	-4266
召开	-4267
exp	-4268
2010	-4269
放在	-4270
▁platform	-4271
▁related	-4272
Im	-4273
意味	-4274
▁regular	-4275
▁average	-4276
▁paper	-4277
********	-4278
▁decision	-4279
▁nothing	-4280
▁hours	-4281
▁shape	-4282
cket	-4283
▁statement	-4284
joy	-4285
▁vol	-4286
的企业	-4287
],	-4288
▁walk	-4289
\\	-4290
▁constant	-4291
UN	-4292
规则	-4293
▁title	-4294
的方法	-4295
▁price	-4296
球员	-4297
58	-4298
ille	-4299
▁OF	-4300
不再	-4301
小说	-4302
”“	-4303
▁recomm	-4304
混合	-4305
idget	-4306
itary	-4307
人在	-4308
还要	-4309
党员	-4310
年前	-4311
change	-4312
总结	-4313
专利	-4314
▁mock	-4315
日起	-4316
担任	-4317
▁bound	-4318
收集	-4319
'.	-4320
▁gra	-4321
素质	-4322
▁normal	-4323
ledge	-4324
批准	-4325
难以	-4326
领先	-4327
累计	-4328
▁ep	-4329
▁cy	-4330
尝试	-4331
▁Gu	-4332
的事情	-4333
▁Google	-4334
▁popular	-4335
tx	-4336
_2	-4337
▁reported	-4338
美的	-4339
▁natural	-4340
cd	-4341
ula	-4342
▁equation	-4343
open	-4344
所在	-4345
丰富的	-4346
还可以	-4347
▁AI	-4348
▁pers	-4349
罗斯	-4350
十二	-4351
ung	-4352
股东	-4353
污水	-4354
rs	-4355
ners	-4356
~~	-4357
句话	-4358
网上	-4359
PI	-4360
如果你	-4361
策略	-4362
▁death	-4363
0.0	-4364
ANT	-4365
▁party	-4366
atives	-4367
adata	-4368
期的	-4369
化工	-4370
▁sys	-4371
table	-4372
angle	-4373
▁achie	-4374
妈妈	-4375
队伍	-4376
▁front	-4377
pace	-4378
平衡	-4379
的好	-4380
▁National	-4381
PO	-4382
论文	-4383
▁propos	-4384
▁compon	-4385
erman	-4386
博物	-4387
分布	-4388
第四	-4389
▁flow	-4390
▁avoid	-4391
场景	-4392
▁mach	-4393
感谢	-4394
▁especially	-4395
▁2013	-4396
elling	-4397
快乐	-4398
▁Get	-4399
43	-4400
办公室	-4401
istration	-4402
▁stop	-4403
label	-4404
▁behind	-4405
▁你	-4406
names	-4407
pol	-4408
oring	-4409
流程	-4410
市场的	-4411
ores	-4412
ained	-4413
▁observ	-4414
▁takes	-4415
▁decl	-4416
▁article	-4417
aced	-4418
Ob	-4419
▁argument	-4420
Al	-4421
编辑	-4422
anced	-4423
意思	-4424
总是	-4425
人生	-4426
display	-4427
na	-4428
▁First	-4429
理想	-4430
chan	-4431
▁national	-4432
▁quant	-4433
!!	-4434
是由	-4435
▁Sm	-4436
▁2018	-4437
][	-4438
事情	-4439
引导	-4440
招聘	-4441
▁rev	-4442
400	-4443
▁OR	-4444
考生	-4445
ague	-4446
▁ground	-4447
itting	-4448
▁methods	-4449
先后	-4450
影片	-4451
▁typ	-4452
就像	-4453
组合	-4454
即可	-4455
▁Reg	-4456
▁section	-4457
声音	-4458
最新	-4459
在中国	-4460
▁join	-4461
强度	-4462
▁update	-4463
出生	-4464
河南	-4465
▁cand	-4466
▁emb	-4467
Ph	-4468
▁Post	-4469
▁writing	-4470
ederal	-4471
▁Red	-4472
很大	-4473
损失	-4474
OD	-4475
▁speed	-4476
content	-4477
bf	-4478
76	-4479
就能	-4480
▁Af	-4481
改造	-4482
To	-4483
▁via	-4484
▁wait	-4485
离开	-4486
▁experi	-4487
招生	-4488
更好的	-4489
▁House	-4490
ceed	-4491
▁resources	-4492
nown	-4493
突然	-4494
▁Oct	-4495
至今	-4496
机的	-4497
指数	-4498
行的	-4499
-2	-4500
突出	-4501
存储	-4502
TP	-4503
message	-4504
死亡	-4505
监测	-4506
▁connection	-4507
▁America	-4508
olutions	-4509
可持续	-4510
56	-4511
共享	-4512
人民币	-4513
return	-4514
都不	-4515
iment	-4516
▁->	-4517
▁regard	-4518
orage	-4519
witter	-4520
▁dam	-4521
搜索	-4522
▁web	-4523
赛季	-4524
▁mode	-4525
▁challeng	-4526
iam	-4527
▁frequ	-4528
拍摄	-4529
直到	-4530
一体	-4531
危险	-4532
▁description	-4533
清楚	-4534
领域的	-4535
▁新	-4536
▁imm	-4537
ada	-4538
▁countries	-4539
防止	-4540
依然	-4541
▁elements	-4542
▁clean	-4543
▁profess	-4544
err	-4545
▁areas	-4546
一天	-4547
校园	-4548
▁ball	-4549
},	-4550
会有	-4551
▁Mat	-4552
________	-4553
海洋	-4554
▁Obama	-4555
block	-4556
1/	-4557
server	-4558
学位	-4559
▁Def	-4560
hemat	-4561
member	-4562
▁outside	-4563
spec	-4564
依据	-4565
Key	-4566
的心	-4567
ald	-4568
▁City	-4569
发电	-4570
▁Us	-4571
所有的	-4572
标志	-4573
ino	-4574
amer	-4575
▁wrong	-4576
pected	-4577
▁2012	-4578
南京	-4579
like	-4580
犯罪	-4581
▁Dav	-4582
天然	-4583
良好	-4584
实验室	-4585
42	-4586
▁Cons	-4587
▁Aust	-4588
SS	-4589
aging	-4590
msg	-4591
np	-4592
▁player	-4593
主持	-4594
蔬菜	-4595
一个人	-4596
▁North	-4597
▁engine	-4598
types	-4599
▁website	-4600
Time	-4601
让我们	-4602
人民政府	-4603
▁Bar	-4604
▁wanted	-4605
TR	-4606
▁当	-4607
医药	-4608
去了	-4609
▁lat	-4610
▁quite	-4611
ashing	-4612
▁Rob	-4613
▁und	-4614
▁estab	-4615
NU	-4616
成熟	-4617
等方面	-4618
长的	-4619
▁everyone	-4620
相互	-4621
▁growth	-4622
一条	-4623
link	-4624
▁ir	-4625
earch	-4626
韩国	-4627
相关的	-4628
人数	-4629
意味着	-4630
定义	-4631
转型	-4632
▁intern	-4633
在这	-4634
玩家	-4635
▁introdu	-4636
▁map	-4637
image	-4638
Int	-4639
▁age	-4640
▁3,	-4641
▁distribution	-4642
近日	-4643
并没有	-4644
学生的	-4645
进口	-4646
▁Aug	-4647
的同时	-4648
▁financial	-4649
逐步	-4650
ief	-4651
gr	-4652
手段	-4653
时的	-4654
▁flo	-4655
很多人	-4656
▁watch	-4657
▁forward	-4658
是因为	-4659
新型	-4660
▁对于	-4661
find	-4662
▁Sen	-4663
▁eval	-4664
▁complete	-4665
▁friend	-4666
态度	-4667
武汉	-4668
获取	-4669
▁addition	-4670
57	-4671
小的	-4672
印度	-4673
装备	-4674
直播	-4675
▁Will	-4676
alt	-4677
反映	-4678
▁becom	-4679
系统的	-4680
ried	-4681
众多	-4682
联盟	-4683
▁Ne	-4684
问题的	-4685
▁Comm	-4686
▁autom	-4687
▁Mark	-4688
...	-4689
▁published	-4690
▁msg	-4691
ociety	-4692
▁variable	-4693
▁Brit	-4694
思维	-4695
▁tim	-4696
渠道	-4697
布局	-4698
oke	-4699
终于	-4700
里面	-4701
▁stat	-4702
▁rout	-4703
合格	-4704
党委	-4705
▁affect	-4706
MA	-4707
自行	-4708
将其	-4709
▁Su	-4710
▁对	-4711
表明	-4712
▁10.	-4713
Ar	-4714
+1	-4715
just	-4716
一名	-4717
修改	-4718
▁minutes	-4719
第一次	-4720
olumn	-4721
ailed	-4722
名字	-4723
▁recogn	-4724
▁member	-4725
▁fight	-4726
伙伴	-4727
▁practice	-4728
hat	-4729
▁predict	-4730
▁longer	-4731
▁algorith	-4732
▁feed	-4733
似乎	-4734
租赁	-4735
=1	-4736
II	-4737
动作	-4738
▁Ag	-4739
▁deep	-4740
▁upd	-4741
爱情	-4742
的一种	-4743
hood	-4744
▁additional	-4745
评论	-4746
▁box	-4747
oms	-4748
uge	-4749
▁His	-4750
▁themselves	-4751
可是	-4752
收益	-4753
▁circ	-4754
▁contribut	-4755
title	-4756
防控	-4757
致力	-4758
支撑	-4759
CC	-4760
page	-4761
▁appear	-4762
2011	-4763
▁fire	-4764
source	-4765
足够	-4766
采购	-4767
上了	-4768
Sh	-4769
▁distributed	-4770
ategory	-4771
表演	-4772
足球	-4773
高等	-4774
记忆	-4775
▁Apr	-4776
》《	-4777
ees	-4778
应对	-4779
▁private	-4780
▁sus	-4781
lines	-4782
确实	-4783
▁mix	-4784
▁compl	-4785
▁pretty	-4786
▁La	-4787
两种	-4788
older	-4789
很难	-4790
湖南	-4791
期待	-4792
istance	-4793
我们可以	-4794
名为	-4795
abs	-4796
森林	-4797
小组	-4798
cr	-4799
▁Act	-4800
商标	-4801
elt	-4802
▁enjoy	-4803
▁中	-4804
▁God	-4805
astic	-4806
▁请	-4807
▁release	-4808
专业的	-4809
▁commit	-4810
博物馆	-4811
top	-4812
level	-4813
▁Sch	-4814
▁https	-4815
▁weight	-4816
87	-4817
行业的	-4818
aul	-4819
▁estim	-4820
▁有	-4821
自治	-4822
▁multi	-4823
是不	-4824
▁Rem	-4825
▁frame	-4826
天津	-4827
CL	-4828
上涨	-4829
abled	-4830
多年	-4831
84	-4832
▁coming	-4833
▁defined	-4834
▁consist	-4835
答案	-4836
ordin	-4837
▁temper	-4838
▁saying	-4839
xx	-4840
适当	-4841
▁Fin	-4842
▁film	-4843
objects	-4844
阳光	-4845
环节	-4846
▁Ju	-4847
▁War	-4848
战争	-4849
pose	-4850
▁prevent	-4851
irection	-4852
所谓	-4853
海外	-4854
房地产	-4855
abase	-4856
志愿	-4857
▁theory	-4858
zz	-4859
人体	-4860
acebook	-4861
▁py	-4862
判断	-4863
based	-4864
items	-4865
mail	-4866
=\	-4867
加大	-4868
▁particip	-4869
▁pair	-4870
▁structure	-4871
▁written	-4872
最好	-4873
uple	-4874
也在	-4875
研究生	-4876
▁inside	-4877
著名	-4878
Not	-4879
▁Trans	-4880
▁white	-4881
connect	-4882
filter	-4883
overed	-4884
▁South	-4885
观点	-4886
强化	-4887
enses	-4888
▁sn	-4889
遇到	-4890
院校	-4891
files	-4892
总体	-4893
▁From	-4894
▁bal	-4895
▁style	-4896
address	-4897
▁shown	-4898
▁Cor	-4899
父亲	-4900
生活中	-4901
补充	-4902
itation	-4903
come	-4904
igned	-4905
rote	-4906
ube	-4907
▁perfect	-4908
▁difference	-4909
▁年	-4910
多次	-4911
更好地	-4912
永远	-4913
▁travel	-4914
作业	-4915
代理	-4916
▁Pe	-4917
意大利	-4918
顺利	-4919
▁influ	-4920
专门	-4921
oura	-4922
▁location	-4923
▁contact	-4924
装饰	-4925
他在	-4926
的不	-4927
刺激	-4928
一篇	-4929
ructor	-4930
2}	-4931
清洁	-4932
基因	-4933
opyright	-4934
nov	-4935
▁leaders	-4936
String	-4937
▁将	-4938
▁prec	-4939
▁Our	-4940
▁{	-4941
urch	-4942
▁sample	-4943
▁ill	-4944
TE	-4945
▁0.0	-4946
9,	-4947
▁draw	-4948
并不是	-4949
工资	-4950
▁21	-4951
▁hot	-4952
▁analy	-4953
▁ste	-4954
▁useful	-4955
牛皮	-4956
保温	-4957
▁公司	-4958
生素	-4959
NA	-4960
▁effic	-4961
nes	-4962
愿意	-4963
▁label	-4964
线上	-4965
ector	-4966
actions	-4967
破坏	-4968
▁4、	-4969
ighb	-4970
iew	-4971
实行	-4972
信用	-4973
uous	-4974
{1	-4975
▁provides	-4976
▁ign	-4977
▁Since	-4978
▁allows	-4979
▁essential	-4980
和其他	-4981
active	-4982
light	-4983
大量的	-4984
aker	-4985
构建	-4986
纤维	-4987
维修	-4988
业绩	-4989
parent	-4990
差异	-4991
学历	-4992
bug	-4993
mine	-4994
fs	-4995
▁necessary	-4996
▁sym	-4997
能量	-4998
Att	-4999
reate	-5000
呼吸	-5001
展开	-5002
pite	-5003
可靠	-5004
成就	-5005
上午	-5006
助于	-5007
▁saf	-5008
▁favor	-5009
project	-5010
▁production	-5011
▁application	-5012
事故	-5013
▁8.	-5014
满意	-5015
sec	-5016
▁determin	-5017
含有	-5018
ternal	-5019
气体	-5020
带来的	-5021
免疫	-5022
MS	-5023
▁built	-5024
▁Use	-5025
的主	-5026
▁economic	-5027
Python	-5028
水果	-5029
▁但	-5030
··	-5031
▁Over	-5032
encies	-5033
atory	-5034
是个	-5035
构成	-5036
▁vict	-5037
品种	-5038
ometry	-5039
面试	-5040
转换	-5041
iven	-5042
邮件	-5043
革命	-5044
会上	-5045
在一起	-5046
围绕	-5047
硕士	-5048
post	-5049
▁obj	-5050
▁Net	-5051
iet	-5052
auth	-5053
TER	-5054
的情况下	-5055
▁region	-5056
▁三	-5057
对方	-5058
都能	-5059
▁independ	-5060
▁Set	-5061
展览	-5062
▁hit	-5063
▁unit	-5064
邀请	-5065
ius	-5066
GB	-5067
场所	-5068
制品	-5069
来了	-5070
This	-5071
一份	-5072
▁Of	-5073
53	-5074
App	-5075
PC	-5076
▁evidence	-5077
▁friends	-5078
展现	-5079
▁visit	-5080
fort	-5081
OL	-5082
高端	-5083
▁rule	-5084
导演	-5085
石油	-5086
▁subst	-5087
where	-5088
▁Bo	-5089
互动	-5090
▁levels	-5091
:0	-5092
ESS	-5093
▁objects	-5094
▁大	-5095
▁fit	-5096
▁associated	-5097
图书	-5098
来到	-5099
▁Note	-5100
地点	-5101
建成	-5102
版本	-5103
最好的	-5104
▁yourself	-5105
▁uses	-5106
▁heart	-5107
python	-5108
2008	-5109
▁Ser	-5110
几年	-5111
uel	-5112
定位	-5113
▁threat	-5114
▁Comp	-5115
▁China	-5116
▁individuals	-5117
pty	-5118
以为	-5119
ds	-5120
摄影	-5121
54	-5122
URL	-5123
看看	-5124
机器学习	-5125
定期	-5126
▁store	-5127
俄罗斯	-5128
▁cause	-5129
▁maintain	-5130
▁currently	-5131
装置	-5132
锻炼	-5133
引发	-5134
案件	-5135
许可	-5136
的热	-5137
农民	-5138
idered	-5139
▁parts	-5140
的前	-5141
缺乏	-5142
日期	-5143
注重	-5144
▁Democr	-5145
违法	-5146
vis	-5147
未来的	-5148
ifier	-5149
情况下	-5150
▁他	-5151
▁late	-5152
ributes	-5153
三年	-5154
室内	-5155
target	-5156
变成	-5157
3)	-5158
force	-5159
▁legal	-5160
▁candid	-5161
某些	-5162
unt	-5163
aily	-5164
很好	-5165
吸收	-5166
▁goal	-5167
lin	-5168
rael	-5169
▁items	-5170
▁wrote	-5171
▁included	-5172
▁variables	-5173
配套	-5174
▁Count	-5175
晚上	-5176
Case	-5177
IR	-5178
▁THE	-5179
////	-5180
▁charg	-5181
▁Feb	-5182
▁cross	-5183
▁db	-5184
lied	-5185
信号	-5186
会员	-5187
▁etc	-5188
▁Mus	-5189
arlier	-5190
▁mess	-5191
机器人	-5192
board	-5193
itude	-5194
牛皮癣	-5195
成分	-5196
天的	-5197
▁office	-5198
▁ability	-5199
atur	-5200
人民共和国	-5201
提前	-5202
全体	-5203
ivil	-5204
毕业生	-5205
自动化	-5206
物的	-5207
▁rules	-5208
至于	-5209
▁parameters	-5210
▁worth	-5211
▁directly	-5212
stream	-5213
深刻	-5214
Pl	-5215
\	-5216
▁concept	-5217
利于	-5218
▁considered	-5219
IF	-5220
options	-5221
普遍	-5222
cos	-5223
istics	-5224
诊断	-5225
▁Free	-5226
照片	-5227
万吨	-5228
现有	-5229
新能源	-5230
显著	-5231
梦想	-5232
▁German	-5233
▁stri	-5234
▁military	-5235
ervice	-5236
function	-5237
▁Return	-5238
世界上	-5239
▁depend	-5240
舒适	-5241
ii	-5242
▁2010	-5243
之中	-5244
致力于	-5245
▁mis	-5246
augh	-5247
▁pict	-5248
inition	-5249
5%	-5250
▁\	-5251
clude	-5252
▁arch	-5253
sequ	-5254
产权	-5255
厂家	-5256
▁sound	-5257
▁negative	-5258
?0	-5259
▁Yes	-5260
▁session	-5261
打开	-5262
美食	-5263
▁feature	-5264
亚洲	-5265
aly	-5266
▁tag	-5267
arter	-5268
▁involved	-5269
▁scient	-5270
▁progress	-5271
▁```	-5272
前往	-5273
ATE	-5274
▁Value	-5275
不好	-5276
有很多	-5277
▁stream	-5278
使用的	-5279
▁cover	-5280
▁El	-5281
sqrt	-5282
ym	-5283
++	-5284
▁Python	-5285
attle	-5286
新技术	-5287
不管	-5288
认可	-5289
2009	-5290
EST	-5291
视觉	-5292
绝对	-5293
▁changed	-5294
十年	-5295
range	-5296
一路	-5297
'):	-5298
iers	-5299
大幅	-5300
工厂	-5301
$.	-5302
▁reduce	-5303
▁broad	-5304
和社会	-5305
aves	-5306
▁hor	-5307
中华人民共和国	-5308
低于	-5309
ensions	-5310
简单的	-5311
大数据	-5312
▁60	-5313
$,	-5314
ync	-5315
74	-5316
▁sens	-5317
▁ful	-5318
ias	-5319
岁的	-5320
float	-5321
egin	-5322
▁contract	-5323
一致	-5324
美术	-5325
▁towards	-5326
aving	-5327
▁Mich	-5328
52	-5329
高中	-5330
的原因	-5331
▁dru	-5332
▁impl	-5333
日前	-5334
▁ones	-5335
保健	-5336
600	-5337
asc	-5338
uster	-5339
▁physical	-5340
▁第二	-5341
委会	-5342
▁allowed	-5343
tag	-5344
cel	-5345
rypt	-5346
▁reach	-5347
说的	-5348
▁Att	-5349
▁2011	-5350
▁lost	-5351
▁March	-5352
▁CON	-5353
同期	-5354
▁soon	-5355
ris	-5356
EL	-5357
▁card	-5358
生长	-5359
优先	-5360
第一个	-5361
预算	-5362
▁Sept	-5363
▁这个	-5364
▁zero	-5365
事项	-5366
道德	-5367
其它	-5368
是中国	-5369
icles	-5370
母亲	-5371
▁released	-5372
▁settings	-5373
'))	-5374
▁ut	-5375
filename	-5376
SC	-5377
▁usually	-5378
keys	-5379
主席	-5380
▁suff	-5381
▁slow	-5382
▁fast	-5383
asons	-5384
isions	-5385
▁Har	-5386
▁recently	-5387
固定	-5388
istry	-5389
bin	-5390
等奖	-5391
haps	-5392
▁column	-5393
个性	-5394
▁bott	-5395
▁population	-5396
的作用	-5397
▁court	-5398
=0	-5399
配置	-5400
gram	-5401
ugin	-5402
▁playing	-5403
▁whose	-5404
熟悉	-5405
公安	-5406
附近	-5407
讲述	-5408
▁distance	-5409
▁anyone	-5410
▁save	-5411
icode	-5412
▁respons	-5413
▁includes	-5414
技巧	-5415
Object	-5416
▁correspon	-5417
ools	-5418
到底	-5419
专项	-5420
▁Found	-5421
手术	-5422
日至	-5423
▁June	-5424
▁tests	-5425
main	-5426
购物	-5427
▁surface	-5428
在此	-5429
▁became	-5430
72	-5431
回收	-5432
▁("	-5433
▁brand	-5434
▁held	-5435
有点	-5436
eff	-5437
实际上	-5438
Is	-5439
的服务	-5440
申报	-5441
▁management	-5442
整合	-5443
主要是	-5444
uary	-5445
related	-5446
Model	-5447
在这个	-5448
▁entry	-5449
爱的	-5450
编程	-5451
餐厅	-5452
。19	-5453
▁二	-5454
63	-5455
每个人	-5456
▁Israel	-5457
Base	-5458
▁jud	-5459
面向	-5460
▁oil	-5461
apping	-5462
upport	-5463
得到了	-5464
▁query	-5465
确认	-5466
不用	-5467
股份有限公司	-5468
▁interesting	-5469
umber	-5470
▁'%	-5471
▁emer	-5472
零售	-5473
▁filter	-5474
98	-5475
▁Stud	-5476
中文	-5477
省级	-5478
▁HT	-5479
▁properties	-5480
流量	-5481
▁purch	-5482
▁note	-5483
▁education	-5484
▁increasing	-5485
41	-5486
▁knowledge	-5487
过的	-5488
▁demon	-5489
可以通过	-5490
巨大的	-5491
oto	-5492
arily	-5493
▁immedi	-5494
oon	-5495
▁effects	-5496
▁volume	-5497
uses	-5498
query	-5499
▁specified	-5500
▁weeks	-5501
2.0	-5502
时刻	-5503
贫困	-5504
▁rat	-5505
▁saw	-5506
ui	-5507
维持	-5508
▁international	-5509
▁exception	-5510
ferences	-5511
中学	-5512
放弃	-5513
发动	-5514
aches	-5515
部署	-5516
效益	-5517
}$$	-5518
▁attention	-5519
uk	-5520
湖北	-5521
会在	-5522
国外	-5523
查询	-5524
ellig	-5525
▁transform	-5526
改进	-5527
▁Tra	-5528
▁exactly	-5529
动画	-5530
住房	-5531
▁led	-5532
▁capt	-5533
▁resource	-5534
上半年	-5535
，10	-5536
多样	-5537
的要求	-5538
▁gives	-5539
(_	-5540
▁lab	-5541
▁relig	-5542
▁effective	-5543
aged	-5544
▁tel	-5545
▁condition	-5546
▁Sub	-5547
对手	-5548
纪念	-5549
投资者	-5550
PP	-5551
▁Copyright	-5552
);	-5553
ashington	-5554
）-	-5555
全省	-5556
"""	-5557
▁iter	-5558
转化	-5559
-3	-5560
▁choice	-5561
▁vector	-5562
QL	-5563
权利	-5564
▁aw	-5565
ael	-5566
mock	-5567
细节	-5568
150	-5569
73	-5570
▁heav	-5571
iance	-5572
▁staff	-5573
ridge	-5574
▁mention	-5575
▁wasn	-5576
eline	-5577
货币	-5578
▁passed	-5579
小学	-5580
加速	-5581
DF	-5582
▁diag	-5583
▁absolut	-5584
▁-1	-5585
[1]	-5586
rated	-5587
维生素	-5588
▁^	-5589
对外	-5590
用来	-5591
vey	-5592
▁leading	-5593
提醒	-5594
▁actual	-5595
▁began	-5596
种植	-5597
std	-5598
▁interview	-5599
▁leave	-5600
▁目前	-5601
osing	-5602
▁behavior	-5603
的信息	-5604
。。	-5605
新冠	-5606
英雄	-5607
session	-5608
授权	-5609
房屋	-5610
▁goes	-5611
眼睛	-5612
▁stru	-5613
▁situation	-5614
回到	-5615
chang	-5616
▁Check	-5617
英文	-5618
apter	-5619
▁tour	-5620
园区	-5621
百分点	-5622
▁23	-5623
[:	-5624
图片	-5625
轻松	-5626
Text	-5627
DP	-5628
含量	-5629
izes	-5630
的研究	-5631
时尚	-5632
▁22	-5633
▁【	-5634
力和	-5635
▁mid	-5636
▁该	-5637
将于	-5638
检验	-5639
大众	-5640
▁inj	-5641
▁tou	-5642
▁Other	-5643
▁随着	-5644
▁gir	-5645
▁mechan	-5646
aa	-5647
四个	-5648
其次	-5649
的需求	-5650
生存	-5651
ny	-5652
▁existing	-5653
leep	-5654
▁July	-5655
illing	-5656
▁living	-5657
▁expert	-5658
决赛	-5659
也许	-5660
child	-5661
▁upon	-5662
则是	-5663
vari	-5664
▁creating	-5665
ech	-5666
家人	-5667
集体	-5668
uate	-5669
▁examples	-5670
▁Fig	-5671
▁virt	-5672
工作人员	-5673
otal	-5674
itch	-5675
roid	-5676
广场	-5677
▁info	-5678
▁Val	-5679
工程师	-5680
▁conduct	-5681
▁proper	-5682
不了	-5683
才是	-5684
▁starting	-5685
has	-5686
▁altern	-5687
▁According	-5688
例子	-5689
学者	-5690
▁Department	-5691
82	-5692
国内外	-5693
每一个	-5694
上下	-5695
力度	-5696
_0	-5697
plot	-5698
▁understanding	-5699
想到	-5700
ucle	-5701
foo	-5702
▁package	-5703
▁lay	-5704
▁pressure	-5705
▁script	-5706
▁round	-5707
高质量	-5708
▁GNU	-5709
option	-5710
▁choose	-5711
)(	-5712
▁Washington	-5713
正是	-5714
ham	-5715
reet	-5716
83	-5717
lation	-5718
优惠	-5719
电商	-5720
论坛	-5721
▁Rec	-5722
主体	-5723
ares	-5724
inton	-5725
▁prep	-5726
华为	-5727
ades	-5728
▁numer	-5729
apan	-5730
消防	-5731
▁sequence	-5732
▁returned	-5733
地理	-5734
umb	-5735
iles	-5736
逻辑	-5737
EC	-5738
也能	-5739
，19	-5740
流行	-5741
▁ul	-5742
创意	-5743
你可以	-5744
▁repe	-5745
个百分点	-5746
▁played	-5747
▁seek	-5748
的故事	-5749
aises	-5750
lood	-5751
一旦	-5752
共有	-5753
联赛	-5754
可能是	-5755
izations	-5756
▁send	-5757
随后	-5758
公益	-5759
▁April	-5760
清晰	-5761
IB	-5762
》。	-5763
▁emot	-5764
▁factor	-5765
接近	-5766
信心	-5767
健身	-5768
器的	-5769
每次	-5770
mode	-5771
▁directory	-5772
bra	-5773
var	-5774
▁vers	-5775
ulations	-5776
▁contains	-5777
河北	-5778
地的	-5779
▁dead	-5780
很大的	-5781
声明	-5782
巨大	-5783
▁{}	-5784
毕竟	-5785
▁edit	-5786
And	-5787
▁offers	-5788
寿命	-5789
病例	-5790
▁princ	-5791
招标	-5792
测量	-5793
一定的	-5794
全市	-5795
流动	-5796
▁reve	-5797
▁meaning	-5798
练习	-5799
Address	-5800
▁…	-5801
一代	-5802
物品	-5803
黄金	-5804
▁accur	-5805
▁requires	-5806
▁tools	-5807
▁center	-5808
色彩	-5809
障碍	-5810
允许	-5811
▁yield	-5812
十三	-5813
▁symbol	-5814
合适	-5815
慢慢	-5816
中国的	-5817
ese	-5818
▁returns	-5819
字符	-5820
乡村	-5821
Che	-5822
acher	-5823
提交	-5824
enge	-5825
▁designed	-5826
想法	-5827
more	-5828
考核	-5829
规定的	-5830
▁给定	-5831
▁Even	-5832
让你	-5833
dim	-5834
给定的	-5835
带着	-5836
▁looks	-5837
▁serious	-5838
eger	-5839
▁Dr	-5840
▁quickly	-5841
明白	-5842
▁Your	-5843
周期	-5844
oe	-5845
肺炎	-5846
▁System	-5847
▁double	-5848
Char	-5849
hib	-5850
▁phone	-5851
总经理	-5852
原理	-5853
▁greater	-5854
$	-5855
)、	-5856
老人	-5857
有助于	-5858
▁此外	-5859
Tr	-5860
周围	-5861
有效的	-5862
更为	-5863
▁woman	-5864
脂肪	-5865
▁Lib	-5866
▁Bro	-5867
贯彻	-5868
debug	-5869
ounced	-5870
▁Pre	-5871
▁作为	-5872
有什么	-5873
arrow	-5874
-9	-5875
就要	-5876
的水	-5877
FA	-5878
obile	-5879
都可以	-5880
▁Ang	-5881
▁accom	-5882
研究院	-5883
▁student	-5884
投标	-5885
ening	-5886
▁remove	-5887
作出	-5888
▁named	-5889
▁earlier	-5890
All	-5891
▁screen	-5892
伤害	-5893
审查	-5894
ensity	-5895
▁lives	-5896
▁lack	-5897
hern	-5898
▁basic	-5899
儿子	-5900
▁parameter	-5901
尽量	-5902
pth	-5903
current	-5904
而不是	-5905
大小	-5906
▁Why	-5907
▁Austral	-5908
▁json	-5909
bon	-5910
层次	-5911
(0,	-5912
▁params	-5913
known	-5914
▁alle	-5915
▁gets	-5916
版权	-5917
anger	-5918
raction	-5919
出来的	-5920
范围内	-5921
▁conv	-5922
项目的	-5923
mathrm	-5924
▁reading	-5925
▁token	-5926
▁federal	-5927
▁computer	-5928
task	-5929
▁himself	-5930
录取	-5931
','	-5932
▁parser	-5933
▁django	-5934
▁Up	-5935
▁//	-5936
▁mer	-5937
ersion	-5938
xml	-5939
▁Inc	-5940
美好	-5941
▁Park	-5942
▁solutions	-5943
编写	-5944
▁filename	-5945
ncy	-5946
▁occur	-5947
多元	-5948
还能	-5949
func	-5950
也要	-5951
51	-5952
都要	-5953
▁overall	-5954
参观	-5955
独特的	-5956
市民	-5957
1.0	-5958
应急	-5959
条例	-5960
ecause	-5961
▁News	-5962
同意	-5963
认定	-5964
▁gas	-5965
新增	-5966
▁Also	-5967
aur	-5968
▁上	-5969
env	-5970
赢得	-5971
应用于	-5972
▁throughout	-5973
gener	-5974
62	-5975
tee	-5976
区的	-5977
大力	-5978
我想	-5979
EM	-5980
▁neighb	-5981
▁figure	-5982
fail	-5983
▁San	-5984
omb	-5985
下了	-5986
名单	-5987
▁road	-5988
重复	-5989
patch	-5990
▁demonstr	-5991
delete	-5992
▁scale	-5993
▁dog	-5994
cache	-5995
教育部	-5996
仪式	-5997
▁Read	-5998
金额	-5999
▁Facebook	-6000
▁benefits	-6001
很有	-6002
一场	-6003
IV	-6004
成为了	-6005
专注	-6006
vant	-6007
▁sec	-6008
event	-6009
当中	-6010
ellow	-6011
▁hon	-6012
▁demand	-6013
You	-6014
river	-6015
▁Ant	-6016
学家	-6017
▁beaut	-6018
▁exerc	-6019
ifying	-6020
▁images	-6021
command	-6022
▁streng	-6023
ishing	-6024
▁direction	-6025
etimes	-6026
或许	-6027
云南	-6028
拓展	-6029
last	-6030
▁sets	-6031
▁fair	-6032
itute	-6033
▁costs	-6034
rict	-6035
4-	-6036
身边	-6037
在这里	-6038
▁Del	-6039
▁cat	-6040
▁train	-6041
xim	-6042
大赛	-6043
osition	-6044
访问	-6045
适用于	-6046
幼儿	-6047
Ind	-6048
歌曲	-6049
▁modern	-6050
▁memory	-6051
制造业	-6052
No	-6053
的能力	-6054
▁sil	-6055
较大	-6056
产量	-6057
▁expression	-6058
icon	-6059
▁stra	-6060
▁definit	-6061
很快	-6062
▁board	-6063
▁recommend	-6064
活性	-6065
cm	-6066
▁science	-6067
isf	-6068
增速	-6069
ounc	-6070
▁trust	-6071
便利	-6072
药品	-6073
他人	-6074
▁steps	-6075
销量	-6076
FF	-6077
adem	-6078
token	-6079
▁Open	-6080
ecute	-6081
也没有	-6082
周边	-6083
原料	-6084
不良	-6085
▁Many	-6086
▁programs	-6087
lambda	-6088
▁replace	-6089
以上的	-6090
护理	-6091
年底	-6092
▁worked	-6093
CP	-6094
▁strateg	-6095
强烈	-6096
▁completely	-6097
*-	-6098
▁gun	-6099
可见	-6100
▁David	-6101
路线	-6102
▁domain	-6103
的设计	-6104
▁January	-6105
expected	-6106
▁Art	-6107
即将	-6108
▁setting	-6109
或是	-6110
▁surpr	-6111
▁active	-6112
OM	-6113
replace	-6114
▁bill	-6115
▁Japan	-6116
gress	-6117
工商	-6118
，	-6119
股权	-6120
ha	-6121
pv	-6122
witch	-6123
▁goals	-6124
EX	-6125
食用	-6126
match	-6127
▁characters	-6128
▁safe	-6129
▁arri	-6130
危害	-6131
td	-6132
select	-6133
红色	-6134
local	-6135
5-	-6136
ibly	-6137
老年	-6138
rast	-6139
iring	-6140
▁Clinton	-6141
▁Cong	-6142
国有	-6143
集成	-6144
▁Data	-6145
▁tried	-6146
▁billion	-6147
copy	-6148
的内容	-6149
所需	-6150
最低	-6151
高温	-6152
▁Are	-6153
西安	-6154
▁tree	-6155
▁convert	-6156
律师	-6157
▁blog	-6158
▁please	-6159
区别	-6160
'}),	-6161
xf	-6162
=[	-6163
▁bank	-6164
▁ideas	-6165
▁opin	-6166
▁chance	-6167
还会	-6168
▁ANY	-6169
▁sold	-6170
LED	-6171
▁customers	-6172
地区的	-6173
ae	-6174
▁bud	-6175
▁sources	-6176
控股	-6177
▁optim	-6178
睡眠	-6179
▁White	-6180
▁concer	-6181
conf	-6182
▁described	-6183
ufact	-6184
96	-6185
▁Any	-6186
通讯	-6187
▁pan	-6188
我校	-6189
每一	-6190
color	-6191
lection	-6192
血管	-6193
▁Sk	-6194
PL	-6195
▁meeting	-6196
国的	-6197
引进	-6198
▁List	-6199
▁operation	-6200
▁总	-6201
▁arguments	-6202
很好的	-6203
OC	-6204
▁capital	-6205
▁Rel	-6206
using	-6207
事务	-6208
也就	-6209
ulate	-6210
aling	-6211
mitted	-6212
带来了	-6213
▁tru	-6214
▁September	-6215
街道	-6216
基础设施	-6217
het	-6218
们的	-6219
▁Dec	-6220
两年	-6221
研究所	-6222
ober	-6223
2007	-6224
▁activities	-6225
做了	-6226
▁sem	-6227
▁factors	-6228
▁Em	-6229
▁origin	-6230
本书	-6231
web	-6232
的中	-6233
模拟	-6234
物联网	-6235
▁latest	-6236
▁auth	-6237
做的	-6238
▁download	-6239
▁particularly	-6240
另一个	-6241
休闲	-6242
:`	-6243
▁song	-6244
▁Calif	-6245
weet	-6246
FL	-6247
course	-6248
▁float	-6249
主办	-6250
perty	-6251
▁小	-6252
而不	-6253
eleb	-6254
星期	-6255
▁vert	-6256
rought	-6257
占比	-6258
kg	-6259
▁officials	-6260
▁Ke	-6261
width	-6262
离子	-6263
▁linear	-6264
▁medical	-6265
aset	-6266
优点	-6267
Qu	-6268
▁easily	-6269
带动	-6270
▁Afric	-6271
pop	-6272
▁handle	-6273
▁temperature	-6274
▁28	-6275
▁9.	-6276
▁sometimes	-6277
休息	-6278
▁aware	-6279
riday	-6280
打印	-6281
管道	-6282
履行	-6283
义务	-6284
下载	-6285
▁spect	-6286
▁Find	-6287
影视	-6288
hold	-6289
▁thread	-6290
▁increased	-6291
He	-6292
({	-6293
step	-6294
▁apply	-6295
标题	-6296
but	-6297
气候变化	-6298
flict	-6299
提供的	-6300
紧张	-6301
▁TV	-6302
▁couple	-6303
TestCase	-6304
▁machine	-6305
▁4,	-6306
▁tensor	-6307
device	-6308
Exception	-6309
begin	-6310
▁promot	-6311
▁activity	-6312
大约	-6313
ovember	-6314
▁Twitter	-6315
SU	-6316
轨道	-6317
想象	-6318
生活的	-6319
aled	-6320
entry	-6321
▁Off	-6322
演出	-6323
settings	-6324
▁remember	-6325
iation	-6326
各大	-6327
▁skills	-6328
▁pull	-6329
▁reference	-6330
▁traditional	-6331
sin	-6332
gn	-6333
感情	-6334
立即	-6335
步骤	-6336
▁2008	-6337
著名的	-6338
飞机	-6339
''	-6340
还在	-6341
▁首先	-6342
▁stress	-6343
使命	-6344
▁August	-6345
▁career	-6346
ategy	-6347
家里	-6348
宇宙	-6349
收购	-6350
▁1)	-6351
▁ip	-6352
数据库	-6353
▁repl	-6354
上面	-6355
协助	-6356
ios	-6357
可以帮助	-6358
▁International	-6359
司法	-6360
东北	-6361
排序	-6362
ITY	-6363
▁operations	-6364
和谐	-6365
▁dir	-6366
董事长	-6367
▁cook	-6368
那里	-6369
▁Type	-6370
▁appropri	-6371
▁culture	-6372
冲击	-6373
发明	-6374
mary	-6375
人力	-6376
atively	-6377
的历史	-6378
印象	-6379
驱动	-6380
▁English	-6381
典型	-6382
主管部门	-6383
大大	-6384
到达	-6385
▁treatment	-6386
下去	-6387
担心	-6388
Form	-6389
▁exam	-6390
och	-6391
enced	-6392
▁axis	-6393
？”	-6394
can	-6395
▁Sw	-6396
▁Pat	-6397
格式	-6398
▁empty	-6399
哪里	-6400
▁-*-	-6401
科学家	-6402
AME	-6403
处罚	-6404
▁compared	-6405
景点	-6406
取消	-6407
etch	-6408
▁sust	-6409
安徽	-6410
01	-6411
)\	-6412
▁Hol	-6413
PR	-6414
▁nature	-6415
ij	-6416
▁veh	-6417
获得了	-6418
▁Air	-6419
▁professional	-6420
▁shoot	-6421
放松	-6422
带领	-6423
特性	-6424
北京市	-6425
la	-6426
▁failed	-6427
调节	-6428
不知	-6429
利率	-6430
环境保护	-6431
▁与	-6432
▁forms	-6433
▁anti	-6434
动态	-6435
资讯	-6436
frame	-6437
={	-6438
Del	-6439
▁plans	-6440
网友	-6441
umer	-6442
▁algorithm	-6443
▁2009	-6444
规律	-6445
▁anim	-6446
分配	-6447
VER	-6448
▁arr	-6449
中有	-6450
agement	-6451
精彩	-6452
▁00	-6453
▁Ste	-6454
97	-6455
一流	-6456
▁Black	-6457
▁WIT	-6458
明星	-6459
▁template	-6460
身上	-6461
▁ord	-6462
▁books	-6463
https	-6464
▁vote	-6465
返回	-6466
▁Work	-6467
部的	-6468
氛围	-6469
▁WAR	-6470
一系列	-6471
empty	-6472
转变	-6473
▁Most	-6474
原来	-6475
▁larger	-6476
ouncil	-6477
东方	-6478
数的	-6479
▁reports	-6480
▁thinking	-6481
▁Her	-6482
▁push	-6483
是不是	-6484
▁determine	-6485
▁actions	-6486
车型	-6487
采访	-6488
▁最后	-6489
▁Friday	-6490
▁Inter	-6491
ying	-6492
诚信	-6493
▁decided	-6494
08	-6495
权益	-6496
佛教	-6497
▁receive	-6498
▁ow	-6499
发病	-6500
荣誉	-6501
win	-6502
基层	-6503
▁nearly	-6504
虚拟	-6505
▁High	-6506
卫星	-6507
▁opportunity	-6508
家具	-6509
pc	-6510
rupt	-6511
▁Foundation	-6512
城镇	-6513
CON	-6514
实在	-6515
整理	-6516
▁expand	-6517
▁refer	-6518
大概	-6519
可以说	-6520
转移	-6521
净利润	-6522
▁所以	-6523
。《	-6524
Check	-6525
▁liter	-6526
▁errors	-6527
是有	-6528
▁Pal	-6529
的外	-6530
▁Out	-6531
▁collection	-6532
！”	-6533
▁reflect	-6534
实现了	-6535
仪器	-6536
▁encoura	-6537
▁ID	-6538
▁November	-6539
探讨	-6540
akers	-6541
120	-6542
精准	-6543
的使用	-6544
▁concern	-6545
[2	-6546
高考	-6547
times	-6548
hent	-6549
▁为了	-6550
▁rob	-6551
2006	-6552
字母	-6553
see	-6554
再生	-6555
▁October	-6556
餐饮	-6557
▁safety	-6558
TH	-6559
▁star	-6560
复合	-6561
cember	-6562
election	-6563
也将	-6564
▁Center	-6565
ease	-6566
▁primary	-6567
两人	-6568
raint	-6569
▁successful	-6570
地下	-6571
是最	-6572
相似	-6573
grad	-6574
sych	-6575
▁Last	-6576
▁gave	-6577
For	-6578
所得	-6579
我在	-6580
外的	-6581
图像	-6582
rim	-6583
▁trade	-6584
▁charge	-6585
信息化	-6586
▁Please	-6587
积累	-6588
▁square	-6589
我就	-6590
国民	-6591
men	-6592
▁society	-6593
合法	-6594
zer	-6595
'],	-6596
看来	-6597
▁imag	-6598
此前	-6599
▁plot	-6600
idents	-6601
br	-6602
病情	-6603
异常	-6604
无论是	-6605
erved	-6606
不够	-6607
提示	-6608
类的	-6609
▁'.	-6610
soft	-6611
▁Ben	-6612
pload	-6613
保留	-6614
▁civil	-6615
▁Well	-6616
pool	-6617
高于	-6618
iful	-6619
▁cool	-6620
当年	-6621
Return	-6622
透过	-6623
random	-6624
olve	-6625
高达	-6626
▁ten	-6627
cell	-6628
yond	-6629
fficient	-6630
记得	-6631
igma	-6632
room	-6633
赛事	-6634
引领	-6635
▁dro	-6636
▁coordin	-6637
atically	-6638
▁probability	-6639
gest	-6640
▁Paul	-6641
出现了	-6642
发的	-6643
▁generate	-6644
00\	-6645
居住	-6646
▁calls	-6647
ornia	-6648
▁materials	-6649
贵州	-6650
service	-6651
团体	-6652
的市场	-6653
东南	-6654
space	-6655
性质	-6656
超级	-6657
审核	-6658
▁5,	-6659
61	-6660
DS	-6661
但在	-6662
igration	-6663
会的	-6664
蛋白质	-6665
▁lambda	-6666
erve	-6667
地铁	-6668
▁parents	-6669
黑色	-6670
平时	-6671
纪录	-6672
传统的	-6673
pat	-6674
陕西	-6675
较为	-6676
Node	-6677
威胁	-6678
▁secret	-6679
If	-6680
并非	-6681
纷纷	-6682
▁limited	-6683
看着	-6684
否则	-6685
-10	-6686
▁fem	-6687
古代	-6688
特定	-6689
中间	-6690
▁Cour	-6691
▁。	-6692
完美	-6693
unction	-6694
取得了	-6695
position	-6696
大气	-6697
读者	-6698
section	-6699
等级	-6700
景观	-6701
自治区	-6702
纽约	-6703
▁Wed	-6704
iques	-6705
▁election	-6706
displaystyle	-6707
▁Monday	-6708
各级	-6709
尊重	-6710
腐蚀	-6711
mt	-6712
Man	-6713
凭借	-6714
▁std	-6715
日子	-6716
住宅	-6717
杂志	-6718
▁Every	-6719
土壤	-6720
▁organization	-6721
扶贫	-6722
的基本	-6723
大陆	-6724
就有	-6725
strict	-6726
(1,	-6727
▁beyond	-6728
产生的	-6729
▁rates	-6730
▁School	-6731
▁efforts	-6732
相应的	-6733
▁workers	-6734
▁kwargs	-6735
urt	-6736
▁comments	-6737
▁aspect	-6738
巴黎	-6739
description	-6740
▁histor	-6741
也很	-6742
这部	-6743
cp	-6744
assertTrue	-6745
真正的	-6746
▁chem	-6747
本人	-6748
监控	-6749
无人	-6750
停止	-6751
▁heard	-6752
▁park	-6753
攻击	-6754
itiz	-6755
ql	-6756
▁不	-6757
hy	-6758
▁piece	-6759
▁ready	-6760
承诺	-6761
通道	-6762
支出	-6763
urance	-6764
.)	-6765
天下	-6766
Net	-6767
温暖	-6768
assertR	-6769
▁teams	-6770
情节	-6771
▁rese	-6772
▁wonder	-6773
西部	-6774
lam	-6775
早期	-6776
▁dynam	-6777
▁27	-6778
1.5	-6779
▁agre	-6780
蒙古	-6781
RL	-6782
urb	-6783
▁Equal	-6784
▁December	-6785
Col	-6786
无线	-6787
▁movement	-6788
▁nation	-6789
-4	-6790
的东西	-6791
clusion	-6792
使其	-6793
BS	-6794
出去	-6795
▁aim	-6796
预期	-6797
就在	-6798
aching	-6799
▁providing	-6800
风景	-6801
服装	-6802
有时	-6803
▁forces	-6804
院长	-6805
cmd	-6806
▁layer	-6807
▁moving	-6808
pute	-6809
▁giving	-6810
常见的	-6811
omial	-6812
▁applications	-6813
eed	-6814
心里	-6815
nam	-6816
alpha	-6817
▁password	-6818
81	-6819
▁formula	-6820
mar	-6821
▁shot	-6822
考察	-6823
▁hands	-6824
和服务	-6825
▁European	-6826
elligence	-6827
▁equations	-6828
▁California	-6829
职责	-6830
▁dtype	-6831
▁devices	-6832
的一些	-6833
兄弟	-6834
出行	-6835
群体	-6836
予以	-6837
以便	-6838
▁mother	-6839
}^{	-6840
是我	-6841
太多	-6842
▁economy	-6843
缓解	-6844
养老	-6845
rian	-6846
▁sen	-6847
▁ValueError	-6848
▁nucle	-6849
▁score	-6850
杭州	-6851
证据	-6852
▁projects	-6853
FC	-6854
女儿	-6855
是一家	-6856
▁maximum	-6857
▁fans	-6858
template	-6859
ART	-6860
这是一个	-6861
培育	-6862
战斗	-6863
页面	-6864
itable	-6865
净化	-6866
User	-6867
▁classes	-6868
▁thous	-6869
▁supported	-6870
▁middle	-6871
admin	-6872
idden	-6873
之下	-6874
可以使用	-6875
近期	-6876
而在	-6877
这就是	-6878
三大	-6879
以下简称	-6880
2005	-6881
▁India	-6882
理事	-6883
▁wall	-6884
失败	-6885
总统	-6886
▁produce	-6887
▁Software	-6888
▁stock	-6889
▁和	-6890
舞台	-6891
诉讼	-6892
▁但是	-6893
强大的	-6894
▁inform	-6895
的应用	-6896
▁que	-6897
(1	-6898
签订	-6899
omen	-6900
lor	-6901
ted	-6902
rack	-6903
swith	-6904
对比	-6905
▁window	-6906
missions	-6907
ctors	-6908
▁exists	-6909
▁polic	-6910
email	-6911
▁achieve	-6912
▁construct	-6913
pid	-6914
搭配	-6915
写作	-6916
克斯	-6917
▁club	-6918
only	-6919
▁climate	-6920
▁comfort	-6921
igr	-6922
▁micro	-6923
▁cru	-6924
▁26	-6925
传递	-6926
Request	-6927
欣赏	-6928
▁stuff	-6929
number	-6930
▁developed	-6931
▁morning	-6932
空调	-6933
uesday	-6934
▁strategy	-6935
▁band	-6936
dered	-6937
▁Ans	-6938
成的	-6939
利亚	-6940
出发	-6941
▁fully	-6942
▁uid	-6943
stack	-6944
▁counter	-6945
▁height	-6946
datetime	-6947
▁insp	-6948
关心	-6949
▁Group	-6950
报考	-6951
▁explain	-6952
▁logging	-6953
En	-6954
irth	-6955
uit	-6956
切实	-6957
Config	-6958
fit	-6959
西班	-6960
ico	-6961
▁foreign	-6962
▁register	-6963
机遇	-6964
回归	-6965
印刷	-6966
均匀	-6967
▁advant	-6968
随机	-6969
">	-6970
cap	-6971
西班牙	-6972
给我	-6973
三角	-6974
”（	-6975
CS	-6976
更有	-6977
char	-6978
校长	-6979
▁strugg	-6980
此时	-6981
的专业	-6982
进展	-6983
热情	-6984
req	-6985
800	-6986
病人	-6987
过了	-6988
总额	-6989
第五	-6990
谢谢	-6991
▁29	-6992
DA	-6993
顾客	-6994
▁race	-6995
acity	-6996
深化	-6997
知识产权	-6998
KE	-6999
粉丝	-7000
防治	-7001
Def	-7002
资质	-7003
另一方面	-7004
stract	-7005
▁cmd	-7006
raz	-7007
▁units	-7008
▁critical	-7009
合金	-7010
▁第三	-7011
阿里	-7012
他说	-7013
▁announced	-7014
对应	-7015
日的	-7016
▁independent	-7017
画面	-7018
部件	-7019
12.	-7020
新区	-7021
俱乐	-7022
开启	-7023
的学生	-7024
提出了	-7025
主角	-7026
▁sal	-7027
的关键	-7028
随时	-7029
▁carry	-7030
▁satisf	-7031
长时间	-7032
▁header	-7033
常常	-7034
疫情防控	-7035
▁"%	-7036
ica	-7037
▁controll	-7038
释放	-7039
password	-7040
理由	-7041
ded	-7042
▁norm	-7043
▁basis	-7044
▁turned	-7045
成立于	-7046
建造	-7047
▁remains	-7048
怎样	-7049
指挥	-7050
电器	-7051
▁["	-7052
▁blood	-7053
IA	-7054
ros	-7055
较高	-7056
▁util	-7057
正确的	-7058
▁5、	-7059
(0	-7060
▁click	-7061
TY	-7062
▁tips	-7063
▁Tuesday	-7064
女孩	-7065
chers	-7066
经济发展	-7067
这个问题	-7068
十五	-7069
航天	-7070
ened	-7071
数据显示	-7072
辅助	-7073
编制	-7074
腾讯	-7075
▁roll	-7076
ondon	-7077
办学	-7078
委托	-7079
▁green	-7080
ography	-7081
读书	-7082
▁sales	-7083
斯特	-7084
起了	-7085
olean	-7086
▁Gr	-7087
我们需要	-7088
assertRaises	-7089
▁pattern	-7090
国家级	-7091
违反	-7092
rench	-7093
加拿	-7094
▁eight	-7095
▁manufact	-7096
不多	-7097
iate	-7098
党的	-7099
味道	-7100
和平	-7101
ructure	-7102
▁wants	-7103
▁NOT	-7104
▁cert	-7105
▁journal	-7106
危机	-7107
▁是	-7108
案例	-7109
▁Class	-7110
▁UK	-7111
▁thus	-7112
▁huge	-7113
选手	-7114
▁spent	-7115
盈利	-7116
icit	-7117
▁hear	-7118
▁Canada	-7119
▁Time	-7120
Go	-7121
RANT	-7122
By	-7123
同一	-7124
防护	-7125
▁King	-7126
▁digital	-7127
▁Congress	-7128
好像	-7129
FT	-7130
分别为	-7131
形势	-7132
▁stage	-7133
▁adding	-7134
▁celeb	-7135
EO	-7136
Le	-7137
gment	-7138
strip	-7139
▁missing	-7140
uing	-7141
▁movie	-7142
福建	-7143
urg	-7144
▁finally	-7145
神秘	-7146
rics	-7147
事实上	-7148
▁python	-7149
反馈	-7150
季节	-7151
试点	-7152
▁drive	-7153
uffer	-7154
▁obvious	-7155
提取	-7156
清洗	-7157
▁transport	-7158
oes	-7159
▁wide	-7160
▁happened	-7161
aming	-7162
大师	-7163
补贴	-7164
matrix	-7165
▁notice	-7166
Path	-7167
▁Mor	-7168
上市公司	-7169
青春	-7170
▁void	-7171
出席	-7172
first	-7173
复杂的	-7174
▁Ac	-7175
形成了	-7176
奖励	-7177
airs	-7178
ruary	-7179
2\	-7180
▁library	-7181
财富	-7182
▁British	-7183
回复	-7184
干燥	-7185
▁如何	-7186
▁core	-7187
▁Because	-7188
千万	-7189
icate	-7190
ulated	-7191
undred	-7192
收到	-7193
▁由于	-7194
aught	-7195
▁Windows	-7196
▁testing	-7197
山西	-7198
▁Day	-7199
product	-7200
参数	-7201
▁highly	-7202
▁hop	-7203
▁Although	-7204
减轻	-7205
城乡	-7206
参赛	-7207
11.	-7208
▁sell	-7209
hest	-7210
它们的	-7211
abilities	-7212
IO	-7213
现金	-7214
太阳能	-7215
term	-7216
我觉得	-7217
okes	-7218
对此	-7219
▁false	-7220
▁felt	-7221
社交媒体	-7222
▁Step	-7223
▁String	-7224
▁WARRANT	-7225
▁eth	-7226
▁database	-7227
适用	-7228
▁jobs	-7229
认知	-7230
▁incor	-7231
▁definition	-7232
一是	-7233
ously	-7234
▁interpre	-7235
▁shared	-7236
难度	-7237
喜欢的	-7238
Inst	-7239
);	-7240
▁studies	-7241
▁helps	-7242
同时也	-7243
▁rank	-7244
po	-7245
▁]	-7246
Hand	-7247
彻底	-7248
Log	-7249
▁budget	-7250
▁degree	-7251
▁theore	-7252
▁'''	-7253
禁止	-7254
Class	-7255
PA	-7256
roy	-7257
产业链	-7258
涂料	-7259
SA	-7260
Out	-7261
思路	-7262
过滤	-7263
▁beginning	-7264
dist	-7265
ado	-7266
▁convers	-7267
ils	-7268
show	-7269
框架	-7270
▁background	-7271
pm	-7272
能否	-7273
close	-7274
发出	-7275
rab	-7276
荣获	-7277
▁director	-7278
▁otherwise	-7279
make	-7280
▁Rom	-7281
▁var	-7282
芯片	-7283
▁straight	-7284
▁Sunday	-7285
并将	-7286
2.5	-7287
的环境	-7288
青少年	-7289
▁damage	-7290
▁80	-7291
家居	-7292
一线	-7293
，11	-7294
江西	-7295
ranch	-7296
一级	-7297
潜在	-7298
▁credit	-7299
▁AND	-7300
尺寸	-7301
消耗	-7302
废水	-7303
ipe	-7304
密切	-7305
orge	-7306
▁becomes	-7307
▁Each	-7308
▁prop	-7309
▁API	-7310
▁Form	-7311
定制	-7312
1:	-7313
收费	-7314
▁pen	-7315
▁Bre	-7316
▁brought	-7317
加热	-7318
▁1	-7319
ario	-7320
实体	-7321
大学生	-7322
{1}{	-7323
▁Republican	-7324
它是	-7325
走向	-7326
▁datetime	-7327
berg	-7328
财产	-7329
real	-7330
▁enh	-7331
SON	-7332
▁doub	-7333
ponse	-7334
prefix	-7335
硬件	-7336
传承	-7337
已有	-7338
▁gain	-7339
store	-7340
▁doll	-7341
宗教	-7342
▁spir	-7343
▁transfer	-7344
ota	-7345
白癜风的	-7346
ursday	-7347
▁relative	-7348
▁Associ	-7349
▁rot	-7350
剧情	-7351
allel	-7352
青岛	-7353
占地	-7354
▁heat	-7355
tests	-7356
▁scen	-7357
▁Commun	-7358
script	-7359
▁customer	-7360
爱好	-7361
5000	-7362
▁conflict	-7363
ester	-7364
▁dark	-7365
▁qual	-7366
教练	-7367
旗下	-7368
竞赛	-7369
usion	-7370
就不	-7371
执法	-7372
效应	-7373
vention	-7374
装修	-7375
▁hyp	-7376
FI	-7377
回家	-7378
▁Another	-7379
▁\\	-7380
▁letter	-7381
09	-7382
▁fixed	-7383
出台	-7384
▁fear	-7385
多家	-7386
uint	-7387
▁(19	-7388
调研	-7389
鉴定	-7390
▁Mac	-7391
▁Techn	-7392
▁Key	-7393
▁Michael	-7394
▁communication	-7395
04	-7396
的安全	-7397
urity	-7398
我们在	-7399
▁conserv	-7400
人群	-7401
竞争力	-7402
我是	-7403
igen	-7404
▁innov	-7405
▁finding	-7406
的生产	-7407
cor	-7408
依赖	-7409
▁generated	-7410
txt	-7411
▁talking	-7412
▁February	-7413
给你	-7414
import	-7415
rows	-7416
det	-7417
▁以	-7418
▁Journal	-7419
一带	-7420
城区	-7421
浪费	-7422
灵活	-7423
激烈	-7424
线路	-7425
▁hol	-7426
2021	-7427
▁compar	-7428
Attribute	-7429
inese	-7430
课堂	-7431
▁Street	-7432
▁Two	-7433
▁cells	-7434
各自	-7435
▁knew	-7436
▁nice	-7437
好了	-7438
ainer	-7439
header	-7440
健康的	-7441
reme	-7442
▁weap	-7443
▁although	-7444
account	-7445
替代	-7446
灾害	-7447
sign	-7448
民间	-7449
人为	-7450
▁certainly	-7451
广西	-7452
▁FOR	-7453
71	-7454
▁smaller	-7455
[0].	-7456
▁central	-7457
透明	-7458
▁configuration	-7459
iny	-7460
lication	-7461
▁integer	-7462
▁places	-7463
之路	-7464
总部	-7465
sim	-7466
sm	-7467
virt	-7468
这也是	-7469
anned	-7470
EE	-7471
▁Ham	-7472
不如	-7473
拒绝	-7474
等待	-7475
被告	-7476
国家的	-7477
iler	-7478
有趣	-7479
家族	-7480
普及	-7481
▁Americans	-7482
iding	-7483
供应商	-7484
xc	-7485
厂商	-7486
引擎	-7487
▁trend	-7488
▁happy	-7489
▁signal	-7490
look	-7491
生成一个	-7492
CharField	-7493
▁father	-7494
是对	-7495
全力	-7496
▁laws	-7497
▁interface	-7498
压缩	-7499
密度	-7500
污水处理	-7501
用品	-7502
ystem	-7503
上年	-7504
gebra	-7505
▁Thursday	-7506
西亚	-7507
ooth	-7508
十八	-7509
ialog	-7510
前景	-7511
▁easier	-7512
原始	-7513
外国	-7514
广播	-7515
▁smart	-7516
▁sustain	-7517
气温	-7518
▁closed	-7519
ospital	-7520
新兴	-7521
是非常	-7522
▁Apple	-7523
▁maybe	-7524
▁killed	-7525
▁solve	-7526
▁2000	-7527
▁County	-7528
▁approxim	-7529
05	-7530
▁虽然	-7531
▁growing	-7532
Se	-7533
iant	-7534
，2019	-7535
宝宝	-7536
▁disco	-7537
coming	-7538
RA	-7539
语音	-7540
▁har	-7541
▁'/	-7542
▁camer	-7543
▁lif	-7544
造型	-7545
度假	-7546
▁experiences	-7547
电气	-7548
现在的	-7549
胜利	-7550
inct	-7551
▁surv	-7552
给了	-7553
den	-7554
▁London	-7555
▁lock	-7556
观看	-7557
节约	-7558
mult	-7559
▁equival	-7560
▁touch	-7561
▁interested	-7562
▁AM	-7563
writ	-7564
oul	-7565
▁income	-7566
场比赛	-7567
long	-7568
▁challenge	-7569
▁immediately	-7570
▁paid	-7571
▁practices	-7572
ocation	-7573
ocal	-7574
Up	-7575
负面	-7576
老板	-7577
▁alone	-7578
Or	-7579
一批	-7580
提到	-7581
矛盾	-7582
合并	-7583
▁enter	-7584
▁reality	-7585
▁ded	-7586
▁largest	-7587
▁appropriate	-7588
olar	-7589
刚刚	-7590
band	-7591
▁attribute	-7592
▁..	-7593
2004	-7594
▁stories	-7595
日在	-7596
▁challenges	-7597
NN	-7598
▁Make	-7599
通用	-7600
▁pow	-7601
保存	-7602
的那	-7603
的规定	-7604
ionary	-7605
TO	-7606
▁mill	-7607
nesday	-7608
。-	-7609
飞行	-7610
94	-7611
▁cos	-7612
▁businesses	-7613
尼亚	-7614
PU	-7615
itution	-7616
Ipv	-7617
▁Mag	-7618
ilies	-7619
模块	-7620
cho	-7621
旅客	-7622
1、	-7623
西方	-7624
ULT	-7625
区块	-7626
涵盖	-7627
▁electric	-7628
产能	-7629
▁electron	-7630
sole	-7631
omin	-7632
点击	-7633
合成	-7634
▁CO	-7635
})	-7636
▁kids	-7637
同志	-7638
房间	-7639
CD	-7640
学的	-7641
▁reasons	-7642
旨在	-7643
rief	-7644
▁myself	-7645
▁2007	-7646
看起来	-7647
损害	-7648
▁balance	-7649
▁通过	-7650
海南	-7651
rial	-7652
军事	-7653
▁cast	-7654
▁powerful	-7655
/2	-7656
审批	-7657
长度	-7658
内心	-7659
传感	-7660
▁employees	-7661
。"	-7662
▁Name	-7663
▁aren	-7664
本地	-7665
▁adjust	-7666
▁patients	-7667
十四	-7668
▁ple	-7669
不需要	-7670
ologies	-7671
▁manager	-7672
！！	-7673
俱乐部	-7674
美丽的	-7675
总裁	-7676
辐射	-7677
":	-7678
城市的	-7679
孩子的	-7680
▁terror	-7681
dro	-7682
▁daily	-7683
vest	-7684
3000	-7685
▁skin	-7686
▁proof	-7687
▁Earth	-7688
纳入	-7689
▁agreed	-7690
图书馆	-7691
ria	-7692
钢铁	-7693
2、	-7694
▁appears	-7695
各位	-7696
▁000	-7697
征求	-7698
承包	-7699
▁policies	-7700
▁Hill	-7701
开拓	-7702
对其	-7703
▁measures	-7704
%、	-7705
发布的	-7706
▁opportunities	-7707
cy	-7708
▁son	-7709
▁assess	-7710
师范	-7711
▁generally	-7712
师生	-7713
icks	-7714
}_{	-7715
▁sun	-7716
▁Wednesday	-7717
▁components	-7718
0,0,	-7719
▁organizations	-7720
发达	-7721
被称为	-7722
'\	-7723
▁perhaps	-7724
加盟	-7725
▁species	-7726
▁90	-7727
奥运	-7728
▁summer	-7729
null	-7730
活动的	-7731
把握	-7732
期限	-7733
▁followed	-7734
文化的	-7735
▁seconds	-7736
中医	-7737
▁Bel	-7738
▁ri	-7739
信任	-7740
监督管理	-7741
OW	-7742
▁tf	-7743
atever	-7744
▁Satur	-7745
白色	-7746
这位	-7747
▁extrem	-7748
已成为	-7749
Item	-7750
gl	-7751
ursor	-7752
运动员	-7753
是以	-7754
amma	-7755
功率	-7756
作家	-7757
频率	-7758
oday	-7759
▁自	-7760
途径	-7761
▁variety	-7762
sets	-7763
weight	-7764
面前	-7765
▁identity	-7766
顺序	-7767
患者的	-7768
▁Court	-7769
remove	-7770
▁Tex	-7771
venue	-7772
▁East	-7773
从业	-7774
▁containing	-7775
传输	-7776
Call	-7777
▁purpose	-7778
文物	-7779
But	-7780
确诊	-7781
▁citiz	-7782
专用	-7783
▁wind	-7784
肌肉	-7785
})	-7786
▁therefore	-7787
失去	-7788
▁concerns	-7789
示例	-7790
同学们	-7791
▁agree	-7792
SP	-7793
▁Micro	-7794
屏幕	-7795
▁internal	-7796
late	-7797
加拿大	-7798
服务的	-7799
▁static	-7800
孩子们	-7801
▁spread	-7802
重量	-7803
ALL	-7804
▁plant	-7805
▁hour	-7806
▁messages	-7807
标签	-7808
▁Green	-7809
---	-7810
的基础上	-7811
▁poor	-7812
用途	-7813
段落	-7814
一张	-7815
不在	-7816
[0]	-7817
车站	-7818
▁bottom	-7819
▁geometry	-7820
协同	-7821
性格	-7822
▁teacher	-7823
遵守	-7824
用人	-7825
mem	-7826
ancy	-7827
▁choices	-7828
▁~	-7829
▁env	-7830
全新	-7831
acc	-7832
意外	-7833
crete	-7834
▁acqu	-7835
(*	-7836
▁Once	-7837
▁Health	-7838
验证	-7839
ara	-7840
▁DE	-7841
视为	-7842
超越	-7843
▁mathemat	-7844
▁minimum	-7845
种类	-7846
03	-7847
ancing	-7848
-5	-7849
回忆	-7850
收获	-7851
rier	-7852
APP	-7853
很容易	-7854
▁width	-7855
send	-7856
人民法院	-7857
Ad	-7858
▁Math	-7859
衣服	-7860
acing	-7861
男子	-7862
过度	-7863
▁mist	-7864
rees	-7865
cls	-7866
▁Research	-7867
allow	-7868
▁Super	-7869
行星	-7870
hi	-7871
官网	-7872
▁ST	-7873
▁Law	-7874
合物	-7875
2_	-7876
的过程	-7877
▁hundred	-7878
截止	-7879
▁earn	-7880
▁fine	-7881
▁Const	-7882
▁proced	-7883
▁applied	-7884
设有	-7885
▁speak	-7886
发动机	-7887
)。	-7888
镜头	-7889
春节	-7890
▁visual	-7891
▁Sec	-7892
lower	-7893
▁communities	-7894
档案	-7895
........	-7896
▁adapt	-7897
▁detect	-7898
▁attract	-7899
resource	-7900
分离	-7901
cles	-7902
新鲜	-7903
▁RE	-7904
等领域	-7905
▁techniques	-7906
As	-7907
血压	-7908
:30	-7909
▁drink	-7910
人和	-7911
ban	-7912
ida	-7913
严重的	-7914
响应	-7915
bed	-7916
lick	-7917
▁looked	-7918
"),	-7919
▁victim	-7920
周年	-7921
创建一个	-7922
▁Mart	-7923
村民	-7924
橡胶	-7925
oreign	-7926
▁James	-7927
透露	-7928
▁arrest	-7929
公平	-7930
饮料	-7931
▁seven	-7932
▁Under	-7933
做法	-7934
地面	-7935
百姓	-7936
▁bul	-7937
house	-7938
营造	-7939
▁follows	-7940
▁Phys	-7941
东京	-7942
物业	-7943
▁Rich	-7944
words	-7945
ission	-7946
最多	-7947
著作	-7948
▁Russia	-7949
不起	-7950
▁Science	-7951
wer	-7952
orter	-7953
税务	-7954
▁administration	-7955
xb	-7956
的机会	-7957
DB	-7958
▁因为	-7959
工作中	-7960
▁Ver	-7961
ipped	-7962
▁leader	-7963
▁Dan	-7964
肿瘤	-7965
交换	-7966
最早	-7967
听到	-7968
▁blue	-7969
有利于	-7970
修复	-7971
广东省	-7972
别的	-7973
站在	-7974
浓度	-7975
wood	-7976
由此	-7977
▁sites	-7978
充电	-7979
reedom	-7980
▁legis	-7981
▁slight	-7982
燃料	-7983
遗传	-7984
▁favorite	-7985
▁bed	-7986
93	-7987
都没有	-7988
▁UN	-7989
户外	-7990
用户的	-7991
▁virtual	-7992
血液	-7993
▁hous	-7994
▁prefer	-7995
▁channel	-7996
规格	-7997
▁Web	-7998
▁claims	-7999
▁showed	-8000
▁Saturday	-8001
二是	-8002
hol	-8003
▁identify	-8004
▁Dist	-8005
bum	-8006
▁Chinese	-8007
00000000	-8008
secut	-8009
▁warm	-8010
▁bur	-8011
优良	-8012
之处	-8013
日益	-8014
观念	-8015
comple	-8016
▁establish	-8017
▁produced	-8018
一边	-8019
▁partner	-8020
假设	-8021
6-	-8022
porary	-8023
▁selected	-8024
▁sleep	-8025
▁使用	-8026
sche	-8027
0.5	-8028
▁harm	-8029
的价格	-8030
▁edge	-8031
02	-8032
实习	-8033
用水	-8034
结婚	-8035
urrency	-8036
加坡	-8037
▁PM	-8038
graph	-8039
指定	-8040
}{\	-8041
现代化	-8042
▁brain	-8043
location	-8044
罗马	-8045
西南	-8046
State	-8047
▁pages	-8048
▁Direct	-8049
秘书	-8050
src	-8051
长江	-8052
▁raw	-8053
▁keys	-8054
▁1)	-8055
▁storage	-8056
▁Govern	-8057
iable	-8058
达成	-8059
下列	-8060
▁Jack	-8061
非法	-8062
craft	-8063
za	-8064
▁{\	-8065
放入	-8066
激励	-8067
技术和	-8068
少数	-8069
▁Image	-8070
▁decre	-8071
医师	-8072
十一	-8073
Reg	-8074
▁optional	-8075
iling	-8076
▁shift	-8077
▁investment	-8078
设定	-8079
扩展	-8080
example	-8081
▁mount	-8082
▁despite	-8083
theta	-8084
▁"	-8085
很少	-8086
isher	-8087
我们将	-8088
itionally	-8089
哈哈	-8090
pan	-8091
助力	-8092
▁angle	-8093
▁warn	-8094
隐私	-8095
arant	-8096
浏览	-8097
▁monitor	-8098
有哪些	-8099
▁century	-8100
▁今年	-8101
▁happens	-8102
▁strength	-8103
▁frac	-8104
enty	-8105
▁guess	-8106
日下午	-8107
接下来	-8108
uto	-8109
称号	-8110
▁Power	-8111
很高	-8112
').	-8113
blank	-8114
收藏	-8115
▁records	-8116
无疑	-8117
mathbb	-8118
增加了	-8119
情形	-8120
▁II	-8121
▁www	-8122
▁bool	-8123
icated	-8124
-19	-8125
痛苦	-8126
edia	-8127
消化	-8128
ittest	-8129
互相	-8130
件事	-8131
期刊	-8132
inux	-8133
公务	-8134
column	-8135
爸爸	-8136
融入	-8137
inite	-8138
▁continued	-8139
对话	-8140
▁Create	-8141
的感觉	-8142
eval	-8143
dtype	-8144
夏季	-8145
奋斗	-8146
评审	-8147
true	-8148
tocol	-8149
fn	-8150
热水	-8151
遗产	-8152
iced	-8153
fg	-8154
▁define	-8155
女人	-8156
微博	-8157
留下	-8158
▁firm	-8159
connection	-8160
▁hair	-8161
inder	-8162
sort	-8163
▁town	-8164
为您	-8165
地图	-8166
▁corpor	-8167
iform	-8168
▁tuple	-8169
timately	-8170
▁trig	-8171
▁Tom	-8172
author	-8173
初步	-8174
next	-8175
病的	-8176
事业单位	-8177
体制	-8178
原本	-8179
爆发	-8180
疫苗	-8181
arian	-8182
干净	-8183
▁resear	-8184
▁{"	-8185
semb	-8186
▁parse	-8187
▁Russian	-8188
case	-8189
▁Like	-8190
volume	-8191
养殖	-8192
精品	-8193
▁interval	-8194
▁prices	-8195
歌手	-8196
domain	-8197
实用	-8198
书法	-8199
2003	-8200
▁commer	-8201
厚的	-8202
）：	-8203
PT	-8204
仅仅	-8205
cat	-8206
无限	-8207
lab	-8208
▁drop	-8209
这两	-8210
▁collabor	-8211
看见	-8212
▁drug	-8213
产业发展	-8214
sys	-8215
▁李	-8216
审计	-8217
同事	-8218
日上午	-8219
▁surround	-8220
▁views	-8221
CA	-8222
课题	-8223
▁Islam	-8224
aint	-8225
电子商务	-8226
▁conver	-8227
▁2.0	-8228
▁flag	-8229
受欢迎	-8230
exists	-8231
2)	-8232
▁component	-8233
密码	-8234
xd	-8235
othes	-8236
▁proposed	-8237
应用程序	-8238
部长	-8239
全年	-8240
▁perspect	-8241
tk	-8242
还没有	-8243
care	-8244
▁definitely	-8245
eria	-8246
▁Kore	-8247
▁majority	-8248
ho	-8249
公示	-8250
eration	-8251
越南	-8252
▁raised	-8253
地震	-8254
最为	-8255
ipp	-8256
▁Run	-8257
bu	-8258
反复	-8259
的精神	-8260
iled	-8261
Des	-8262
azing	-8263
订单	-8264
部位	-8265
共产	-8266
aud	-8267
应该是	-8268
婚姻	-8269
▁Indian	-8270
不一样	-8271
▁Thom	-8272
▁prem	-8273
智能化	-8274
▁healthy	-8275
▁Alex	-8276
形态	-8277
变更	-8278
ressed	-8279
在一个	-8280
▁driver	-8281
▁construction	-8282
aby	-8283
▁schools	-8284
这款	-8285
▁rock	-8286
▁category	-8287
▁efficient	-8288
▁picture	-8289
system	-8290
▁Exception	-8291
标准化	-8292
▁families	-8293
必然	-8294
生涯	-8295
▁cop	-8296
▁prefix	-8297
五年	-8298
民众	-8299
▁split	-8300
▁500	-8301
▁solid	-8302
消失	-8303
进程	-8304
▁truth	-8305
wide	-8306
▁Log	-8307
▁stack	-8308
摄入	-8309
ago	-8310
十六	-8311
斯坦	-8312
umps	-8313
▁removed	-8314
脱贫	-8315
0}	-8316
多项	-8317
车的	-8318
Fr	-8319
女子	-8320
▁Robert	-8321
线的	-8322
▁beautiful	-8323
我不	-8324
▁vs	-8325
日报	-8326
Phone	-8327
SD	-8328
请求	-8329
▁partners	-8330
差距	-8331
电视剧	-8332
说法	-8333
inger	-8334
年轻人	-8335
MAT	-8336
non	-8337
分数	-8338
▁simpl	-8339
先进的	-8340
挖掘	-8341
生产的	-8342
ipment	-8343
本质	-8344
▁eyes	-8345
显得	-8346
公交	-8347
racy	-8348
▁toward	-8349
担保	-8350
首席	-8351
，1	-8352
队的	-8353
']['	-8354
▁bond	-8355
锈钢	-8356
▁French	-8357
手续	-8358
Trans	-8359
▁Port	-8360
▁Using	-8361
————————	-8362
▁quarter	-8363
NAME	-8364
的结果	-8365
▁unf	-8366
房子	-8367
我也	-8368
过来	-8369
gal	-8370
▁implied	-8371
▁relevant	-8372
▁然而	-8373
建立了	-8374
依托	-8375
▁prove	-8376
metadata	-8377
▁wild	-8378
▁phase	-8379
配备	-8380
等地	-8381
uman	-8382
▁During	-8383
专科	-8384
save	-8385
平安	-8386
感受到	-8387
设备的	-8388
激光	-8389
"),	-8390
bre	-8391
▁previously	-8392
发放	-8393
住宿	-8394
运作	-8395
▁cache	-8396
完成了	-8397
▁logger	-8398
消除	-8399
▁Thus	-8400
ults	-8401
▁moved	-8402
ga	-8403
▁Jew	-8404
▁college	-8405
的相关	-8406
民主	-8407
电机	-8408
QU	-8409
uuid	-8410
Inter	-8411
▁cultural	-8412
那样	-8413
mathbf	-8414
容量	-8415
发送	-8416
▁owners	-8417
Te	-8418
西北	-8419
月的	-8420
'].	-8421
▁ban	-8422
▁responsible	-8423
06	-8424
▁du	-8425
优秀的	-8426
活力	-8427
ISO	-8428
ptions	-8429
ME	-8430
哪个	-8431
▁critic	-8432
糖尿	-8433
间的	-8434
Date	-8435
更高	-8436
▁wouldn	-8437
输送	-8438
▁ahead	-8439
li	-8440
估计	-8441
心中	-8442
人力资源	-8443
race	-8444
▁Mult	-8445
▁connected	-8446
▁Ber	-8447
Val	-8448
fty	-8449
Script	-8450
▁absolute	-8451
istan	-8452
▁fresh	-8453
▁Press	-8454
人文	-8455
▁gold	-8456
▁tend	-8457
▁impos	-8458
处置	-8459
▁User	-8460
▁implementation	-8461
境内	-8462
上一	-8463
十九	-8464
{{	-8465
Tag	-8466
▁separate	-8467
CR	-8468
出现在	-8469
ounce	-8470
多年的	-8471
纳税	-8472
▁----------------	-8473
▁Develop	-8474
市政府	-8475
会长	-8476
▁Sand	-8477
引入	-8478
shot	-8479
寻求	-8480
▁Ev	-8481
▁experiment	-8482
打击	-8483
"]	-8484
哲学	-8485
▁Whe	-8486
07	-8487
开心	-8488
学校的	-8489
▁feet	-8490
也可	-8491
Info	-8492
不得不	-8493
▁couldn	-8494
一方面	-8495
▁clearly	-8496
dule	-8497
▁influence	-8498
收录	-8499
方的	-8500
邮箱	-8501
View	-8502
接着	-8503
IONS	-8504
greg	-8505
▁·	-8506
三分	-8507
ouble	-8508
imin	-8509
▁Av	-8510
树立	-8511
▁buff	-8512
▁meant	-8513
▁caused	-8514
式的	-8515
▁Play	-8516
的过程中	-8517
的目标	-8518
本来	-8519
▁psych	-8520
etic	-8521
路上	-8522
ups	-8523
istant	-8524
侵犯	-8525
团结	-8526
其中的	-8527
eader	-8528
▁Pri	-8529
▁calculate	-8530
▁frequency	-8531
itect	-8532
形状	-8533
▁mole	-8534
iency	-8535
▁serve	-8536
▁Ap	-8537
▁URL	-8538
lished	-8539
tml	-8540
时光	-8541
高铁	-8542
环境的	-8543
节奏	-8544
▁scene	-8545
▁apprec	-8546
披露	-8547
-12	-8548
支部	-8549
水的	-8550
▁不过	-8551
了很多	-8552
bas	-8553
山东省	-8554
辅导	-8555
oded	-8556
专题	-8557
ribe	-8558
区块链	-8559
2	-8560
orial	-8561
estamp	-8562
▁func	-8563
axis	-8564
ernel	-8565
▁restrict	-8566
语法	-8567
外观	-8568
▁operator	-8569
电路	-8570
基本上	-8571
▁mut	-8572
▁runs	-8573
mes	-8574
▁Bay	-8575
▁wave	-8576
▁helped	-8577
实时	-8578
夏天	-8579
月底	-8580
体检	-8581
出一个	-8582
该公司	-8583
▁binary	-8584
便是	-8585
IES	-8586
common	-8587
ford	-8588
▁Returns	-8589
男性	-8590
▁Star	-8591
tered	-8592
onal	-8593
较低	-8594
，3	-8595
▁Oh	-8596
电源	-8597
不仅仅	-8598
售后	-8599
同步	-8600
▁null	-8601
▁mental	-8602
尚未	-8603
缺点	-8604
▁motiv	-8605
光伏	-8606
口罩	-8607
▁launch	-8608
成年	-8609
提高了	-8610
▁Great	-8611
1	-8612
▁epis	-8613
▁ratio	-8614
非洲	-8615
+\	-8616
查看	-8617
she	-8618
▁danger	-8619
900	-8620
▁concent	-8621
nap	-8622
吉林	-8623
走进	-8624
▁Follow	-8625
长沙	-8626
Sub	-8627
coin	-8628
链接	-8629
▁Char	-8630
},	-8631
SQL	-8632
让他	-8633
成交	-8634
潜力	-8635
常规	-8636
HOUT	-8637
混凝	-8638
的选择	-8639
花园	-8640
陶瓷	-8641
called	-8642
▁sides	-8643
[0],	-8644
access	-8645
▁peace	-8646
冷却	-8647
▁Times	-8648
▁Id	-8649
延长	-8650
越来越多	-8651
resents	-8652
▁audience	-8653
▁sett	-8654
各国	-8655
层面	-8656
业内	-8657
bose	-8658
▁spend	-8659
▁kill	-8660
成功的	-8661
安全生产	-8662
彼此	-8663
MM	-8664
▁investigation	-8665
地质	-8666
必要的	-8667
货物	-8668
▁IP	-8669
澳大利	-8670
xe	-8671
▁master	-8672
份额	-8673
rowser	-8674
提供一个	-8675
▁weak	-8676
前的	-8677
▁Tor	-8678
澳大利亚	-8679
▁onto	-8680
▁extract	-8681
下滑	-8682
▁Good	-8683
二级	-8684
_{\	-8685
回来	-8686
一直在	-8687
▁Internet	-8688
最初	-8689
紧急	-8690
自然语言	-8691
ipping	-8692
▁Instead	-8693
卓越	-8694
高速公路	-8695
好好	-8696
强大	-8697
饰演	-8698
重要的是	-8699
终端	-8700
国家和	-8701
pred	-8702
▁door	-8703
▁${\	-8704
username	-8705
▁除了	-8706
▁WITHOUT	-8707
依靠	-8708
我会	-8709
公民	-8710
▁以下	-8711
关闭	-8712
tree	-8713
vm	-8714
10,	-8715
sa	-8716
文献	-8717
的第一	-8718
演唱	-8719
▁Mo	-8720
的行为	-8721
▁benefit	-8722
厘米	-8723
自信	-8724
▁Thanks	-8725
▁biggest	-8726
▁guy	-8727
多数	-8728
ses	-8729
▁另外	-8730
宗旨	-8731
约为	-8732
▁extension	-8733
▁corresponding	-8734
▁headers	-8735
搅拌	-8736
教材	-8737
ensional	-8738
主演	-8739
重的	-8740
舞蹈	-8741
反对	-8742
▁nodes	-8743
▁relationships	-8744
评选	-8745
****************	-8746
不太	-8747
魅力	-8748
clusive	-8749
▁calling	-8750
-\	-8751
每日	-8752
▁sexual	-8753
▁decisions	-8754
▁Br	-8755
争议	-8756
▁2006	-8757
阳市	-8758
▁Party	-8759
小编	-8760
文化和	-8761
ynomial	-8762
关键词	-8763
istory	-8764
职位	-8765
LS	-8766
世界的	-8767
icip	-8768
激发	-8769
社会的	-8770
Size	-8771
后期	-8772
)))	-8773
率为	-8774
客观	-8775
债务	-8776
▁processes	-8777
有多	-8778
在美国	-8779
▁People	-8780
游泳	-8781
新疆	-8782
焦虑	-8783
字符串	-8784
▁allowing	-8785
92	-8786
▁Phil	-8787
orters	-8788
▁violence	-8789
不久	-8790
▁Met	-8791
▁partial	-8792
书籍	-8793
不住	-8794
新加坡	-8795
▁regarding	-8796
▁四	-8797
你会	-8798
▁Tur	-8799
▁tick	-8800
电信	-8801
，12	-8802
Index	-8803
市场上	-8804
▁[]	-8805
which	-8806
点的	-8807
一只	-8808
▁Therefore	-8809
发射	-8810
▁eye	-8811
,'	-8812
▁supply	-8813
vere	-8814
地上	-8815
▁station	-8816
▁switch	-8817
Count	-8818
▁spot	-8819
辽宁	-8820
回报	-8821
更大的	-8822
代谢	-8823
bound	-8824
▁mask	-8825
这项	-8826
专辑	-8827
尽快	-8828
▁fill	-8829
rd	-8830
人们的	-8831
联合国	-8832
▁feedback	-8833
不但	-8834
▁highest	-8835
▁Spe	-8836
▁eventually	-8837
格局	-8838
级的	-8839
An	-8840
和技术	-8841
constructor	-8842
攻坚	-8843
▁remote	-8844
▁updated	-8845
▁requirements	-8846
毫米	-8847
策划	-8848
▁32	-8849
有个	-8850
icens	-8851
▁quot	-8852
OK	-8853
男人	-8854
▁张	-8855
▁Look	-8856
▁planning	-8857
On	-8858
illa	-8859
在我	-8860
方位	-8861
gu	-8862
说话	-8863
▁Hel	-8864
美好的	-8865
外部	-8866
导师	-8867
那种	-8868
▁Texas	-8869
direct	-8870
partial	-8871
燃烧	-8872
future	-8873
▁birth	-8874
体会	-8875
退休	-8876
lay	-8877
alax	-8878
▁attacks	-8879
结论	-8880
▁rise	-8881
不超过	-8882
▁Fe	-8883
▁mentioned	-8884
Dict	-8885
With	-8886
皇帝	-8887
还将	-8888
纺织	-8889
资助	-8890
此同时	-8891
going	-8892
▁termin	-8893
▁sto	-8894
bert	-8895
心脏	-8896
123	-8897
协作	-8898
疾病的	-8899
抑制	-8900
起到	-8901
身心	-8902
110	-8903
▁fa	-8904
账户	-8905
传感器	-8906
类型的	-8907
▁bra	-8908
发言	-8909
iki	-8910
▁Service	-8911
inner	-8912
rum	-8913
好处	-8914
azon	-8915
的一部分	-8916
艺术家	-8917
▁speech	-8918
zen	-8919
▁candidate	-8920
▁advantage	-8921
▁died	-8922
──	-8923
平面	-8924
万平方米	-8925
▁thousands	-8926
▁poll	-8927
▁Council	-8928
▁feeling	-8929
olic	-8930
大脑	-8931
产生了	-8932
TC	-8933
▁notes	-8934
太空	-8935
▁girl	-8936
▁gone	-8937
▁nuclear	-8938
nodes	-8939
▁Mal	-8940
uations	-8941
的关系	-8942
命运	-8943
▁located	-8944
营收	-8945
rapper	-8946
ILITY	-8947
水利	-8948
真是	-8949
▁Book	-8950
▁70	-8951
▁somew	-8952
hem	-8953
今日	-8954
▁guys	-8955
▁Christian	-8956
▁要	-8957
osen	-8958
▁fan	-8959
▁trou	-8960
UP	-8961
faces	-8962
mas	-8963
▁mobile	-8964
▁Tim	-8965
台北	-8966
妻子	-8967
▁Gold	-8968
摘要	-8969
消毒	-8970
▁religious	-8971
充足	-8972
影像	-8973
等问题	-8974
$$	-8975
changed	-8976
临时	-8977
▁pool	-8978
meta	-8979
TV	-8980
cape	-8981
整改	-8982
园林	-8983
=(	-8984
隔离	-8985
ka	-8986
32_	-8987
风机	-8988
演讲	-8989
总局	-8990
这一点	-8991
水泥	-8992
ignment	-8993
oder	-8994
There	-8995
板块	-8996
能力和	-8997
while	-8998
持有	-8999
ponent	-9000
修订	-9001
cdot	-9002
文艺	-9003
▁typically	-9004
落地	-9005
▁carbon	-9006
照明	-9007
▁alternative	-9008
▁api	-9009
ca	-9010
▁Det	-9011
netic	-9012
beta	-9013
▁showing	-9014
程度上	-9015
▁Only	-9016
▁poly	-9017
▁wife	-9018
▁voice	-9019
得以	-9020
osure	-9021
▁samples	-9022
伦敦	-9023
▁AR	-9024
时间的	-9025
▁odd	-9026
ky	-9027
▁neut	-9028
江苏省	-9029
康复	-9030
▁topic	-9031
▁profile	-9032
反而	-9033
承认	-9034
子公司	-9035
▁synt	-9036
校区	-9037
▁第一	-9038
气象	-9039
设计的	-9040
eted	-9041
Group	-9042
▁continuous	-9043
冲突	-9044
Fact	-9045
民宿	-9046
负担	-9047
财经	-9048
▁6,	-9049
▁changing	-9050
便宜	-9051
百万	-9052
evice	-9053
▁minor	-9054
签署	-9055
▁generation	-9056
某个	-9057
▁parties	-9058
OG	-9059
perties	-9060
▁discussion	-9061
onom	-9062
福利	-9063
▁delete	-9064
昨天	-9065
的人生	-9066
▁crow	-9067
raq	-9068
上海市	-9069
stop	-9070
，5	-9071
zone	-9072
1_	-9073
一片	-9074
▁deriv	-9075
两次	-9076
相结合	-9077
ications	-9078
奉献	-9079
贵的	-9080
▁chain	-9081
▁posted	-9082
大连	-9083
ker	-9084
('/	-9085
eps	-9086
▁一个	-9087
▁depth	-9088
▁susp	-9089
▁upper	-9090
▁strategies	-9091
points	-9092
▁Senate	-9093
大规模	-9094
ride	-9095
▁vel	-9096
一项	-9097
温室	-9098
aughter	-9099
▁football	-9100
的世界	-9101
BI	-9102
数字化	-9103
ruit	-9104
这也	-9105
ini	-9106
▁mur	-9107
isted	-9108
小区	-9109
坚定	-9110
癫痫	-9111
▁Smith	-9112
▁Union	-9113
▁loop	-9114
▁spaces	-9115
类别	-9116
osh	-9117
▁promote	-9118
债券	-9119
ville	-9120
第一时间	-9121
创始	-9122
新冠肺炎	-9123
单元	-9124
▁cloud	-9125
0.1	-9126
orph	-9127
短期	-9128
这段	-9129
颗粒	-9130
大于	-9131
历史上	-9132
当代	-9133
From	-9134
看到了	-9135
argument	-9136
My	-9137
New	-9138
关节	-9139
▁Max	-9140
秘密	-9141
能在	-9142
过于	-9143
分泌	-9144
某种	-9145
诸多	-9146
▁北京	-9147
为客户	-9148
duc	-9149
当天	-9150
的美	-9151
▁disease	-9152
尽可能	-9153
是我们	-9154
oving	-9155
小型	-9156
比亚	-9157
紧密	-9158
ien	-9159
社会主义	-9160
▁documents	-9161
这类	-9162
仔细	-9163
ipl	-9164
人类的	-9165
（19	-9166
?”	-9167
▁Project	-9168
▁insurance	-9169
nel	-9170
▁button	-9171
照顾	-9172
进而	-9173
▁Police	-9174
▁failure	-9175
明显的	-9176
▁exercise	-9177
▁plane	-9178
出租	-9179
▁cris	-9180
▁Quest	-9181
Response	-9182
▁learned	-9183
延伸	-9184
▁0	-9185
▁modify	-9186
五个	-9187
▁Big	-9188
从来	-9189
多了	-9190
ORT	-9191
试图	-9192
API	-9193
时代的	-9194
▁labels	-9195
▁manage	-9196
▁conference	-9197
▁Network	-9198
▁Australia	-9199
显然	-9200
▁1:	-9201
phas	-9202
人都	-9203
停车	-9204
reshold	-9205
▁reverse	-9206
Element	-9207
avig	-9208
为一	-9209
▁sess	-9210
▁defense	-9211
▁Further	-9212
龙头	-9213
敏感	-9214
▁established	-9215
▁以上	-9216
Java	-9217
ATA	-9218
equ	-9219
▁presence	-9220
百度	-9221
▁marketing	-9222
量子	-9223
eds	-9224
▁experim	-9225
▁intelligence	-9226
ston	-9227
Message	-9228
results	-9229
SI	-9230
公式	-9231
▁draft	-9232
才会	-9233
▁#################	-9234
uled	-9235
▁links	-9236
ashion	-9237
▁Figure	-9238
移民	-9239
annels	-9240
就算	-9241
▁现在	-9242
▁Call	-9243
▁farm	-9244
▁obtained	-9245
占据	-9246
线下	-9247
设计师	-9248
▁.	-9249
▁continues	-9250
▁Mathemat	-9251
▁Institute	-9252
架构	-9253
也没	-9254
▁selection	-9255
最重要的	-9256
的核心	-9257
▁TH	-9258
istered	-9259
▁pros	-9260
有关部门	-9261
▁chemical	-9262
MO	-9263
可持续发展	-9264
▁Commit	-9265
法定	-9266
清单	-9267
▁represents	-9268
▁dictionary	-9269
▁commercial	-9270
健全	-9271
▁guid	-9272
我们要	-9273
▁tasks	-9274
▁那	-9275
法人	-9276
mask	-9277
Pack	-9278
▁environmental	-9279
命令	-9280
ello	-9281
▁Iraq	-9282
▁rare	-9283
工人	-9284
身体健康	-9285
▁Remember	-9286
▁spending	-9287
象征	-9288
依旧	-9289
葡萄酒	-9290
粮食	-9291
othing	-9292
}(	-9293
队员	-9294
活跃	-9295
▁因此	-9296
评为	-9297
▁Sur	-9298
▁sin	-9299
播放	-9300
赔偿	-9301
▁Sum	-9302
▁kept	-9303
GL	-9304
可能性	-9305
▁division	-9306
NS	-9307
打破	-9308
derr	-9309
"))	-9310
的管理	-9311
不锈钢	-9312
度和	-9313
▁Tem	-9314
orrow	-9315
科技创新	-9316
大道	-9317
巴西	-9318
▁differences	-9319
年初	-9320
sing	-9321
天空	-9322
笔记	-9323
▁html	-9324
▁grand	-9325
▁haven	-9326
13.	-9327
▁reached	-9328
早上	-9329
▁Iran	-9330
▁Muslim	-9331
有序	-9332
headers	-9333
▁advert	-9334
”、	-9335
▁Elect	-9336
uzz	-9337
介绍了	-9338
产品质量	-9339
个体	-9340
▁'-	-9341
encode	-9342
olf	-9343
开设	-9344
征求意见	-9345
▁Show	-9346
▁Colle	-9347
js	-9348
民营	-9349
▁presented	-9350
带有	-9351
余人	-9352
▁spirit	-9353
▁divid	-9354
▁Both	-9355
参加了	-9356
▁饰	-9357
asy	-9358
▁35	-9359
还需要	-9360
aste	-9361
iliar	-9362
网页	-9363
gar	-9364
dest	-9365
抓住	-9366
牛奶	-9367
符号	-9368
价值观	-9369
▁feat	-9370
当事	-9371
税收	-9372
用人单位	-9373
groups	-9374
授予	-9375
▁tal	-9376
mu	-9377
建设的	-9378
供给	-9379
ano	-9380
onic	-9381
ented	-9382
▁美国	-9383
电子邮件	-9384
▁Mem	-9385
terns	-9386
▁George	-9387
▁coding	-9388
▁explore	-9389
PM	-9390
几天	-9391
自行车	-9392
冬季	-9393
AY	-9394
人大	-9395
理工	-9396
dot	-9397
2）	-9398
><	-9399
ya	-9400
▁前	-9401
两位	-9402
▁wel	-9403
▁offered	-9404
▁Sam	-9405
Ser	-9406
达到了	-9407
▁Donald	-9408
under	-9409
▁agreement	-9410
▁willing	-9411
市委	-9412
▁Py	-9413
混凝土	-9414
▁Bill	-9415
▁ing	-9416
bal	-9417
生态环境	-9418
▁developing	-9419
pg	-9420
不开	-9421
权威	-9422
▁coe	-9423
3、	-9424
1）	-9425
ocket	-9426
osite	-9427
有没有	-9428
▁reaction	-9429
}^	-9430
是一部	-9431
都市	-9432
Run	-9433
▁(	-9434
供应链	-9435
简介	-9436
条件的	-9437
到来	-9438
慢性	-9439
二氧化	-9440
背后	-9441
市政	-9442
olved	-9443
高压	-9444
第三方	-9445
也不会	-9446
无数	-9447
▁Cle	-9448
▁equivalent	-9449
▁shall	-9450
快的	-9451
▁File	-9452
同比下降	-9453
遵循	-9454
副主任	-9455
▁initi	-9456
div	-9457
apers	-9458
的中国	-9459
element	-9460
▁sorted	-9461
因而	-9462
目录	-9463
糖尿病	-9464
▁guarant	-9465
远程	-9466
▁jour	-9467
记载	-9468
说过	-9469
心情	-9470
ampions	-9471
▁focused	-9472
▁internet	-9473
execute	-9474
存在的	-9475
isms	-9476
ocity	-9477
为止	-9478
job	-9479
故障	-9480
▁cash	-9481
新生	-9482
秩序	-9483
aked	-9484
▁31	-9485
▁agency	-9486
▁Program	-9487
MB	-9488
说道	-9489
startswith	-9490
婴儿	-9491
SH	-9492
initial	-9493
，2	-9494
IND	-9495
▁Nov	-9496
现状	-9497
有可能	-9498
-20	-9499
学习和	-9500
▁Back	-9501
▁external	-9502
后面	-9503
喜爱	-9504
rating	-9505
▁novel	-9506
▁45	-9507
传染	-9508
约翰	-9509
依照	-9510
inf	-9511
▁observed	-9512
▁knows	-9513
▁combination	-9514
▁Cap	-9515
▁capacity	-9516
后续	-9517
▁setup	-9518
▁protection	-9519
更大	-9520
▁excell	-9521
便捷	-9522
篮球	-9523
。　	-9524
贝尔	-9525
更换	-9526
ideos	-9527
▁assume	-9528
苏州	-9529
▁bytes	-9530
热爱	-9531
细菌	-9532
合作伙伴	-9533
▁Top	-9534
▁7,	-9535
4)	-9536
为此	-9537
万美元	-9538
normal	-9539
▁interests	-9540
▁whatever	-9541
银屑	-9542
快递	-9543
▁Jer	-9544
▁signed	-9545
lies	-9546
▁fat	-9547
riend	-9548
ameter	-9549
▁apparent	-9550
▁王	-9551
乙烯	-9552
”.	-9553
queue	-9554
发育	-9555
itness	-9556
在家	-9557
▁ids	-9558
▁attributes	-9559
四大	-9560
▁其实	-9561
▁Mex	-9562
▁offset	-9563
▁citizens	-9564
xi	-9565
的质量	-9566
▁sched	-9567
▁opening	-9568
ship	-9569
lass	-9570
Handler	-9571
Sp	-9572
ba	-9573
一组	-9574
▁compute	-9575
各界	-9576
IST	-9577
▁Line	-9578
▁institut	-9579
DR	-9580
hens	-9581
▁Take	-9582
明的	-9583
稳定的	-9584
▁protocol	-9585
.'	-9586
prov	-9587
Event	-9588
有害	-9589
欧盟	-9590
free	-9591
管理体系	-9592
国产	-9593
材质	-9594
场的	-9595
▁wish	-9596
妇女	-9597
uce	-9598
▁exchange	-9599
分解	-9600
陆续	-9601
考虑到	-9602
每周	-9603
Integer	-9604
助学	-9605
隐患	-9606
Hz	-9607
回应	-9608
讲解	-9609
(2	-9610
▁circum	-9611
适当的	-9612
▁heavy	-9613
▁Germany	-9614
▁reduced	-9615
▁src	-9616
well	-9617
物资	-9618
▁copyright	-9619
▁significantly	-9620
ifies	-9621
▁prime	-9622
▁officers	-9623
ste	-9624
▁nor	-9625
ander	-9626
入选	-9627
▁throw	-9628
▁requests	-9629
▁'\	-9630
▁confir	-9631
.)	-9632
sql	-9633
难题	-9634
▁ice	-9635
▁Flor	-9636
指南	-9637
2002	-9638
isation	-9639
▁League	-9640
▁equipment	-9641
钢管	-9642
▁Ter	-9643
▁shut	-9644
▁patterns	-9645
exception	-9646
的效果	-9647
▁Thank	-9648
用地	-9649
和发展	-9650
转让	-9651
马上	-9652
▁amazing	-9653
的电影	-9654
▁chief	-9655
鸡蛋	-9656
▁hab	-9657
▁uns	-9658
arrant	-9659
pk	-9660
接待	-9661
表格	-9662
▁PC	-9663
足够的	-9664
▁req	-9665
帝国	-9666
▁leaving	-9667
▁prote	-9668
▁asking	-9669
▁protest	-9670
的形式	-9671
icing	-9672
郑州	-9673
eless	-9674
▁noted	-9675
▁purchase	-9676
())	-9677
幼儿园	-9678
Sc	-9679
克服	-9680
节省	-9681
▁8,	-9682
▁dra	-9683
▁render	-9684
迎来	-9685
▁mac	-9686
看了	-9687
irc	-9688
的首	-9689
▁numpy	-9690
▁>=	-9691
取代	-9692
搭建	-9693
▁introduced	-9694
▁Start	-9695
-6	-9696
影响力	-9697
▁resp	-9698
▁detail	-9699
南方	-9700
▁answers	-9701
受理	-9702
▁AT	-9703
▁grant	-9704
▁mostly	-9705
的文章	-9706
▁determined	-9707
主人	-9708
yan	-9709
▁Leg	-9710
▁arm	-9711
主流	-9712
SL	-9713
刑事	-9714
的原则	-9715
▁earth	-9716
电网	-9717
局长	-9718
充分发挥	-9719
phi	-9720
扮演	-9721
iber	-9722
orig	-9723
▁Lear	-9724
▁serial	-9725
目的地	-9726
▁getattr	-9727
asure	-9728
▁Ro	-9729
志愿者	-9730
”,	-9731
hash	-9732
▁Comput	-9733
批评	-9734
rey	-9735
pay	-9736
14.	-9737
顾问	-9738
▁placed	-9739
▁effectively	-9740
ests	-9741
漂亮	-9742
▁seeing	-9743
签约	-9744
▁enable	-9745
高新技术	-9746
▁Angel	-9747
股价	-9748
▁processing	-9749
清理	-9750
合适的	-9751
▁brief	-9752
▁debate	-9753
▁advance	-9754
较高的	-9755
▁Today	-9756
▁density	-9757
基础上	-9758
▁£	-9759
内涵	-9760
Line	-9761
▁pun	-9762
他们在	-9763
Client	-9764
阿尔	-9765
选用	-9766
Per	-9767
▁camera	-9768
inn	-9769
BO	-9770
▁prison	-9771
rical	-9772
package	-9773
实的	-9774
▁catch	-9775
跟着	-9776
都很	-9777
utf	-9778
onym	-9779
▁eat	-9780
研究中心	-9781
公元	-9782
漫画	-9783
▁Scott	-9784
~~~~	-9785
▁pip	-9786
▁coach	-9787
ortunately	-9788
▁traffic	-9789
争取	-9790
▁afford	-9791
▁battle	-9792
▁consult	-9793
Ptr	-9794
lands	-9795
FO	-9796
波动	-9797
compile	-9798
▁"\	-9799
▁TO	-9800
▁restaur	-9801
匹配	-9802
公司在	-9803
组织的	-9804
救援	-9805
▁Matt	-9806
2001	-9807
强制	-9808
install	-9809
变革	-9810
经费	-9811
▁networks	-9812
{}	-9813
istr	-9814
=%	-9815
▁2005	-9816
展会	-9817
▁respond	-9818
gin	-9819
▁miles	-9820
对接	-9821
数据的	-9822
▁wid	-9823
客户的	-9824
等于	-9825
HTML	-9826
metric	-9827
:"	-9828
三种	-9829
她们	-9830
稳定性	-9831
Comm	-9832
////////	-9833
警察	-9834
▁Mer	-9835
cks	-9836
▁fake	-9837
15.	-9838
▁decades	-9839
增值	-9840
grade	-9841
▁labor	-9842
标准的	-9843
▁album	-9844
上去	-9845
evision	-9846
▁marg	-9847
ABILITY	-9848
Ed	-9849
发生了	-9850
▁Jul	-9851
]]	-9852
▁pieces	-9853
中共	-9854
second	-9855
▁resolution	-9856
学期	-9857
ona	-9858
batch	-9859
6%	-9860
▁supposed	-9861
▁forced	-9862
▁representation	-9863
删除	-9864
▁unc	-9865
东部	-9866
格兰	-9867
ansion	-9868
▁coverage	-9869
ampl	-9870
▁floor	-9871
开工	-9872
▁高	-9873
：《	-9874
不可能	-9875
四川省	-9876
▁funding	-9877
功效	-9878
▁近日	-9879
▁explicit	-9880
煤炭	-9881
ariable	-9882
▁Office	-9883
iverse	-9884
▁fundam	-9885
以外	-9886
已经成为	-9887
▁Microsoft	-9888
而成	-9889
多年来	-9890
pare	-9891
是要	-9892
及以上	-9893
销售额	-9894
交互	-9895
aks	-9896
选项	-9897
的社会	-9898
▁burn	-9899
▁scientific	-9900
antic	-9901
成效	-9902
required	-9903
发起	-9904
最高的	-9905
以往	-9906
的朋友	-9907
▁Democratic	-9908
▁importance	-9909
了解到	-9910
发作	-9911
填写	-9912
要素	-9913
道理	-9914
nn	-9915
▁Bit	-9916
统筹	-9917
今后	-9918
▁spokes	-9919
拿到	-9920
Gener	-9921
▁jump	-9922
不变	-9923
服务业	-9924
▁parallel	-9925
补偿	-9926
how	-9927
▁anc	-9928
▁−	-9929
▁purs	-9930
▁depends	-9931
泰国	-9932
相反	-9933
▁annual	-9934
▁columns	-9935
场地	-9936
prim	-9937
total	-9938
▁Model	-9939
parser	-9940
下跌	-9941
▁当然	-9942
▁rich	-9943
不想	-9944
导向	-9945
的海	-9946
聚集	-9947
▁1.0	-9948
▁flex	-9949
对我	-9950
获奖	-9951
共计	-9952
power	-9953
▁incorpor	-9954
standing	-9955
第六	-9956
train	-9957
造成的	-9958
▁domin	-9959
检察	-9960
ERS	-9961
rule	-9962
otic	-9963
▁sea	-9964
▁editor	-9965
▁starts	-9966
▁Bus	-9967
}$	-9968
profile	-9969
▁Additionally	-9970
▁Committee	-9971
ola	-9972
▁hospital	-9973
▁secure	-9974
本网站	-9975
▁finished	-9976
▁consistent	-9977
ira	-9978
posit	-9979
sey	-9980
manager	-9981
xa	-9982
▁nut	-9983
▁deliver	-9984
原创	-9985
感动	-9986
ifications	-9987
热门	-9988
▁Second	-9989
备案	-9990
▁subsc	-9991
▁Minister	-9992
进攻	-9993
▁bin	-9994
▁crucial	-9995
▁Rad	-9996
高峰	-9997
正规	-9998
要注意	-9999
单独	-10000
之所以	-10001
licenses	-10002
▁ended	-10003
▁compat	-10004
一部	-10005
iences	-10006
极大	-10007
▁Equ	-10008
▁Zbl	-10009
▁cities	-10010
智能手机	-10011
▁circle	-10012
▁agent	-10013
百年	-10014
一体化	-10015
的人员	-10016
▁xml	-10017
▁plus	-10018
科技有限公司	-10019
▁lose	-10020
▁owner	-10021
失业	-10022
▁slightly	-10023
看出	-10024
91	-10025
本站	-10026
▁Bank	-10027
▁unless	-10028
体重	-10029
全新的	-10030
▁competition	-10031
▁boy	-10032
▁timeout	-10033
▁resulting	-10034
▁amb	-10035
▁opinion	-10036
dt	-10037
700	-10038
是为了	-10039
180	-10040
Box	-10041
▁transition	-10042
isco	-10043
nergy	-10044
后果	-10045
▁Social	-10046
250	-10047
▁radio	-10048
精心	-10049
上有	-10050
▁pet	-10051
人才培养	-10052
▁Security	-10053
味的	-10054
▁univers	-10055
▁laun	-10056
sv	-10057
▁border	-10058
▁authent	-10059
▁sequ	-10060
浙江省	-10061
▁batch	-10062
riage	-10063
oyal	-10064
▁freedom	-10065
而已	-10066
oles	-10067
▁becoming	-10068
▁同时	-10069
山区	-10070
▁remaining	-10071
本文	-10072
▁Base	-10073
Pr	-10074
▁photo	-10075
亏损	-10076
▁wat	-10077
中最	-10078
▁stick	-10079
种子	-10080
▁reject	-10081
ju	-10082
申请人	-10083
给大家	-10084
FAULT	-10085
延续	-10086
▁sect	-10087
初心	-10088
县级	-10089
▁College	-10090
▁df	-10091
▁politics	-10092
坐在	-10093
▁cars	-10094
▁animals	-10095
▁=>	-10096
▁patient	-10097
太平	-10098
》	-10099
ATH	-10100
mean	-10101
办事	-10102
estic	-10103
▁updates	-10104
▁Republicans	-10105
不上	-10106
▁categ	-10107
ATION	-10108
▁thanks	-10109
信托	-10110
▁motion	-10111
De	-10112
这就	-10113
黄色	-10114
▁hash	-10115
▁Calcul	-10116
▁encoding	-10117
▁polynomial	-10118
和管理	-10119
person	-10120
▁occas	-10121
▁voters	-10122
富有	-10123
▁senior	-10124
scale	-10125
兴奋	-10126
▁standards	-10127
形容	-10128
▁researchers	-10129
▁implic	-10130
传说	-10131
学员	-10132
接收	-10133
期货	-10134
▁extremely	-10135
的变化	-10136
▁shap	-10137
mosp	-10138
▁trip	-10139
▁charges	-10140
陷入	-10141
密封	-10142
身份证	-10143
的重要性	-10144
自然语言处理	-10145
▁advice	-10146
3%	-10147
ture	-10148
▁metadata	-10149
▁${	-10150
▁cards	-10151
▁opened	-10152
▁street	-10153
▁brother	-10154
希腊	-10155
次数	-10156
对待	-10157
▁quantum	-10158
AGE	-10159
▁soft	-10160
inity	-10161
也就是说	-10162
linear	-10163
▁mission	-10164
▁sentence	-10165
icious	-10166
▁Commission	-10167
马克	-10168
仿佛	-10169
甘肃	-10170
补助	-10171
)):	-10172
浪漫	-10173
▁Canad	-10174
dec	-10175
整治	-10176
▁license	-10177
时间内	-10178
科学院	-10179
▁truly	-10180
uri	-10181
press	-10182
▁older	-10183
生动	-10184
static	-10185
癌症	-10186
的功能	-10187
▁curve	-10188
拍卖	-10189
跟踪	-10190
电视台	-10191
▁cancer	-10192
▁appeared	-10193
的城市	-10194
orney	-10195
▁documentation	-10196
究竟	-10197
ABLE	-10198
▁rid	-10199
,\	-10200
从小	-10201
服务器	-10202
▁France	-10203
营业收入	-10204
▁repeated	-10205
以此	-10206
白斑	-10207
Create	-10208
▁Mil	-10209
关联	-10210
▁reform	-10211
▁driving	-10212
16.	-10213
与其他	-10214
解放	-10215
全世界	-10216
1.2	-10217
小镇	-10218
▁dataset	-10219
姓名	-10220
dy	-10221
▁Supp	-10222
等的	-10223
virtual	-10224
ROM	-10225
明天	-10226
一句	-10227
alog	-10228
▁platforms	-10229
几十	-10230
▁2)	-10231
alysis	-10232
AND	-10233
▁creative	-10234
号线	-10235
▁Stand	-10236
▁depending	-10237
▁Gree	-10238
竞技	-10239
信息的	-10240
ih	-10241
▁Text	-10242
kw	-10243
感兴趣	-10244
Sim	-10245
家电	-10246
携手	-10247
民生	-10248
全方位	-10249
男孩	-10250
化合物	-10251
▁Build	-10252
但我	-10253
冒险	-10254
门票	-10255
cknow	-10256
多人	-10257
▁trial	-10258
rome	-10259
▁Consider	-10260
排列	-10261
▁warrant	-10262
▁served	-10263
rie	-10264
篇文章	-10265
▁10,	-10266
▁Aff	-10267
这两个	-10268
▁Que	-10269
乐观	-10270
绘画	-10271
在全国	-10272
相当于	-10273
▁Lou	-10274
▁reb	-10275
，2018	-10276
基督	-10277
▁65	-10278
研讨	-10279
▁Association	-10280
要有	-10281
研制	-10282
uries	-10283
▁performed	-10284
意识到	-10285
举措	-10286
▁Given	-10287
境外	-10288
ested	-10289
▁survey	-10290
承受	-10291
遭遇	-10292
河南省	-10293
▁'	-10294
新能源汽车	-10295
时间和	-10296
▁Rev	-10297
bytes	-10298
Fl	-10299
桥梁	-10300
期望	-10301
自身的	-10302
聚焦	-10303
欧元	-10304
▁atom	-10305
▁Their	-10306
▁advanced	-10307
▁6、	-10308
一部分	-10309
▁photos	-10310
违规	-10311
▁illust	-10312
▁strings	-10313
开幕	-10314
▁本次	-10315
▁Secret	-10316
anging	-10317
▁plays	-10318
内外	-10319
▁dram	-10320
样子	-10321
▁Vis	-10322
▁weekend	-10323
世界杯	-10324
▁vehicle	-10325
TYPE	-10326
ilon	-10327
秉承	-10328
▁faster	-10329
司机	-10330
球迷	-10331
视野	-10332
▁Version	-10333
无需	-10334
▁advoc	-10335
分的	-10336
▁fuel	-10337
生产线	-10338
▁Miss	-10339
不动	-10340
mac	-10341
大家都	-10342
rapy	-10343
tab	-10344
云计算	-10345
子女	-10346
淘汰	-10347
▁月	-10348
词汇	-10349
FOR	-10350
▁ignore	-10351
数据集	-10352
8%	-10353
着力	-10354
配件	-10355
rig	-10356
金融机构	-10357
话题	-10358
▁constraint	-10359
▁limits	-10360
新建	-10361
ette	-10362
▁whom	-10363
▁academ	-10364
ribution	-10365
▁Java	-10366
▁installed	-10367
乐园	-10368
anguages	-10369
▁explained	-10370
Point	-10371
▁keeping	-10372
▁relatively	-10373
树脂	-10374
爱心	-10375
UD	-10376
传奇	-10377
录制	-10378
ua	-10379
继承	-10380
lig	-10381
▁attend	-10382
3]	-10383
▁这是	-10384
▁crisis	-10385
武器	-10386
▁England	-10387
▁matches	-10388
理财	-10389
▁1000	-10390
ACK	-10391
▁sports	-10392
CM	-10393
他是	-10394
常务	-10395
有效地	-10396
)=	-10397
化和	-10398
精度	-10399
▁none	-10400
具体的	-10401
▁identified	-10402
为例	-10403
▁smooth	-10404
▁officer	-10405
▁USA	-10406
gency	-10407
机组	-10408
微生物	-10409
amin	-10410
出现的	-10411
待遇	-10412
澳门	-10413
受伤	-10414
起重	-10415
担当	-10416
▁HTML	-10417
精力	-10418
不见	-10419
缴纳	-10420
NE	-10421
十七	-10422
▁<=	-10423
比赛中	-10424
人家	-10425
ume	-10426
▁font	-10427
fake	-10428
▁seemed	-10429
this	-10430
付出	-10431
女士	-10432
icago	-10433
留学	-10434
▁Sing	-10435
乘坐	-10436
odies	-10437
单一	-10438
节日	-10439
材料的	-10440
▁marker	-10441
▁neighbor	-10442
▁automatically	-10443
▁Prof	-10444
▁clients	-10445
▁limitations	-10446
部队	-10447
AV	-10448
▁react	-10449
▁zone	-10450
有时候	-10451
ployment	-10452
')])	-10453
ometric	-10454
▁Year	-10455
▁Sign	-10456
(-	-10457
大战	-10458
▁Plan	-10459
▁beat	-10460
的学习	-10461
▁Number	-10462
▁technical	-10463
地说	-10464
▁born	-10465
▁crime	-10466
▁operating	-10467
中小企业	-10468
边缘	-10469
align	-10470
口感	-10471
界面	-10472
处的	-10473
▁increases	-10474
为何	-10475
创立	-10476
▁insert	-10477
专注于	-10478
专业技术	-10479
▁Tre	-10480
开了	-10481
的作品	-10482
▁creation	-10483
的通知	-10484
▁commands	-10485
）；	-10486
ao	-10487
可在	-10488
组建	-10489
▁faith	-10490
▁scal	-10491
南部	-10492
瞬间	-10493
▁Ul	-10494
的风险	-10495
▁0.5	-10496
聚氨	-10497
sed	-10498
出版社	-10499
罚款	-10500
许可证	-10501
▁inputs	-10502
adow	-10503
▁specifically	-10504
2022	-10505
▁dry	-10506
极端	-10507
扩张	-10508
公众号	-10509
▁usage	-10510
▁Before	-10511
▁Florida	-10512
------------------------	-10513
(1)	-10514
▁die	-10515
需要的	-10516
▁Sil	-10517
▁她	-10518
▁wood	-10519
cluded	-10520
"。	-10521
瑜伽	-10522
除此	-10523
▁complic	-10524
forcement	-10525
慈善	-10526
timeout	-10527
Pol	-10528
Module	-10529
)]	-10530
bi	-10531
creen	-10532
PG	-10533
一带一路	-10534
交通运输	-10535
▁####	-10536
小心	-10537
","	-10538
了一些	-10539
PRO	-10540
handle	-10541
▁attr	-10542
▁Bas	-10543
SM	-10544
转载	-10545
gent	-10546
▁confidence	-10547
诞生	-10548
->	-10549
立足	-10550
我要	-10551
▁phil	-10552
▁Finally	-10553
▁waiting	-10554
书面	-10555
在大	-10556
▁Brown	-10557
联邦	-10558
iveness	-10559
为人	-10560
并未	-10561
忘记	-10562
豪华	-10563
组成的	-10564
▁'__	-10565
ificate	-10566
▁EX	-10567
认为是	-10568
借助	-10569
完整的	-10570
▁Johns	-10571
▁tro	-10572
▁tit	-10573
infty	-10574
孤独	-10575
深圳市	-10576
chain	-10577
附件	-10578
语文	-10579
▁female	-10580
▁negot	-10581
fill	-10582
可能需要	-10583
▁unknown	-10584
▁versions	-10585
▁explan	-10586
评分	-10587
阿拉	-10588
更高的	-10589
水中	-10590
▁Sal	-10591
inv	-10592
，4	-10593
▁hydro	-10594
▁此	-10595
二次	-10596
民国	-10597
防范	-10598
▁Hy	-10599
▁incident	-10600
▁:	-10601
▁sounds	-10602
7%	-10603
步行	-10604
▁今天	-10605
▁ran	-10606
▁integral	-10607
▁sty	-10608
传媒	-10609
▁minim	-10610
厦门	-10611
Device	-10612
取决	-10613
在一	-10614
大学的	-10615
ingly	-10616
中药	-10617
少的	-10618
有力	-10619
oration	-10620
治愈	-10621
连锁	-10622
▁0)	-10623
▁Review	-10624
乃至	-10625
加密	-10626
▁belong	-10627
▁supports	-10628
▁hasattr	-10629
NO	-10630
路径	-10631
▁WH	-10632
▁grid	-10633
科目	-10634
▁scope	-10635
结束后	-10636
不易	-10637
▁offering	-10638
▁framework	-10639
▁delay	-10640
▁positions	-10641
自觉	-10642
源于	-10643
疼痛	-10644
tf	-10645
叫做	-10646
▁church	-10647
▁tab	-10648
▁leads	-10649
▁container	-10650
▁ille	-10651
LL	-10652
outs	-10653
eting	-10654
在校	-10655
教育的	-10656
▁Table	-10657
icensed	-10658
▁ring	-10659
elines	-10660
1]	-10661
ean	-10662
▁executive	-10663
登录	-10664
▁crim	-10665
ferent	-10666
▁plt	-10667
oreignKey	-10668
▁'_	-10669
职称	-10670
▁combined	-10671
三星	-10672
Dis	-10673
▁(@	-10674
招商	-10675
暂时	-10676
▁Where	-10677
条件下	-10678
流通	-10679
发布了	-10680
entials	-10681
▁seeking	-10682
周末	-10683
▁debt	-10684
cean	-10685
▁原	-10686
eah	-10687
携带	-10688
最具	-10689
饭店	-10690
▁instr	-10691
comes	-10692
▁architect	-10693
侵权	-10694
ithub	-10695
取决于	-10696
▁ideal	-10697
号码	-10698
心灵	-10699
vec	-10700
Widget	-10701
初期	-10702
年开始	-10703
▁solar	-10704
▁unicode	-10705
▁yes	-10706
outhern	-10707
说是	-10708
▁Which	-10709
既然	-10710
▁flat	-10711
▁Franc	-10712
合理的	-10713
▁temp	-10714
受益	-10715
将成为	-10716
."""	-10717
年级	-10718
unit	-10719
Factory	-10720
干扰	-10721
-11	-10722
劳动合同	-10723
_(	-10724
说了	-10725
▁mail	-10726
出色	-10727
古老	-10728
废气	-10729
扶持	-10730
广阔	-10731
▁joint	-10732
▁Gen	-10733
渗透	-10734
serial	-10735
▁debug	-10736
的光	-10737
投诉	-10738
▁league	-10739
▁managed	-10740
庆祝	-10741
BU	-10742
上班	-10743
节点	-10744
建材	-10745
爆炸	-10746
oves	-10747
amily	-10748
▁rapid	-10749
register	-10750
选举	-10751
等方式	-10752
聚氨酯	-10753
▁respectively	-10754
IE	-10755
tmp	-10756
apped	-10757
ln	-10758
Ent	-10759
一大	-10760
入口	-10761
采集	-10762
科学技术	-10763
火箭	-10764
itche	-10765
DC	-10766
help	-10767
▁leadership	-10768
其余	-10769
分散	-10770
[-1	-10771
日晚	-10772
绿化	-10773
职务	-10774
unc	-10775
▁involves	-10776
远远	-10777
▁decide	-10778
▁compare	-10779
▁excellent	-10780
Ns	-10781
较大的	-10782
flags	-10783
▁Author	-10784
上线	-10785
▁structures	-10786
本土	-10787
农产品	-10788
制造商	-10789
support	-10790
▁Down	-10791
▁candidates	-10792
荷兰	-10793
ums	-10794
ether	-10795
▁covered	-10796
||	-10797
面包	-10798
建筑面积	-10799
▁shell	-10800
▁Western	-10801
▁helpful	-10802
创始人	-10803
▁weapons	-10804
▁Vol	-10805
复制	-10806
idation	-10807
▁relation	-10808
人事	-10809
▁300	-10810
法律法规	-10811
icial	-10812
Image	-10813
经销	-10814
offset	-10815
判决	-10816
oses	-10817
▁emphas	-10818
污染物	-10819
oute	-10820
▁writer	-10821
电缆	-10822
走了	-10823
····	-10824
▁Sol	-10825
▁cycle	-10826
▁involve	-10827
在全球	-10828
火灾	-10829
▁Rock	-10830
▁completed	-10831
内蒙古	-10832
有望	-10833
纪律	-10834
清华	-10835
菩萨	-10836
edy	-10837
劳动者	-10838
▁aspects	-10839
▁discovered	-10840
)。	-10841
▁algebra	-10842
▁familiar	-10843
三十	-10844
企业和	-10845
能力的	-10846
▁Those	-10847
▁prompt	-10848
symbol	-10849
zy	-10850
▁Wall	-10851
▁tells	-10852
这时	-10853
限于	-10854
▁scheme	-10855
验收	-10856
重组	-10857
thread	-10858
」，	-10859
公斤	-10860
渐渐	-10861
".	-10862
▁accel	-10863
▁paths	-10864
▁describe	-10865
▁profession	-10866
▁这些	-10867
竟然	-10868
full	-10869
▁helping	-10870
▁committed	-10871
▁weather	-10872
信仰	-10873
看法	-10874
超市	-10875
不论	-10876
若干	-10877
的食物	-10878
▁risks	-10879
京东	-10880
替换	-10881
防水	-10882
▁clin	-10883
▁stars	-10884
ceptions	-10885
▁prepared	-10886
▁highlight	-10887
通报	-10888
的特点	-10889
平稳	-10890
▁fashion	-10891
▁Engine	-10892
▁Hall	-10893
用了	-10894
吃饭	-10895
污泥	-10896
▁为什么	-10897
TS	-10898
▁degrees	-10899
▁conversation	-10900
并对	-10901
▁authors	-10902
▁Di	-10903
▁Game	-10904
▁twice	-10905
▁Church	-10906
也不是	-10907
管理和	-10908
行驶	-10909
PH	-10910
▁applicable	-10911
Service	-10912
produ	-10913
▁instruct	-10914
公寓	-10915
写的	-10916
▁remark	-10917
esh	-10918
等多种	-10919
lers	-10920
▁compliance	-10921
▁responsibility	-10922
水平的	-10923
损伤	-10924
▁EU	-10925
▁SO	-10926
列入	-10927
开发区	-10928
组成部分	-10929
▁OS	-10930
▁...	-10931
▁massive	-10932
ingu	-10933
▁auto	-10934
▁incred	-10935
mo	-10936
ummy	-10937
50%	-10938
▁entirely	-10939
经济学	-10940
Content	-10941
▁cas	-10942
。(	-10943
▁Mill	-10944
深受	-10945
又是	-10946
▁McC	-10947
，2020	-10948
国王	-10949
▁interpret	-10950
齐全	-10951
体积	-10952
害怕	-10953
找到了	-10954
▁cold	-10955
What	-10956
济南	-10957
(),	-10958
▁|	-10959
rive	-10960
ushed	-10961
▁estimate	-10962
lat	-10963
mut	-10964
▁dollars	-10965
prec	-10966
CK	-10967
院士	-10968
▁apps	-10969
errors	-10970
eq	-10971
厨房	-10972
算是	-10973
▁rough	-10974
▁suggested	-10975
北部	-10976
▁criminal	-10977
________________	-10978
▁accounts	-10979
▁vary	-10980
一生	-10981
蓝色	-10982
inding	-10983
▁programming	-10984
2:	-10985
业的	-10986
▁关于	-10987
▁View	-10988
体内	-10989
▁Fil	-10990
如有	-10991
决心	-10992
率先	-10993
▁inde	-10994
▁perspective	-10995
夫妻	-10996
银屑病	-10997
▁alleged	-10998
▁luck	-10999
▁blocks	-11000
cert	-11001
Input	-11002
▁consequ	-11003
隧道	-11004
预订	-11005
▁PRO	-11006
▁finish	-11007
mal	-11008
不出	-11009
▁vir	-11010
蛋糕	-11011
life	-11012
▁Ann	-11013
compute	-11014
属性	-11015
▁batter	-11016
temp	-11017
▁ment	-11018
新时代	-11019
uable	-11020
icians	-11021
▁Field	-11022
▁route	-11023
马来	-11024
生态系统	-11025
液体	-11026
exc	-11027
alaxy	-11028
uated	-11029
电站	-11030
你需要	-11031
”）	-11032
管理的	-11033
mathcal	-11034
▁properly	-11035
▁considering	-11036
但他	-11037
创办	-11038
姆斯	-11039
▁award	-11040
▁district	-11041
Of	-11042
工作者	-11043
blem	-11044
生活方式	-11045
iples	-11046
生理	-11047
以确保	-11048
▁Jes	-11049
导体	-11050
在国内	-11051
▁Aut	-11052
▁finite	-11053
人员的	-11054
十大	-11055
解除	-11056
记住	-11057
"):	-11058
▁Frank	-11059
ENSE	-11060
焊接	-11061
road	-11062
废物	-11063
开通	-11064
▁occup	-11065
include	-11066
scope	-11067
等相关	-11068
▁Oper	-11069
▁Chicago	-11070
▁estimated	-11071
航班	-11072
的主题	-11073
night	-11074
▁west	-11075
▁Point	-11076
Bo	-11077
的项目	-11078
▁acknow	-11079
▁gar	-11080
诗歌	-11081
页第	-11082
频繁	-11083
ASS	-11084
值得一	-11085
tensor	-11086
▁Despite	-11087
▁behavi	-11088
奖项	-11089
日内	-11090
cut	-11091
题目	-11092
将继续	-11093
▁putting	-11094
了一种	-11095
▁guide	-11096
▁stated	-11097
cons	-11098
考古	-11099
贯彻落实	-11100
你要	-11101
储存	-11102
可再生	-11103
过去的	-11104
▁residents	-11105
电压	-11106
▁Who	-11107
present	-11108
CN	-11109
讲座	-11110
主导	-11111
分别是	-11112
▁(1)	-11113
班级	-11114
car	-11115
的手	-11116
ega	-11117
▁utf	-11118
ivery	-11119
▁Vir	-11120
-15	-11121
发现了	-11122
unique	-11123
▁contrast	-11124
▁technologies	-11125
宠物	-11126
▁2004	-11127
▁atmosp	-11128
戏剧	-11129
约定	-11130
其中包括	-11131
通风	-11132
)]	-11133
▁coff	-11134
▁Have	-11135
人均	-11136
dep	-11137
▁Fire	-11138
博览	-11139
印发	-11140
分公司	-11141
▁funds	-11142
固体	-11143
▁Wil	-11144
BM	-11145
库存	-11146
GET	-11147
`	-11148
早已	-11149
abil	-11150
温馨	-11151
经济社会	-11152
优异	-11153
编码	-11154
▁implemented	-11155
军队	-11156
，8	-11157
▁Peter	-11158
idx	-11159
▁[]	-11160
Context	-11161
▁Democrats	-11162
》。	-11163
前期	-11164
得分	-11165
年以来	-11166
▁Educ	-11167
当下	-11168
你在	-11169
rat	-11170
anta	-11171
▁winning	-11172
▁TOD	-11173
▁ok	-11174
经历了	-11175
▁listen	-11176
全身	-11177
或其他	-11178
▁fraction	-11179
▁Lat	-11180
快速发展	-11181
_3	-11182
▁san	-11183
▁近年来	-11184
信息技术	-11185
ICE	-11186
引起的	-11187
经济的	-11188
quare	-11189
▁comfortable	-11190
?"	-11191
变暖	-11192
▁menu	-11193
▁patch	-11194
▁holding	-11195
▁homes	-11196
variable	-11197
年在	-11198
HS	-11199
lan	-11200
VC	-11201
▁statements	-11202
忽视	-11203
vate	-11204
储备	-11205
原子	-11206
灵魂	-11207
orthern	-11208
有关规定	-11209
钢琴	-11210
是很	-11211
One	-11212
▁sale	-11213
WS	-11214
辉煌	-11215
even	-11216
parameters	-11217
VID	-11218
driver	-11219
▁'--	-11220
品牌的	-11221
▁colors	-11222
白癜风患者	-11223
▁emotional	-11224
河流	-11225
系数	-11226
2]	-11227
iest	-11228
▁pure	-11229
▁Africa	-11230
人心	-11231
▁noise	-11232
▁socket	-11233
电流	-11234
北方	-11235
clear	-11236
▁Its	-11237
▁connections	-11238
▁holds	-11239
作文	-11240
这句话	-11241
▁regions	-11242
全程	-11243
进度	-11244
▁believed	-11245
▁expensive	-11246
han	-11247
保养	-11248
港口	-11249
当事人	-11250
Rec	-11251
▁corner	-11252
▁intended	-11253
▁percentage	-11254
▁turns	-11255
局面	-11256
询问	-11257
insert	-11258
相机	-11259
ACT	-11260
▁expressed	-11261
▁国家	-11262
Google	-11263
UE	-11264
有一些	-11265
天然气	-11266
▁Ext	-11267
▁possibly	-11268
下来的	-11269
▁planet	-11270
4%	-11271
留在	-11272
gence	-11273
水质	-11274
序列	-11275
20.	-11276
uler	-11277
itors	-11278
INE	-11279
▁van	-11280
▁velocity	-11281
心态	-11282
纠纷	-11283
那就是	-11284
小米	-11285
17.	-11286
▁apart	-11287
Manager	-11288
日电	-11289
▁vill	-11290
集团有限公司	-11291
:\	-11292
两大	-11293
Table	-11294
▁rent	-11295
假期	-11296
可达	-11297
深深	-11298
▁9,	-11299
自动驾驶	-11300
▁Main	-11301
▁potentially	-11302
出售	-11303
▁Thomas	-11304
▁dimension	-11305
▁export	-11306
▁experienced	-11307
di	-11308
立法	-11309
▁gender	-11310
单纯	-11311
Wh	-11312
▁beliefs	-11313
▁figures	-11314
改编	-11315
clean	-11316
▁quad	-11317
▁Series	-11318
机动	-11319
冠状	-11320
恐怖	-11321
▁Mad	-11322
▁据了解	-11323
机床	-11324
你是	-11325
无意	-11326
▁branch	-11327
”；	-11328
讲话	-11329
handler	-11330
▁Amazon	-11331
用电	-11332
前面	-11333
conn	-11334
▁Color	-11335
km	-11336
anda	-11337
▁fav	-11338
▁stored	-11339
ICENSE	-11340
告知	-11341
anges	-11342
elled	-11343
▁enem	-11344
我和	-11345
▁36	-11346
orry	-11347
▁Non	-11348
▁destroy	-11349
成人	-11350
▁sch	-11351
▁sharing	-11352
商店	-11353
初中	-11354
首都	-11355
1.1	-11356
防火	-11357
▁Mike	-11358
▁disk	-11359
勇气	-11360
▁cry	-11361
车间	-11362
▁thoughts	-11363
ki	-11364
edge	-11365
methods	-11366
▁ship	-11367
祖国	-11368
osoph	-11369
▁ordered	-11370
▁authorities	-11371
▁#####	-11372
▁watching	-11373
▁Media	-11374
▁experts	-11375
列车	-11376
却是	-11377
eper	-11378
有限责任	-11379
方程	-11380
annot	-11381
2%	-11382
你能	-11383
物种	-11384
▁permissions	-11385
职能	-11386
▁然后	-11387
▁utils	-11388
的所有	-11389
itial	-11390
▁provider	-11391
看待	-11392
▁cluster	-11393
定了	-11394
友好	-11395
cn	-11396
WAR	-11397
azy	-11398
并提供	-11399
9%	-11400
game	-11401
struct	-11402
▁glass	-11403
▁south	-11404
里斯	-11405
除此之外	-11406
)/	-11407
▁distinct	-11408
广泛应用于	-11409
▁Moreover	-11410
至关	-11411
imb	-11412
▁fighting	-11413
大厦	-11414
Frame	-11415
(?	-11416
的公司	-11417
▁doubt	-11418
▁SE	-11419
▁tor	-11420
▁Code	-11421
均为	-11422
They	-11423
claim	-11424
▁ops	-11425
▁challenging	-11426
▁可	-11427
在内的	-11428
▁presidential	-11429
应聘	-11430
logger	-11431
有许多	-11432
让他们	-11433
交叉	-11434
微软	-11435
bool	-11436
achine	-11437
▁Ansible	-11438
UM	-11439
▁Home	-11440
obby	-11441
▁charged	-11442
的就是	-11443
SO	-11444
聪明	-11445
▁Team	-11446
Fe	-11447
arp	-11448
▁doi	-11449
▁Arab	-11450
▁Contin	-11451
携程	-11452
基金会	-11453
record	-11454
聊天	-11455
rev	-11456
▁wire	-11457
▁WARRANTIES	-11458
所谓的	-11459
▁affected	-11460
▁callback	-11461
首批	-11462
▁1/	-11463
▁claimed	-11464
▁Government	-11465
▁Best	-11466
▁improved	-11467
▁chosen	-11468
3	-11469
▁0:	-11470
▁chart	-11471
IX	-11472
wd	-11473
商家	-11474
▁Try	-11475
▁sustainable	-11476
与其	-11477
▁fre	-11478
▁department	-11479
花费	-11480
轴承	-11481
没有任何	-11482
▁concerned	-11483
dig	-11484
交易所	-11485
▁conven	-11486
▁justice	-11487
▁numerous	-11488
是一位	-11489
》(	-11490
▁Mass	-11491
这首	-11492
麻烦	-11493
▁schedule	-11494
下一	-11495
未能	-11496
▁revealed	-11497
中心的	-11498
▁fol	-11499
正面	-11500
▁grav	-11501
▁ultimately	-11502
和文化	-11503
roller	-11504
▁reducing	-11505
unte	-11506
中山	-11507
会对	-11508
怀疑	-11509
▁Prov	-11510
▁videos	-11511
上映	-11512
一个月	-11513
▁efficiency	-11514
▁metal	-11515
▁transl	-11516
立方	-11517
精确	-11518
▁relax	-11519
ja	-11520
TA	-11521
丈夫	-11522
的老	-11523
不断地	-11524
umin	-11525
▁Mean	-11526
报警	-11527
▁Sl	-11528
▁人	-11529
倾向	-11530
加重	-11531
用车	-11532
▁wear	-11533
Default	-11534
▁radius	-11535
频道	-11536
容器	-11537
▁据悉	-11538
有一定的	-11539
还没	-11540
▁scientists	-11541
公务员	-11542
▁prepar	-11543
了我	-11544
某某	-11545
Map	-11546
的国家	-11547
探测	-11548
▁kick	-11549
早在	-11550
rot	-11551
▁closer	-11552
好评	-11553
每月	-11554
friend	-11555
▁north	-11556
Build	-11557
▁appoint	-11558
▁Bi	-11559
site	-11560
▁worse	-11561
凝聚	-11562
局部	-11563
美观	-11564
面上	-11565
▁weights	-11566
概率	-11567
bor	-11568
年至	-11569
poses	-11570
又有	-11571
3\	-11572
ulner	-11573
▁uniform	-11574
▁adopt	-11575
▁trace	-11576
▁buffer	-11577
property	-11578
▁Johnson	-11579
Parser	-11580
public	-11581
▁listed	-11582
▁tables	-11583
出一	-11584
起点	-11585
▁tags	-11586
.*	-11587
型号	-11588
▁AS	-11589
▁Arch	-11590
穿着	-11591
火车	-11592
▁shooting	-11593
ForeignKey	-11594
万辆	-11595
变形	-11596
市区	-11597
生意	-11598
黑暗	-11599
科幻	-11600
为大家	-11601
▁人工智能	-11602
▁Rights	-11603
▁五	-11604
安全的	-11605
▁humans	-11606
投票	-11607
▁lawy	-11608
▁waste	-11609
▁suggests	-11610
附属	-11611
的文化	-11612
Tem	-11613
的表现	-11614
长城	-11615
▁tun	-11616
赚钱	-11617
ocument	-11618
ohn	-11619
PD	-11620
一度	-11621
Ref	-11622
下一步	-11623
▁plants	-11624
▁instances	-11625
是从	-11626
1998	-11627
▁confirmed	-11628
副书记	-11629
监察	-11630
▁acid	-11631
▁chair	-11632
气氛	-11633
见到	-11634
懂得	-11635
▁wealth	-11636
中等	-11637
总量	-11638
改为	-11639
▁contents	-11640
捐赠	-11641
给出	-11642
▁Ins	-11643
润滑	-11644
▁第四	-11645
▁Serv	-11646
%(	-11647
一开始	-11648
sample	-11649
▁causes	-11650
ned	-11651
去除	-11652
统治	-11653
KEY	-11654
生日	-11655
充满了	-11656
参展	-11657
进出口	-11658
▁Martin	-11659
▁"""	-11660
这家	-11661
▁Option	-11662
未经	-11663
男女	-11664
▁%(	-11665
缺陷	-11666
边的	-11667
ett	-11668
▁Next	-11669
contrib	-11670
▁animal	-11671
一人	-11672
grid	-11673
散热	-11674
南北	-11675
18.	-11676
▁Lab	-11677
发生的	-11678
活动中	-11679
▁conclusion	-11680
登陆	-11681
▁compre	-11682
+2	-11683
特定的	-11684
HTTP	-11685
control	-11686
▁天	-11687
在北京	-11688
▁articles	-11689
icine	-11690
扎实	-11691
将来	-11692
机电	-11693
▁pp	-11694
▁proceed	-11695
历程	-11696
uty	-11697
▁fourth	-11698
▁honest	-11699
▁vision	-11700
▁rows	-11701
不大	-11702
警方	-11703
产值	-11704
▁cm	-11705
usr	-11706
解读	-11707
遗址	-11708
环比	-11709
管理办法	-11710
子里	-11711
感恩	-11712
▁(1	-11713
的目的	-11714
茶叶	-11715
▁Mary	-11716
▁mere	-11717
▁African	-11718
▁disable	-11719
态势	-11720
sembly	-11721
▁Child	-11722
▁Energy	-11723
为主题	-11724
头的	-11725
rr	-11726
channel	-11727
▁shock	-11728
=['	-11729
越来越多的	-11730
▁Space	-11731
▁exhib	-11732
▁horiz	-11733
▁Company	-11734
层的	-11735
▁indeed	-11736
从未	-11737
▁fab	-11738
sigma	-11739
级别	-11740
▁boost	-11741
▁worry	-11742
▁instant	-11743
性别	-11744
stats	-11745
来讲	-11746
，9	-11747
addr	-11748
Output	-11749
排除	-11750
要在	-11751
▁substant	-11752
▁Spec	-11753
▁Example	-11754
▁sufficient	-11755
旋转	-11756
gers	-11757
ceived	-11758
-01	-11759
中医药	-11760
eries	-11761
外界	-11762
可能的	-11763
fast	-11764
当今	-11765
▁thank	-11766
简历	-11767
振兴	-11768
▁vac	-11769
istent	-11770
▁proport	-11771
▁2:	-11772
▁announce	-11773
不敢	-11774
昆明	-11775
So	-11776
全民	-11777
最新的	-11778
▁renew	-11779
▁theorem	-11780
▁detailed	-11781
▁resistance	-11782
今年的	-11783
exit	-11784
).__	-11785
▁alt	-11786
打算	-11787
名词	-11788
防疫	-11789
▁Atl	-11790
▁phen	-11791
伟大	-11792
的天	-11793
▁总之	-11794
的一切	-11795
▁Jose	-11796
前进	-11797
▁sector	-11798
▁Jun	-11799
anged	-11800
▁tail	-11801
height	-11802
Instance	-11803
▁ends	-11804
实际情况	-11805
私人	-11806
▁lots	-11807
▁filled	-11808
变量	-11809
ading	-11810
▁Whether	-11811
▁markets	-11812
▁accurate	-11813
物体	-11814
班主任	-11815
这场	-11816
GDP	-11817
hetic	-11818
乘客	-11819
龙江	-11820
▁episode	-11821
支援	-11822
一次性	-11823
▁、	-11824
ROR	-11825
▁flu	-11826
▁segment	-11827
誉为	-11828
▁fant	-11829
▁liqu	-11830
document	-11831
azine	-11832
▁hero	-11833
▁Expl	-11834
criptor	-11835
ifest	-11836
ponents	-11837
▁artists	-11838
tags	-11839
▁navig	-11840
▁mo	-11841
毫无	-11842
Page	-11843
report	-11844
▁expansion	-11845
广泛的	-11846
▁nine	-11847
ifferent	-11848
▁revenue	-11849
我认为	-11850
管理局	-11851
oston	-11852
主张	-11853
古典	-11854
给他	-11855
▁PART	-11856
▁Carol	-11857
▁comparison	-11858
▁supporting	-11859
知的	-11860
▁Real	-11861
业界	-11862
▁nom	-11863
不及	-11864
进球	-11865
asp	-11866
}}\	-11867
▁inner	-11868
第二次	-11869
sequence	-11870
▁targets	-11871
Be	-11872
要求的	-11873
▁journey	-11874
催化	-11875
监会	-11876
▁::	-11877
一定会	-11878
秘书长	-11879
▁extended	-11880
前后	-11881
▁flags	-11882
▁television	-11883
工会	-11884
排水	-11885
)),	-11886
▁recip	-11887
人与	-11888
前来	-11889
有机会	-11890
widget	-11891
(['	-11892
track	-11893
▁millions	-11894
▁contribute	-11895
▁sql	-11896
▁feels	-11897
▁tensorflow	-11898
之际	-11899
draw	-11900
▁Syria	-11901
classes	-11902
集团公司	-11903
▁warning	-11904
的态度	-11905
vars	-11906
operation	-11907
▁developers	-11908
▁Information	-11909
门口	-11910
diff	-11911
%%	-11912
一行	-11913
公正	-11914
▁Bal	-11915
callback	-11916
姑娘	-11917
考研	-11918
160	-11919
赢得了	-11920
▁Central	-11921
即便	-11922
等方面的	-11923
▁Mont	-11924
▁craft	-11925
的支持	-11926
▁widget	-11927
▁privacy	-11928
rons	-11929
▁Chris	-11930
▁elimin	-11931
弹性	-11932
▁Tel	-11933
与此同时	-11934
extend	-11935
▁injury	-11936
一款	-11937
▁swe	-11938
Action	-11939
客运	-11940
举报	-11941
▁".	-11942
大桥	-11943
setup	-11944
1%	-11945
▁breath	-11946
2/	-11947
珍惜	-11948
▁sq	-11949
▁upload	-11950
祝福	-11951
这座	-11952
▁尽管	-11953
的位置	-11954
▁male	-11955
▁minute	-11956
▁stret	-11957
Web	-11958
▁drugs	-11959
精细	-11960
▁alpha	-11961
At	-11962
▁desired	-11963
负债	-11964
agram	-11965
不忘	-11966
均衡	-11967
封闭	-11968
我市	-11969
题材	-11970
▁enumer	-11971
3.5	-11972
▁broken	-11973
防腐	-11974
▁hyper	-11975
Source	-11976
两者	-11977
▁hus	-11978
加油	-11979
功夫	-11980
会导致	-11981
▁summary	-11982
img	-11983
▁Richard	-11984
▁locations	-11985
运营商	-11986
熟练	-11987
及相关	-11988
更容易	-11989
以免	-11990
价比	-11991
▁signs	-11992
▁hundreds	-11993
mg	-11994
ttp	-11995
差不多	-11996
繁荣	-11997
萝卜	-11998
实地	-11999
▁invalid	-12000
数控	-12001
DIR	-12002
1500	-12003
▁Business	-12004
个人的	-12005
▁400	-12006
变动	-12007
，”	-12008
DI	-12009
▁Android	-12010
-7	-12011
▁Camp	-12012
▁witness	-12013
rovers	-12014
▁forget	-12015
高兴	-12016
dated	-12017
▁infrast	-12018
场上	-12019
▁payment	-12020
kin	-12021
▁Bush	-12022
▁Stat	-12023
为基础	-12024
乡镇	-12025
绩效	-12026
月至	-12027
受到了	-12028
entity	-12029
▁famous	-12030
LC	-12031
▁panel	-12032
▁recall	-12033
▁username	-12034
骨干	-12035
吸附	-12036
认同	-12037
NESS	-12038
▁lists	-12039
热量	-12040
▁girls	-12041
给人	-12042
顶级	-12043
进去	-12044
不断的	-12045
笔试	-12046
Fil	-12047
interface	-12048
▁blank	-12049
▁permission	-12050
从此	-12051
样本	-12052
▁Cr	-12053
▁evolution	-12054
primary	-12055
扩散	-12056
有限责任公司	-12057
也被	-12058
▁speaking	-12059
▁Person	-12060
▁hearing	-12061
党建	-12062
arden	-12063
▁issued	-12064
将军	-12065
auto	-12066
▁Den	-12067
▁syn	-12068
吸引了	-12069
▁treated	-12070
ricult	-12071
水分	-12072
让自己	-12073
inations	-12074
ishes	-12075
▁leaves	-12076
1\	-12077
▁SU	-12078
stdout	-12079
▁Design	-12080
▁carried	-12081
▁dynamic	-12082
lik	-12083
ura	-12084
llib	-12085
▁Enter	-12086
▁historical	-12087
▁increasingly	-12088
生命的	-12089
数据分析	-12090
激素	-12091
再加上	-12092
wait	-12093
久的	-12094
含义	-12095
丙烯	-12096
附加	-12097
▁consumers	-12098
玩具	-12099
kins	-12100
security	-12101
承办	-12102
▁situations	-12103
▁fundamental	-12104
目的是	-12105
▁Ret	-12106
▁Orig	-12107
▁64	-12108
圆形	-12109
售后服务	-12110
▁entity	-12111
个性化	-12112
agon	-12113
▁coal	-12114
变成了	-12115
▁Jeff	-12116
"，	-12117
气息	-12118
火星	-12119
She	-12120
▁mapping	-12121
▁passing	-12122
ita	-12123
不错的	-12124
▁Gar	-12125
转型升级	-12126
particle	-12127
scape	-12128
的风	-12129
董事会	-12130
▁magn	-12131
ographic	-12132
比重	-12133
的部分	-12134
跑步	-12135
综合性	-12136
▁Jud	-12137
itz	-12138
']:	-12139
▁excited	-12140
白酒	-12141
万亿元	-12142
▁represented	-12143
▁Long	-12144
fra	-12145
财政部	-12146
▁Default	-12147
表彰	-12148
iration	-12149
▁daughter	-12150
▁marriage	-12151
占有	-12152
耐心	-12153
里程	-12154
▁languages	-12155
▁opposite	-12156
erate	-12157
事物	-12158
19.	-12159
Bl	-12160
疲劳	-12161
转向	-12162
▁rect	-12163
可再生能源	-12164
▁strict	-12165
▁cart	-12166
巴巴	-12167
精密	-12168
发展和	-12169
▁2003	-12170
但不	-12171
平等	-12172
▁embed	-12173
login	-12174
▁consumer	-12175
神奇	-12176
▁opinions	-12177
▁calculated	-12178
准则	-12179
苏联	-12180
▁Keep	-12181
buffer	-12182
assertEquals	-12183
▁就	-12184
亲自	-12185
传达	-12186
同年	-12187
▁AD	-12188
半导体	-12189
什么是	-12190
▁HTTP	-12191
▁gover	-12192
▁Jim	-12193
▁subt	-12194
▁suspect	-12195
▁discover	-12196
享有	-12197
():	-12198
最后一	-12199
IGHT	-12200
座谈	-12201
▁formed	-12202
▁joined	-12203
▁existence	-12204
注明	-12205
▁Cy	-12206
istical	-12207
van	-12208
给我们	-12209
▁Jones	-12210
▁regul	-12211
信念	-12212
Implement	-12213
▁accepted	-12214
.’	-12215
数十	-12216
eno	-12217
建筑物	-12218
后者	-12219
并于	-12220
Dec	-12221
▁根据给定的	-12222
gt	-12223
多名	-12224
sts	-12225
安全性	-12226
▁Organ	-12227
口味	-12228
注意的是	-12229
击败	-12230
▁ath	-12231
▁Life	-12232
作物	-12233
啤酒	-12234
relation	-12235
▁entries	-12236
代替	-12237
▁Po	-12238
。2019	-12239
和高	-12240
器械	-12241
▁icon	-12242
Fi	-12243
月初	-12244
见证	-12245
ova	-12246
千瓦	-12247
复工	-12248
落后	-12249
▁文本	-12250
相同的	-12251
google	-12252
政府网	-12253
olumns	-12254
quad	-12255
极为	-12256
isting	-12257
气的	-12258
▁Los	-12259
之地	-12260
从中	-12261
▁Bu	-12262
that	-12263
当你	-12264
票房	-12265
▁impossible	-12266
别人的	-12267
退出	-12268
norm	-12269
▁Nor	-12270
▁frag	-12271
到位	-12272
▁Human	-12273
▁Watch	-12274
▁Mur	-12275
▁handler	-12276
pu	-12277
▁defend	-12278
的游戏	-12279
转化为	-12280
视角	-12281
的大型	-12282
LECT	-12283
的全	-12284
入学	-12285
不停	-12286
星球	-12287
▁说	-12288
余额	-12289
战胜	-12290
国际化	-12291
▁namespace	-12292
tz	-12293
力学	-12294
史上	-12295
塑造	-12296
空中	-12297
▁FIT	-12298
▁Unless	-12299
▁coffee	-12300
方针	-12301
plication	-12302
之日起	-12303
▁gather	-12304
易于	-12305
▁Div	-12306
icted	-12307
▁Econom	-12308
给定	-12309
▁posts	-12310
5)	-12311
时间为	-12312
▁(2)	-12313
VR	-12314
big	-12315
▁spin	-12316
▁confirm	-12317
Iter	-12318
▁oppon	-12319
children	-12320
ctx	-12321
ials	-12322
不受	-12323
的多	-12324
较强的	-12325
Read	-12326
-%	-12327
这将	-12328
ULAR	-12329
科普	-12330
Don	-12331
zero	-12332
▁MER	-12333
▁给定一个	-12334
▁purposes	-12335
修正	-12336
▁NO	-12337
▁记者	-12338
Callback	-12339
动漫	-12340
条款	-12341
养生	-12342
如同	-12343
执业	-12344
▁accompl	-12345
▁entertain	-12346
勇敢	-12347
星级	-12348
▁Canadian	-12349
一同	-12350
▁Qt	-12351
▁gaming	-12352
泡沫	-12353
瑞士	-12354
").	-12355
DIT	-12356
▁baby	-12357
decode	-12358
▁eigen	-12359
4、	-12360
低温	-12361
▁loved	-12362
可谓	-12363
▁Does	-12364
▁CH	-12365
▁measured	-12366
▁dangerous	-12367
知乎	-12368
并为	-12369
ighter	-12370
▁reduction	-12371
第七	-12372
的有	-12373
]+	-12374
CONF	-12375
▁dress	-12376
我们应该	-12377
▁diet	-12378
年间	-12379
▁possibility	-12380
接口	-12381
防守	-12382
sid	-12383
GE	-12384
▁其中	-12385
马来西亚	-12386
▁confident	-12387
▁discussed	-12388
文档	-12389
窗口	-12390
▁hack	-12391
▁caught	-12392
养成	-12393
致的	-12394
！”	-12395
Mock	-12396
▁retail	-12397
▁infrastructure	-12398
女生	-12399
为核心	-12400
▁accuracy	-12401
▁Ok	-12402
rices	-12403
▁Apache	-12404
ato	-12405
它可以	-12406
▁Club	-12407
▁arbit	-12408
▁Li	-12409
dx	-12410
▁Society	-12411
▁occurred	-12412
▁capable	-12413
isc	-12414
after	-12415
▁Maybe	-12416
批发	-12417
接到	-12418
anch	-12419
对抗	-12420
ASA	-12421
学习的	-12422
▁largely	-12423
烘干	-12424
Code	-12425
DO	-12426
▁launched	-12427
neg	-12428
谷歌	-12429
layer	-12430
stone	-12431
发生在	-12432
有一天	-12433
背景下	-12434
extra	-12435
年后	-12436
4000	-12437
king	-12438
▁zip	-12439
viation	-12440
▁由	-12441
▁diss	-12442
▁physics	-12443
TeX	-12444
▁enhance	-12445
▁worst	-12446
▁Uk	-12447
▁valuable	-12448
▁Development	-12449
ontal	-12450
▁meta	-12451
▁technique	-12452
等多	-12453
▁kid	-12454
oster	-12455
义词	-12456
货运	-12457
▁Bet	-12458
？”	-12459
▁diverse	-12460
弘扬	-12461
步伐	-12462
▁学校	-12463
▁End	-12464
rf	-12465
，7	-12466
Mult	-12467
您可以	-12468
的经营	-12469
platform	-12470
▁approximately	-12471
放心	-12472
恐惧	-12473
▁bigger	-12474
▁11.	-12475
▁tmp	-12476
特殊的	-12477
▁bright	-12478
可用	-12479
Tensor	-12480
iament	-12481
▁[1,	-12482
涨幅	-12483
都需要	-12484
ibilities	-12485
配送	-12486
Command	-12487
化妆	-12488
向上	-12489
意志	-12490
VAL	-12491
复苏	-12492
▁theme	-12493
加以	-12494
食材	-12495
▁subsequ	-12496
▁institutions	-12497
▁moves	-12498
▁陈	-12499
总监	-12500
font	-12501
富含	-12502
画家	-12503
采用了	-12504
▁plugin	-12505
▁Justice	-12506
▁logic	-12507
▁topics	-12508
▁Japanese	-12509
rog	-12510
及其他	-12511
的标准	-12512
▁Bern	-12513
opping	-12514
environ	-12515
▁multip	-12516
cohol	-12517
▁widely	-12518
eli	-12519
▁$1	-12520
▁manufacture	-12521
▁vulner	-12522
那就	-12523
产业的	-12524
▁1999	-12525
常态	-12526
这对	-12527
经销商	-12528
ampionship	-12529
▁telling	-12530
:%	-12531
▁金	-12532
企业在	-12533
复习	-12534
That	-12535
▁boundary	-12536
3）	-12537
▁Special	-12538
减肥	-12539
派出	-12540
一座	-12541
制成	-12542
教室	-12543
曝光	-12544
▁$(	-12545
▁ongoing	-12546
宏观	-12547
1',	-12548
▁mort	-12549
eph	-12550
一周	-12551
奥斯	-12552
如果是	-12553
.")	-12554
合肥	-12555
曾在	-12556
▁Phot	-12557
主场	-12558
人次	-12559
▁TODO	-12560
▁formal	-12561
POSE	-12562
▁Pen	-12563
▁spl	-12564
▁Yet	-12565
ERT	-12566
当时的	-12567
电影的	-12568
少女	-12569
权力	-12570
▁boot	-12571
新华	-12572
▁MA	-12573
ixed	-12574
▁stopped	-12575
利的	-12576
获悉	-12577
▁PUR	-12578
宁波	-12579
疑问	-12580
不断提高	-12581
作为一个	-12582
▁pairs	-12583
之一的	-12584
▁uncertain	-12585
圆满	-12586
▁housing	-12587
以其	-12588
差别	-12589
plugin	-12590
RC	-12591
分辨	-12592
sect	-12593
▁medium	-12594
复印	-12595
去年同期	-12596
并与	-12597
，6	-12598
▁metric	-12599
▁standing	-12600
年起	-12601
的不同	-12602
aser	-12603
west	-12604
▁spring	-12605
的最	-12606
Number	-12607
辖市	-12608
▁River	-12609
▁diagn	-12610
标记	-12611
▁fish	-12612
推出了	-12613
▁governing	-12614
0\	-12615
ilarly	-12616
Py	-12617
▁"'	-12618
内地	-12619
▁Click	-12620
▁modified	-12621
缩短	-12622
占地面积	-12623
▁Technology	-12624
useum	-12625
▁Overall	-12626
跨越	-12627
升高	-12628
种种	-12629
过敏	-12630
这份	-12631
policy	-12632
▁selling	-12633
▁statistics	-12634
预约	-12635
冠状病毒	-12636
所得税	-12637
的发生	-12638
交付	-12639
回顾	-12640
汉语	-12641
▁pictures	-12642
▁correctly	-12643
▁maps	-12644
观光	-12645
的现象	-12646
助攻	-12647
zip	-12648
性价比	-12649
玉米	-12650
▁taxes	-12651
▁prospect	-12652
▁channels	-12653
▁Korea	-12654
▁Global	-12655
▁linked	-12656
比上年	-12657
'},	-12658
口腔	-12659
极其	-12660
随意	-12661
abet	-12662
oman	-12663
忽略	-12664
主要有	-12665
Oper	-12666
Su	-12667
可以用	-12668
小于	-12669
党支部	-12670
▁12.	-12671
一段时间	-12672
features	-12673
品尝	-12674
穿越	-12675
▁artist	-12676
▁ingred	-12677
▁aid	-12678
▁motor	-12679
▁此次	-12680
▁successfully	-12681
搭载	-12682
海上	-12683
war	-12684
建设项目	-12685
iated	-12686
导航	-12687
ala	-12688
的人才	-12689
orders	-12690
解答	-12691
的具体	-12692
▁Management	-12693
哈尔	-12694
或者是	-12695
▁198	-12696
RI	-12697
林业	-12698
怎么办	-12699
▁necessarily	-12700
上课	-12701
140	-12702
的治疗	-12703
的活动	-12704
平方公里	-12705
▁integration	-12706
▁dialog	-12707
▁pi	-12708
CHANT	-12709
▁hidden	-12710
▁replaced	-12711
▁algorithms	-12712
^3	-12713
积分	-12714
▁Put	-12715
▁defe	-12716
公主	-12717
推行	-12718
拉斯	-12719
的经济	-12720
outer	-12721
UI	-12722
ads	-12723
water	-12724
注入	-12725
home	-12726
全球变暖	-12727
ogram	-12728
惊喜	-12729
烹饪	-12730
物料	-12731
▁banks	-12732
MT	-12733
于一	-12734
湖南省	-12735
▁judge	-12736
▁absolutely	-12737
心理学	-12738
图形	-12739
废弃	-12740
艰难	-12741
证实	-12742
流畅	-12743
紫外	-12744
plates	-12745
▁controvers	-12746
场合	-12747
适量	-12748
▁redist	-12749
▁specify	-12750
▁circumst	-12751
awn	-12752
▁Gra	-12753
▁encourage	-12754
▁dimensions	-12755
▁representing	-12756
演奏	-12757
1997	-12758
▁awareness	-12759
mi	-12760
▁×	-12761
▁Mel	-12762
官员	-12763
企业家	-12764
pa	-12765
溶液	-12766
▁Cup	-12767
二氧化碳	-12768
3.0	-12769
pdf	-12770
的三	-12771
等人	-12772
ressive	-12773
▁dedicated	-12774
role	-12775
▁adds	-12776
▁FITNESS	-12777
PATH	-12778
▁union	-12779
▁creates	-12780
CI	-12781
▁用	-12782
仪表	-12783
Tube	-12784
▁native	-12785
▁Control	-12786
▁legislation	-12787
中级	-12788
▁MERCHANT	-12789
品的	-12790
在本	-12791
坚决	-12792
把它	-12793
资源的	-12794
山水	-12795
score	-12796
▁Boston	-12797
▁imagine	-12798
利息	-12799
雕塑	-12800
▁那么	-12801
黑龙江	-12802
▁PARTIC	-12803
快捷	-12804
Hel	-12805
▁plenty	-12806
▁opposition	-12807
备受	-12808
省市	-12809
素养	-12810
”，“	-12811
我们就	-12812
Auto	-12813
osis	-12814
▁Louis	-12815
▁tight	-12816
▁triangle	-12817
的教育	-12818
▁Date	-12819
▁verify	-12820
▁healthcare	-12821
▁Custom	-12822
零部件	-12823
▁12,	-12824
▁veget	-12825
是可以	-12826
Invalid	-12827
▁Mot	-12828
世界各地	-12829
诗人	-12830
考验	-12831
▁Du	-12832
许多人	-12833
▁PURPOSE	-12834
▁vast	-12835
▁Source	-12836
数组	-12837
电磁	-12838
▁CEO	-12839
$$,	-12840
▁happening	-12841
Ge	-12842
找出	-12843
▁sand	-12844
比特	-12845
users	-12846
Mat	-12847
海滩	-12848
了中国	-12849
钢结构	-12850
▁Method	-12851
▁flight	-12852
1)	-12853
也需要	-12854
iams	-12855
▁stores	-12856
AF	-12857
▁classic	-12858
▁Hot	-12859
▁informed	-12860
介质	-12861
得知	-12862
政务	-12863
相关部门	-12864
Start	-12865
▁protein	-12866
的高度	-12867
▁husband	-12868
所属	-12869
的总	-12870
简洁	-12871
▁Blue	-12872
质疑	-12873
▁minister	-12874
前沿	-12875
赋予	-12876
注意力	-12877
▁consequences	-12878
能够在	-12879
▁Jon	-12880
uling	-12881
▁chapter	-12882
kes	-12883
的状态	-12884
▁egg	-12885
▁manner	-12886
bn	-12887
像是	-12888
▁registered	-12889
vas	-12890
▁bow	-12891
▁dream	-12892
vals	-12893
实训	-12894
明年	-12895
▁Config	-12896
的爱	-12897
INT	-12898
csv	-12899
科学研究	-12900
▁PARTICULAR	-12901
党委书记	-12902
▁decade	-12903
港澳	-12904
enter	-12905
原材料	-12906
农药	-12907
$.	-12908
ERE	-12909
▁Lo	-12910
耶稣	-12911
Ext	-12912
较多	-12913
爱好者	-12914
有益	-12915
的确	-12916
食品安全	-12917
礼物	-12918
万人次	-12919
▁fellow	-12920
推理	-12921
走出	-12922
内在	-12923
图案	-12924
▁$2	-12925
▁Bud	-12926
而来	-12927
MPL	-12928
bot	-12929
▁Lim	-12930
attributes	-12931
▁DO	-12932
▁authority	-12933
过多	-12934
当地的	-12935
怎么样	-12936
ronic	-12937
▁isol	-12938
▁abuse	-12939
▁Furthermore	-12940
客人	-12941
▁pal	-12942
▁agencies	-12943
大楼	-12944
END	-12945
业主	-12946
乐趣	-12947
幅度	-12948
▁fif	-12949
舒服	-12950
▁(1,	-12951
ected	-12952
▁2021	-12953
斯拉	-12954
custom	-12955
魔法	-12956
▁stats	-12957
之旅	-12958
提出的	-12959
Array	-12960
直径	-12961
如果您	-12962
的声音	-12963
stat	-12964
宿舍	-12965
管理工作	-12966
残疾	-12967
了许多	-12968
▁Right	-12969
木材	-12970
Mac	-12971
delta	-12972
▁ton	-12973
严谨	-12974
agues	-12975
month	-12976
▁letters	-12977
rent	-12978
▁forg	-12979
知识和	-12980
等工作	-12981
dden	-12982
篮板	-12983
长安	-12984
Windows	-12985
▁MERCHANTABILITY	-12986
一支	-12987
同样的	-12988
了对	-12989
aining	-12990
cloud	-12991
疗法	-12992
都没	-12993
tical	-12994
跨境	-12995
issue	-12996
▁recorded	-12997
▁differential	-12998
真诚	-12999
▁Gl	-13000
已经在	-13001
▁mixed	-13002
▁Through	-13003
properties	-13004
山市	-13005
▁trees	-13006
factory	-13007
摄像	-13008
adding	-13009
▁illegal	-13010
SN	-13011
▁日	-13012
复兴	-13013
asket	-13014
江南	-13015
逝世	-13016
▁Palest	-13017
合伙	-13018
我院	-13019
擅长	-13020
谈判	-13021
教堂	-13022
民警	-13023
▁tough	-13024
房价	-13025
的音乐	-13026
▁Link	-13027
▁可以	-13028
极大的	-13029
9999	-13030
▁Sup	-13031
遗憾	-13032
总投资	-13033
igan	-13034
▁inequal	-13035
▁matching	-13036
▁pix	-13037
▁Britain	-13038
亚马	-13039
会展	-13040
▁"/	-13041
旅游业	-13042
oking	-13043
iser	-13044
ogether	-13045
制冷	-13046
生育	-13047
％，	-13048
共产党	-13049
诊疗	-13050
ULL	-13051
▁frust	-13052
▁stable	-13053
▁comprehens	-13054
px	-13055
Meta	-13056
区内	-13057
png	-13058
▁NE	-13059
modules	-13060
锅炉	-13061
▁assign	-13062
基本的	-13063
湖北省	-13064
▁mal	-13065
lose	-13066
▁profit	-13067
▁reader	-13068
validate	-13069
▁victims	-13070
为中国	-13071
rich	-13072
指示	-13073
128	-13074
^{\	-13075
you	-13076
是一些	-13077
▁vehicles	-13078
远离	-13079
因为它	-13080
Server	-13081
▁shop	-13082
3_	-13083
制药	-13084
10%	-13085
老年人	-13086
overy	-13087
rl	-13088
载体	-13089
ÂÃ	-13090
▁1-	-13091
▁university	-13092
▁facts	-13093
GO	-13094
▁Board	-13095
gypt	-13096
▁Wal	-13097
▁discrim	-13098
▁commitment	-13099
▁suc	-13100
发酵	-13101
调味	-13102
▁其次	-13103
ÂÃÂÃ	-13104
master	-13105
▁bought	-13106
上帝	-13107
友谊	-13108
标识	-13109
转换为	-13110
▁regulations	-13111
▁recommendations	-13112
▁EN	-13113
▁Virgin	-13114
可爱	-13115
spe	-13116
重庆市	-13117
success	-13118
嘉宾	-13119
也不能	-13120
▁Admin	-13121
三是	-13122
▁derived	-13123
▁modules	-13124
助理	-13125
家乡	-13126
真的是	-13127
▁Paris	-13128
▁usual	-13129
▁assault	-13130
一件	-13131
会被	-13132
文旅	-13133
的两	-13134
职业教育	-13135
番茄	-13136
落在	-13137
▁snap	-13138
客服	-13139
正如	-13140
▁corporate	-13141
▁saved	-13142
▁fle	-13143
▁mathematical	-13144
征收	-13145
!!!!	-13146
Connection	-13147
▁48	-13148
伟大的	-13149
▁Photo	-13150
船舶	-13151
Found	-13152
▁Hillary	-13153
头发	-13154
睡觉	-13155
野生	-13156
ora	-13157
▁Lee	-13158
▁Road	-13159
Co	-13160
{2	-13161
▁victory	-13162
安静	-13163
prot	-13164
▁procedure	-13165
朝鲜	-13166
ariju	-13167
▁Water	-13168
数值	-13169
cluding	-13170
arijuana	-13171
突发	-13172
美国的	-13173
高等教育	-13174
售价	-13175
loads	-13176
▁sweet	-13177
ificial	-13178
▁Fox	-13179
▁consc	-13180
▁刘	-13181
ady	-13182
▁'<	-13183
一半	-13184
密集	-13185
所需的	-13186
隐藏	-13187
▁conducted	-13188
▁coordinates	-13189
found	-13190
选择了	-13191
Packet	-13192
]:	-13193
▁bag	-13194
▁estimates	-13195
家中	-13196
我说	-13197
added	-13198
无缝	-13199
desc	-13200
ashed	-13201
▁committee	-13202
LP	-13203
▁37	-13204
预警	-13205
▁sav	-13206
▁crypt	-13207
▁周	-13208
描绘	-13209
师范大学	-13210
▁ourselves	-13211
烦恼	-13212
▁hardware	-13213
▁再	-13214
奥运会	-13215
▁rig	-13216
language	-13217
的健康	-13218
ilit	-13219
phone	-13220
▁plug	-13221
ocracy	-13222
▁arrested	-13223
▁approaches	-13224
损坏	-13225
开学	-13226
等行业	-13227
技术创新	-13228
▁routine	-13229
主要的	-13230
argv	-13231
labels	-13232
▁folder	-13233
开展了	-13234
▁sudden	-13235
中国人	-13236
▁guard	-13237
esterday	-13238
unittest	-13239
期内	-13240
没想到	-13241
项目建设	-13242
区分	-13243
`.	-13244
▁MP	-13245
线性	-13246
▁fell	-13247
▁assets	-13248
VD	-13249
在他	-13250
适宜	-13251
▁Pay	-13252
application	-13253
WE	-13254
这是一	-13255
lets	-13256
▁uint	-13257
▁readers	-13258
▁Bur	-13259
▁movies	-13260
加强对	-13261
▁paying	-13262
不仅是	-13263
▁Light	-13264
▁inverse	-13265
日制	-13266
▁34	-13267
合计	-13268
256	-13269
枢纽	-13270
热的	-13271
0.00	-13272
▁snow	-13273
▁bomb	-13274
▁exit	-13275
storage	-13276
▁Christmas	-13277
小孩	-13278
▁practical	-13279
扫描	-13280
fire	-13281
▁Invest	-13282
constant	-13283
▁protected	-13284
▁substantial	-13285
形成的	-13286
▁ansible	-13287
集合	-13288
第二个	-13289
▁Pack	-13290
都被	-13291
▁suit	-13292
，2017	-13293
抑郁	-13294
ani	-13295
又称	-13296
会出现	-13297
▁thr	-13298
container	-13299
▁indicate	-13300
缓慢	-13301
下一个	-13302
涉及到	-13303
尼斯	-13304
深远	-13305
约束	-13306
业务的	-13307
外资	-13308
确诊病例	-13309
▁Mount	-13310
▁engage	-13311
▁appearance	-13312
护士	-13313
稳步	-13314
▁Mexico	-13315
▁underlying	-13316
在其	-13317
20%	-13318
▁molec	-13319
essages	-13320
美洲	-13321
▁Lu	-13322
大自然	-13323
▁Hand	-13324
▁recommended	-13325
▁friendly	-13326
入住	-13327
陌生	-13328
暂停	-13329
海拔	-13330
米的	-13331
医疗保健	-13332
apache	-13333
作风	-13334
滴滴	-13335
用心	-13336
▁Island	-13337
▁reviews	-13338
▁audio	-13339
▁feelings	-13340
zh	-13341
缺少	-13342
STR	-13343
一等奖	-13344
oted	-13345
=1,	-13346
亮点	-13347
▁Linux	-13348
▁agents	-13349
category	-13350
出色的	-13351
▁Est	-13352
▁neighborhood	-13353
只需	-13354
abc	-13355
常用的	-13356
西藏	-13357
领取	-13358
高质量发展	-13359
的建设	-13360
▁sport	-13361
rick	-13362
▁Middle	-13363
cred	-13364
眼前	-13365
进行的	-13366
Process	-13367
奇怪	-13368
想起	-13369
▁Join	-13370
▁bodies	-13371
'])	-13372
Tests	-13373
研究员	-13374
▁Pass	-13375
window	-13376
▁transaction	-13377
ni	-13378
重建	-13379
已被	-13380
在使用	-13381
管理部门	-13382
年内	-13383
aylor	-13384
▁About	-13385
▁territ	-13386
▁involving	-13387
ghan	-13388
▁surrounding	-13389
360	-13390
深度学习	-13391
网络安全	-13392
istor	-13393
投放	-13394
▁shouldn	-13395
学费	-13396
抵抗	-13397
▁brown	-13398
▁principles	-13399
沈阳	-13400
▁domestic	-13401
▁»	-13402
天地	-13403
▁tok	-13404
▁tack	-13405
Variable	-13406
大奖	-13407
环境中	-13408
倒入	-13409
倡导	-13410
新一	-13411
眼镜	-13412
还不	-13413
长大	-13414
nic	-13415
move	-13416
▁stim	-13417
encing	-13418
沉淀	-13419
▁Support	-13420
▁interact	-13421
▁NFL	-13422
▁pit	-13423
▁arrived	-13424
></	-13425
只需要	-13426
心理健康	-13427
▁preferences	-13428
看似	-13429
Americ	-13430
ometimes	-13431
▁greatest	-13432
任意	-13433
候选	-13434
▁kernel	-13435
老师的	-13436
▁destination	-13437
0)	-13438
道的	-13439
▁Ir	-13440
高品质	-13441
▁SH	-13442
▁Current	-13443
▁planned	-13444
▁matters	-13445
▁revolution	-13446
▁thick	-13447
operator	-13448
$$.	-13449
风电	-13450
▁中国政府网	-13451
淘宝	-13452
▁signature	-13453
商场	-13454
▁reput	-13455
首个	-13456
comment	-13457
render	-13458
的力量	-13459
▁Comple	-13460
cb	-13461
也为	-13462
巨头	-13463
河北省	-13464
等多个	-13465
▁hook	-13466
▁Education	-13467
▁mindful	-13468
▁attempts	-13469
有些人	-13470
▁hasn	-13471
raises	-13472
房产	-13473
button	-13474
▁invent	-13475
▁Grand	-13476
ependent	-13477
▁religion	-13478
▁particles	-13479
▁functional	-13480
▁packages	-13481
疯狂	-13482
-1)	-13483
Open	-13484
暴露	-13485
avy	-13486
▁Jesus	-13487
▁orders	-13488
▁scores	-13489
燃气	-13490
▁33	-13491
直辖市	-13492
▁lies	-13493
不对	-13494
二等奖	-13495
▁Angeles	-13496
▁Systems	-13497
▁participants	-13498
定价	-13499
▁expectations	-13500
。"	-13501
▁_("	-13502
▁bits	-13503
effect	-13504
进了	-13505
其他的	-13506
▁lin	-13507
▁Such	-13508
▁emotions	-13509
dimensional	-13510
▁rational	-13511
BN	-13512
口碑	-13513
编号	-13514
膨胀	-13515
个小时	-13516
▁narr	-13517
Rem	-13518
▁Ga	-13519
▁li	-13520
解决了	-13521
阵容	-13522
▁49	-13523
card	-13524
engine	-13525
▁recognize	-13526
上网	-13527
处理器	-13528
▁scan	-13529
ji	-13530
分支	-13531
多么	-13532
多彩	-13533
抵达	-13534
轻轻	-13535
▁magnetic	-13536
中国人民	-13537
(3	-13538
详细的	-13539
▁如果你	-13540
▁courses	-13541
湿度	-13542
▁Adv	-13543
Result	-13544
ription	-13545
▁verbose	-13546
▁walking	-13547
amps	-13548
变得更加	-13549
▁Again	-13550
▁escape	-13551
▁tested	-13552
咱们	-13553
好友	-13554
暴雨	-13555
用药	-13556
▁这种	-13557
▁ast	-13558
▁succeed	-13559
不懂	-13560
▁Joe	-13561
减速	-13562
巩固	-13563
风光	-13564
▁shel	-13565
中所	-13566
机构的	-13567
这本书	-13568
▁Land	-13569
共建	-13570
汇报	-13571
30%	-13572
▁perman	-13573
阻止	-13574
Red	-13575
就开始	-13576
▁Offic	-13577
▁enabled	-13578
RS	-13579
ifts	-13580
loop	-13581
政府信息	-13582
微笑	-13583
▁films	-13584
▁doctor	-13585
省份	-13586
谨慎	-13587
我们会	-13588
的来说	-13589
一套	-13590
东莞	-13591
感和	-13592
耐磨	-13593
解决问题	-13594
▁basically	-13595
▁mm	-13596
▁threshold	-13597
ws	-13598
观测	-13599
forward	-13600
喜剧	-13601
在外	-13602
嫌疑	-13603
马拉	-13604
▁0.00	-13605
灯光	-13606
End	-13607
▁Williams	-13608
▁teachers	-13609
"],	-13610
▁conn	-13611
onymous	-13612
4\	-13613
▁南	-13614
agent	-13615
▁Dig	-13616
▁ipv	-13617
▁Report	-13618
▁Services	-13619
▁explanation	-13620
再度	-13621
善于	-13622
微企业	-13623
▁universe	-13624
脱贫攻坚	-13625
▁newsp	-13626
市长	-13627
▁depart	-13628
▁prepare	-13629
▁ec	-13630
▁teaching	-13631
病因	-13632
▁Egypt	-13633
型的	-13634
恒大	-13635
展示了	-13636
▁-*-	-13637
agraph	-13638
橄榄	-13639
观赏	-13640
▁extent	-13641
轨道交通	-13642
姐姐	-13643
Part	-13644
▁hotel	-13645
^\	-13646
草原	-13647
atial	-13648
▁evaluate	-13649
优越	-13650
身为	-13651
改变了	-13652
▁orient	-13653
尔斯	-13654
一样的	-13655
▁Prime	-13656
issions	-13657
色列	-13658
transform	-13659
▁prosecut	-13660
不然	-13661
为客户提供	-13662
和水	-13663
这条	-13664
▁reporting	-13665
▁acts	-13666
互联	-13667
和大	-13668
真空	-13669
解析	-13670
Link	-13671
▁bug	-13672
▁indu	-13673
plicate	-13674
▁dropped	-13675
冶金	-13676
制的	-13677
春天	-13678
亚马逊	-13679
▁visible	-13680
▁vectors	-13681
Met	-13682
主要用于	-13683
convert	-13684
▁severe	-13685
appe	-13686
Status	-13687
global	-13688
rity	-13689
可以根据	-13690
我很	-13691
VE	-13692
也非常	-13693
▁Wood	-13694
world	-13695
▁validate	-13696
管理人员	-13697
净水	-13698
▁pm	-13699
模具	-13700
迎接	-13701
▁pyl	-13702
噪音	-13703
RES	-13704
小程序	-13705
是通过	-13706
的优势	-13707
服用	-13708
服务中心	-13709
▁sitting	-13710
感知	-13711
ipher	-13712
socket	-13713
▁conservative	-13714
FS	-13715
不符合	-13716
rase	-13717
▁competitive	-13718
居然	-13719
缴费	-13720
经济增长	-13721
▁indices	-13722
厂房	-13723
陪伴	-13724
ena	-13725
git	-13726
▁enforcement	-13727
民事	-13728
热带	-13729
▁Pract	-13730
ailability	-13731
运转	-13732
使用寿命	-13733
▁sympt	-13734
estival	-13735
门店	-13736
是否有	-13737
游戏的	-13738
邮政	-13739
uby	-13740
辛苦	-13741
tage	-13742
班子	-13743
▁km	-13744
积极的	-13745
▁reserved	-13746
130	-13747
▁上海	-13748
tenance	-13749
▁trouble	-13750
实质	-13751
警告	-13752
完善的	-13753
十条	-13754
1.6	-13755
=0,	-13756
和个人	-13757
高度重视	-13758
isters	-13759
▁absor	-13760
克力	-13761
影响到	-13762
▁powers	-13763
▁enumerate	-13764
造成了	-13765
▁FROM	-13766
▁arms	-13767
▁hypothes	-13768
的前提	-13769
ZE	-13770
_\	-13771
我省	-13772
日常生活	-13773
Color	-13774
▁excess	-13775
液压	-13776
渴望	-13777
▁migr	-13778
债权	-13779
iPhone	-13780
stderr	-13781
▁75	-13782
▁Pan	-13783
人人	-13784
▁2001	-13785
▁Ut	-13786
▁Federal	-13787
离婚	-13788
▁filters	-13789
.0	-13790
没有人	-13791
chron	-13792
▁Cath	-13793
提起	-13794
相继	-13795
的成绩	-13796
▁Profess	-13797
▁browser	-13798
1999	-13799
▁lived	-13800
将是	-13801
▁desk	-13802
▁volunte	-13803
开关	-13804
原因是	-13805
Max	-13806
▁Word	-13807
在了	-13808
limit	-13809
分会	-13810
When	-13811
▁Australian	-13812
教会	-13813
arse	-13814
度过	-13815
传统文化	-13816
▁align	-13817
▁spoke	-13818
▁evening	-13819
Do	-13820
▁inn	-13821
▁Ryan	-13822
幸运	-13823
门槛	-13824
▁commission	-13825
丽的	-13826
热烈	-13827
手中	-13828
▁prev	-13829
▁stands	-13830
▁phenomen	-13831
▁gap	-13832
▁decor	-13833
潮流	-13834
和一个	-13835
views	-13836
▁crack	-13837
▁categories	-13838
查找	-13839
▁dt	-13840
▁Bob	-13841
apper	-13842
住了	-13843
unicode	-13844
vs	-13845
warn	-13846
▁Secretary	-13847
▁interaction	-13848
主营	-13849
▁<<	-13850
note	-13851
阿里巴巴	-13852
organ	-13853
▁Event	-13854
列出	-13855
并通过	-13856
mond	-13857
▁broadcast	-13858
新产品	-13859
4]	-13860
追究	-13861
▁capture	-13862
▁Analysis	-13863
▁regularly	-13864
为我们	-13865
JSON	-13866
▁skip	-13867
▁eating	-13868
▁occurs	-13869
▁originally	-13870
skip	-13871
黄河	-13872
.')	-13873
辣椒	-13874
▁principle	-13875
▁bringing	-13876
器件	-13877
▁accident	-13878
▁advent	-13879
▁environ	-13880
困境	-13881
holder	-13882
buck	-13883
生产经营	-13884
columns	-13885
▁async	-13886
▁wra	-13887
▁ignored	-13888
1}	-13889
VM	-13890
本届	-13891
▁facing	-13892
激动	-13893
otes	-13894
▁clar	-13895
劳务	-13896
▁moments	-13897
▁exciting	-13898
为你	-13899
最多的	-13900
人性	-13901
剧院	-13902
终止	-13903
协商	-13904
常用	-13905
▁scr	-13906
的人们	-13907
▁engineering	-13908
建于	-13909
涉嫌	-13910
({'	-13911
lements	-13912
▁Islamic	-13913
7-	-13914
▁murder	-13915
encoding	-13916
11,	-13917
的比例	-13918
tuple	-13919
ution	-13920
▁Section	-13921
Ass	-13922
两天	-13923
特种	-13924
pet	-13925
颁发	-13926
350	-13927
各部门	-13928
▁skill	-13929
十字	-13930
矿山	-13931
▁emergency	-13932
hs	-13933
▁clock	-13934
/%	-13935
你就	-13936
ko	-13937
这意味着	-13938
ponential	-13939
同行	-13940
挂牌	-13941
▁referred	-13942
▁Ca	-13943
▁emp	-13944
ruption	-13945
前列	-13946
摩擦	-13947
结算	-13948
▁(2	-13949
ikip	-13950
▁polar	-13951
一块	-13952
市值	-13953
厚度	-13954
蒸汽	-13955
▁LET	-13956
▁Coll	-13957
▁closely	-13958
1：	-13959
▁veter	-13960
线索	-13961
XML	-13962
riev	-13963
Header	-13964
▁delivery	-13965
地域	-13966
进取	-13967
riz	-13968
▁tut	-13969
而出	-13970
fin	-13971
▁Sep	-13972
▁Ent	-13973
▁angles	-13974
▁requested	-13975
上级	-13976
困扰	-13977
朋友们	-13978
▁pod	-13979
▁turning	-13980
增多	-13981
海岸	-13982
DNA	-13983
▁2002	-13984
4	-13985
援助	-13986
还原	-13987
年中国	-13988
oked	-13989
orse	-13990
厉害	-13991
▁IT	-13992
▁Pak	-13993
endar	-13994
▁flavor	-13995
-	-13996
ras	-13997
abin	-13998
▁150	-13999
筛选	-14000
迪士	-14001
等因素	-14002
作战	-14003
是一名	-14004
的投资	-14005
0,000	-14006
信誉	-14007
以下的	-14008
########################	-14009
▁Jo	-14010
▁SM	-14011
ateway	-14012
▁investors	-14013
▁vertical	-14014
见的	-14015
▁philosoph	-14016
℃，	-14017
离不开	-14018
▁buying	-14019
加剧	-14020
▁circumstances	-14021
▁39	-14022
海关	-14023
ogen	-14024
▁sac	-14025
告诉记者	-14026
年上半年	-14027
他对	-14028
NBA	-14029
迪士尼	-14030
safe	-14031
acter	-14032
▁’	-14033
去做	-14034
手表	-14035
身高	-14036
▁priority	-14037
▁warranty	-14038
气质	-14039
ORD	-14040
ader	-14041
来信	-14042
▁stability	-14043
▁reasonable	-14044
URE	-14045
为企业	-14046
emon	-14047
0.2	-14048
ipt	-14049
nan	-14050
▁manip	-14051
必须要	-14052
▁KIND	-14053
compat	-14054
家园	-14055
▁extreme	-14056
便于	-14057
激情	-14058
都知道	-14059
1996	-14060
invalid	-14061
▁unable	-14062
▁circuit	-14063
(__	-14064
创造了	-14065
▁quiet	-14066
▁Academ	-14067
简直	-14068
笔者	-14069
长达	-14070
ali	-14071
失去了	-14072
onto	-14073
光明	-14074
几种	-14075
遭受	-14076
价值的	-14077
可以让	-14078
▁outcome	-14079
▁typical	-14080
▁believes	-14081
立体	-14082
▁Music	-14083
▁losing	-14084
▁District	-14085
▁queue	-14086
▁Access	-14087
▁William	-14088
工作室	-14089
注意到	-14090
▁anywhere	-14091
seq	-14092
▁Ze	-14093
负面影响	-14094
▁strike	-14095
假日	-14096
死了	-14097
▁pil	-14098
智能家居	-14099
将以	-14100
Que	-14101
的意思	-14102
Version	-14103
Qt	-14104
▁coast	-14105
▁Mos	-14106
▁nic	-14107
ivered	-14108
之为	-14109
inds	-14110
▁Fact	-14111
rightarrow	-14112
欢乐	-14113
oma	-14114
讲述了	-14115
▁Conference	-14116
中部	-14117
二手	-14118
▁accused	-14119
▁currency	-14120
▁outcomes	-14121
性强	-14122
纳米	-14123
inputs	-14124
▁crowd	-14125
▁centre	-14126
▁neither	-14127
立刻	-14128
?00	-14129
下半年	-14130
▁hat	-14131
足以	-14132
▁7、	-14133
▁Force	-14134
地板	-14135
虚假	-14136
得了	-14137
的概念	-14138
▁talks	-14139
要想	-14140
roud	-14141
▁Ill	-14142
内存	-14143
平凡	-14144
的速度	-14145
apse	-14146
xiety	-14147
来自于	-14148
承载	-14149
Off	-14150
▁Ell	-14151
外交	-14152
调控	-14153
在未来	-14154
推出的	-14155
lymp	-14156
season	-14157
[0])	-14158
schema	-14159
80%	-14160
设计和	-14161
撰写	-14162
只会	-14163
带头	-14164
是我国	-14165
市场需求	-14166
▁Director	-14167
▁constructor	-14168
主机	-14169
发改	-14170
欧美	-14171
▁Vict	-14172
Property	-14173
垂直	-14174
▁Question	-14175
snap	-14176
!”	-14177
是如何	-14178
noon	-14179
▁LOG	-14180
▁Online	-14181
▁($	-14182
▁tx	-14183
体现了	-14184
被评为	-14185
▁wearing	-14186
坚守	-14187
▁alcohol	-14188
▁assistance	-14189
天天	-14190
总理	-14191
▁Pac	-14192
▁Sanders	-14193
ortion	-14194
大批	-14195
沿海	-14196
高血压	-14197
opts	-14198
四年	-14199
▁Card	-14200
完美的	-14201
▁如	-14202
raries	-14203
▁employee	-14204
规章	-14205
青睐	-14206
克的	-14207
研究人员	-14208
▁mand	-14209
收取	-14210
pers	-14211
▁diagram	-14212
mic	-14213
▁attrs	-14214
无效	-14215
▁tow	-14216
HD	-14217
我对	-14218
冬天	-14219
国防	-14220
ownt	-14221
proxy	-14222
sb	-14223
市级	-14224
▁realize	-14225
▁Mathematics	-14226
tic	-14227
▁brings	-14228
做出了	-14229
操作系统	-14230
▁governments	-14231
=2	-14232
与中国	-14233
伴随着	-14234
vector	-14235
▁winter	-14236
Ne	-14237
成年人	-14238
ipal	-14239
▁Fed	-14240
▁WARRANTY	-14241
Implemented	-14242
降雨	-14243
▁Opt	-14244
▁suggestions	-14245
唯一的	-14246
来实现	-14247
目前的	-14248
▁precision	-14249
elly	-14250
▁Afghan	-14251
权的	-14252
精英	-14253
▁Four	-14254
▁essentially	-14255
出资	-14256
[2]	-14257
交往	-14258
情怀	-14259
优雅	-14260
▁Army	-14261
▁cuts	-14262
HL	-14263
▁ON	-14264
▁11,	-14265
iders	-14266
书画	-14267
金山	-14268
▁bird	-14269
▁Jewish	-14270
今天的	-14271
▁taste	-14272
位居	-14273
为中心	-14274
▁frequently	-14275
播出	-14276
obs	-14277
stood	-14278
assertFalse	-14279
▁Ma	-14280
▁[[	-14281
directory	-14282
五大	-14283
去世	-14284
社会责任	-14285
▁complicated	-14286
化石	-14287
放置	-14288
神经网络	-14289
强劲	-14290
得多	-14291
fol	-14292
▁Men	-14293
TypeId	-14294
具有良好的	-14295
▁trends	-14296
▁Chapter	-14297
向前	-14298
超声	-14299
采访时	-14300
hook	-14301
video	-14302
怀孕	-14303
新材料	-14304
Option	-14305
▁trick	-14306
▁complexity	-14307
装配	-14308
责令	-14309
▁LETTER	-14310
德里	-14311
来源于	-14312
Block	-14313
域名	-14314
就已经	-14315
uality	-14316
▁Nations	-14317
关怀	-14318
▁struggle	-14319
yes	-14320
Stream	-14321
▁handling	-14322
FR	-14323
热点	-14324
avel	-14325
ikipedia	-14326
Delta	-14327
▁roles	-14328
▁responses	-14329
伦理	-14330
器官	-14331
)),	-14332
▁Process	-14333
▁Bow	-14334
reens	-14335
最小	-14336
的花	-14337
▁dealing	-14338
▁mathematics	-14339
Em	-14340
牢记	-14341
零件	-14342
▁holid	-14343
▁pitch	-14344
▁totally	-14345
一看	-14346
存款	-14347
fetch	-14348
▁1990	-14349
▁eq	-14350
不确定	-14351
evin	-14352
▁proposal	-14353
修行	-14354
发布会	-14355
▁Pet	-14356
fficients	-14357
▁Cho	-14358
▁drawn	-14359
凌晨	-14360
▁roots	-14361
的长	-14362
可能导致	-14363
astern	-14364
predict	-14365
审议	-14366
ONE	-14367
被誉为	-14368
走到	-14369
aml	-14370
暴力	-14371
直至	-14372
flo	-14373
`,	-14374
爷爷	-14375
▁Andrew	-14376
▁consumption	-14377
NC	-14378
违约	-14379
▁extend	-14380
▁outputs	-14381
▁Week	-14382
▁explo	-14383
▁latter	-14384
Const	-14385
▁buildings	-14386
故意	-14387
▁Still	-14388
处分	-14389
遭到	-14390
6000	-14391
▁optimal	-14392
▁promoting	-14393
那时	-14394
东南亚	-14395
▁Three	-14396
为其	-14397
▁((	-14398
集中在	-14399
▁History	-14400
▁hate	-14401
▁Bitcoin	-14402
▁machines	-14403
一道	-14404
指令	-14405
柴油	-14406
▁38	-14407
▁他们	-14408
陕西省	-14409
岁月	-14410
的角度	-14411
头部	-14412
Load	-14413
▁begins	-14414
澳洲	-14415
践行	-14416
和工作	-14417
▁Hen	-14418
▁Cost	-14419
和支持	-14420
▁contem	-14421
的一次	-14422
▁sensitive	-14423
▁',	-14424
▁Error	-14425
▁atmosphere	-14426
ACE	-14427
attribute	-14428
可惜	-14429
平板	-14430
牛肉	-14431
▁academic	-14432
▁spectrum	-14433
前提	-14434
▁sampl	-14435
公积	-14436
运算	-14437
使用了	-14438
000000	-14439
▁goods	-14440
得很	-14441
▁surve	-14442
更快	-14443
那是	-14444
▁Haw	-14445
强烈的	-14446
={'	-14447
amm	-14448
oup	-14449
▁Old	-14450
▁warnings	-14451
dr	-14452
肠道	-14453
工程技术	-14454
▁fort	-14455
日常生活中	-14456
▁drivers	-14457
深刻的	-14458
License	-14459
urd	-14460
▁Kim	-14461
▁beer	-14462
▁马	-14463
忠诚	-14464
焦点	-14465
Query	-14466
eller	-14467
▁particle	-14468
▁marijuana	-14469
▁regional	-14470
)+	-14471
无关	-14472
电动汽车	-14473
▁indicates	-14474
旋律	-14475
▁bon	-14476
▁Sure	-14477
码头	-14478
ameters	-14479
▁Licensed	-14480
▁regardless	-14481
一本	-14482
账号	-14483
MENT	-14484
中小学	-14485
▁edges	-14486
▁Israeli	-14487
▁alert	-14488
samples	-14489
3:	-14490
埃及	-14491
牺牲	-14492
▁Attribute	-14493
star	-14494
▁youth	-14495
变速	-14496
▁<-	-14497
▁exposure	-14498
bad	-14499
▁teen	-14500
▁checks	-14501
▁diversity	-14502
GR	-14503
▁CD	-14504
▁seat	-14505
ulf	-14506
秋季	-14507
▁marked	-14508
▁packet	-14509
整数	-14510
安徽省	-14511
adium	-14512
▁Brad	-14513
atom	-14514
double	-14515
▁inject	-14516
4:	-14517
和小	-14518
25.	-14519
发性	-14520
当初	-14521
▁Fore	-14522
成立了	-14523
▁Hom	-14524
▁Fund	-14525
2(	-14526
比分	-14527
------	-14528
▁[0,	-14529
binary	-14530
▁observations	-14531
▁——	-14532
dirname	-14533
▁layers	-14534
▁initially	-14535
undle	-14536
联合会	-14537
ropy	-14538
▁await	-14539
低碳	-14540
1.3	-14541
12,	-14542
▁symbols	-14543
决议	-14544
崛起	-14545
▁reward	-14546
`.	-14547
ele	-14548
10000	-14549
▁Search	-14550
Pre	-14551
$-	-14552
whel	-14553
enabled	-14554
石头	-14555
可行	-14556
多样性	-14557
click	-14558
▁Steve	-14559
▁teach	-14560
download	-14561
▁supporters	-14562
▁多	-14563
年出生	-14564
ament	-14565
分成	-14566
切割	-14567
美容	-14568
行程	-14569
▁EV	-14570
elihood	-14571
十几	-14572
哪怕	-14573
夜晚	-14574
完了	-14575
▁声明	-14576
华人	-14577
较好的	-14578
execut	-14579
▁votes	-14580
▁serving	-14581
▁matrices	-14582
先锋	-14583
▁seed	-14584
成型	-14585
▁regression	-14586
开业	-14587
什么样的	-14588
▁songs	-14589
入境	-14590
师资	-14591
早餐	-14592
选拔	-14593
▁Love	-14594
Serial	-14595
增幅	-14596
AIL	-14597
人民群众	-14598
▁transformation	-14599
出门	-14600
elist	-14601
善良	-14602
退役	-14603
created	-14604
▁facilities	-14605
▁apparently	-14606
2，	-14607
市的	-14608
IGN	-14609
西哥	-14610
▁obviously	-14611
段时间	-14612
没什么	-14613
▁receiving	-14614
▁restaurant	-14615
Spec	-14616
appoint	-14617
▁Object	-14618
▁Share	-14619
Dir	-14620
血糖	-14621
特色的	-14622
改革开放	-14623
遇到了	-14624
▁Page	-14625
。2018	-14626
rations	-14627
▁improving	-14628
负荷	-14629
▁Ol	-14630
▁&',	-14631
irror	-14632
在新	-14633
▁Cat	-14634
gon	-14635
年轻的	-14636
brid	-14637
▁pointed	-14638
作了	-14639
在中	-14640
▁appeal	-14641
▁approved	-14642
上传	-14643
rames	-14644
的其他	-14645
理性	-14646
结局	-14647
esome	-14648
MC	-14649
产业化	-14650
▁gift	-14651
难道	-14652
▁radical	-14653
学金	-14654
石化	-14655
颁奖	-14656
prop	-14657
some	-14658
文化遗产	-14659
▁execution	-14660
斗争	-14661
灾难	-14662
▁industrial	-14663
去看	-14664
挑选	-14665
▁facility	-14666
▁faces	-14667
金刚	-14668
▁2-	-14669
/	-14670
既有	-14671
行为的	-14672
年末	-14673
和企业	-14674
mann	-14675
▁15.	-14676
▁refuge	-14677
▁concepts	-14678
门窗	-14679
全日制	-14680
我公司	-14681
创新创业	-14682
ears	-14683
政府的	-14684
tools	-14685
▁Women	-14686
▁TR	-14687
▁innovation	-14688
聘用	-14689
表情	-14690
消费者的	-14691
最有	-14692
线条	-14693
ilib	-14694
loss	-14695
▁cup	-14696
▁lit	-14697
▁bath	-14698
▁computing	-14699
出于	-14700
▁一般	-14701
100%	-14702
▁adj	-14703
充分利用	-14704
▁Daily	-14705
二人	-14706
手法	-14707
排行	-14708
洪水	-14709
斯科	-14710
1.4	-14711
ValueError	-14712
关爱	-14713
▁appreciate	-14714
终身	-14715
詹姆斯	-14716
了自己的	-14717
▁operators	-14718
前三	-14719
▁magic	-14720
▁Environment	-14721
借鉴	-14722
地处	-14723
领导小组	-14724
▁sqrt	-14725
客房	-14726
流水	-14727
fortunately	-14728
0.3	-14729
举办的	-14730
plan	-14731
DateTime	-14732
▁integers	-14733
哥哥	-14734
白天	-14735
▁Care	-14736
▁copies	-14737
▁refere	-14738
减排	-14739
bus	-14740
gments	-14741
▁propag	-14742
▁somewhat	-14743
▁household	-14744
患有	-14745
1.8	-14746
▁Francisco	-14747
随之	-14748
就没有	-14749
span	-14750
▁Should	-14751
侵犯了	-14752
▁professionals	-14753
书中	-14754
▁Spring	-14755
izers	-14756
▁contained	-14757
"])	-14758
erves	-14759
▁sending	-14760
教育教学	-14761
▁fasc	-14762
achment	-14763
▁redirect	-14764
神话	-14765
-1,	-14766
▁intent	-14767
feed	-14768
▁Chem	-14769
▁bias	-14770
▁derivative	-14771
而非	-14772
随便	-14773
▁ce	-14774
rage	-14775
▁Walk	-14776
[1],	-14777
▁causing	-14778
IntegerField	-14779
▁BAS	-14780
短语	-14781
人气	-14782
24.	-14783
▁cere	-14784
▁voting	-14785
的存在	-14786
oral	-14787
hered	-14788
▁PS	-14789
值得一提	-14790
▁generator	-14791
报价	-14792
▁万	-14793
▁vm	-14794
太大	-14795
edit	-14796
▁Full	-14797
▁Supreme	-14798
▁recovery	-14799
爱国	-14800
erg	-14801
zing	-14802
▁rain	-14803
GA	-14804
一日	-14805
下游	-14806
不予	-14807
▁DNA	-14808
▁fairly	-14809
▁surprise	-14810
EV	-14811
▁tang	-14812
共赢	-14813
历经	-14814
听说	-14815
电竞	-14816
经纪	-14817
▁Daniel	-14818
▁rend	-14819
之上	-14820
歌词	-14821
追溯	-14822
好奇	-14823
布置	-14824
stud	-14825
▁SQL	-14826
▁fly	-14827
新城	-14828
▁Pakistan	-14829
▁administr	-14830
的名	-14831
政策的	-14832
标志着	-14833
▁desire	-14834
▁Import	-14835
▁immediate	-14836
ci	-14837
散步	-14838
▁athlet	-14839
▁Food	-14840
最喜欢的	-14841
▁pul	-14842
▁Posted	-14843
全面的	-14844
high	-14845
omorph	-14846
▁ancient	-14847
publ	-14848
加州	-14849
▁地址	-14850
以色列	-14851
false	-14852
▁professor	-14853
公积金	-14854
▁maintaining	-14855
模仿	-14856
ubs	-14857
▁Na	-14858
▁最近	-14859
不管是	-14860
▁Update	-14861
▁commonly	-14862
▁infinite	-14863
器材	-14864
告诉我	-14865
▁Integ	-14866
bel	-14867
▁截至	-14868
优质的	-14869
enger	-14870
Many	-14871
ffect	-14872
ussian	-14873
西兰	-14874
▁42	-14875
cover	-14876
▁filed	-14877
平均值	-14878
▁Standard	-14879
墨西哥	-14880
FILE	-14881
▁lie	-14882
Write	-14883
▁Charl	-14884
偶像	-14885
▁CL	-14886
?.	-14887
oval	-14888
assertIs	-14889
▁battery	-14890
得出	-14891
和中国	-14892
gamma	-14893
▁Index	-14894
平静	-14895
hus	-14896
▁3-	-14897
下面的	-14898
会儿	-14899
皇家	-14900
▁还有	-14901
▁adults	-14902
pository	-14903
黑色素	-14904
▁Graph	-14905
▁Carolina	-14906
5\	-14907
的开	-14908
造价	-14909
▁vent	-14910
Checker	-14911
▁suitable	-14912
呼吁	-14913
不容易	-14914
▁surg	-14915
个别	-14916
▁120	-14917
orship	-14918
巴士	-14919
校友	-14920
olds	-14921
player	-14922
iat	-14923
orough	-14924
排查	-14925
要么	-14926
▁gay	-14927
▁afternoon	-14928
ye	-14929
▁Chief	-14930
和中	-14931
的一项	-14932
Function	-14933
帮扶	-14934
▁kinds	-14935
饱和	-14936
可靠性	-14937
▁（2）	-14938
▁Lake	-14939
▁Product	-14940
书写	-14941
树木	-14942
如果没有	-14943
青海	-14944
▁wa	-14945
itar	-14946
razy	-14947
udes	-14948
▁tact	-14949
▁findings	-14950
sd	-14951
全县	-14952
塞尔	-14953
安置	-14954
90%	-14955
many	-14956
▁breaking	-14957
▁translation	-14958
可视	-14959
asts	-14960
▁Publ	-14961
▁trading	-14962
服务平台	-14963
▁strongly	-14964
双手	-14965
foot	-14966
ifiers	-14967
吃的	-14968
▁blow	-14969
Buffer	-14970
▁amounts	-14971
▁welcome	-14972
Mark	-14973
disk	-14974
一把	-14975
力争	-14976
视频网站	-14977
▁Stan	-14978
Fig	-14979
▁carefully	-14980
复印件	-14981
这里的	-14982
then	-14983
#	-14984
一颗	-14985
高职	-14986
sen	-14987
仍在	-14988
合资	-14989
简化	-14990
ORE	-14991
aph	-14992
▁liquid	-14993
著作权	-14994
店铺	-14995
▁SC	-14996
▁spons	-14997
▁passion	-14998
▁mechanism	-14999
raise	-15000
▁improvement	-15001
引用	-15002
分析和	-15003
注册资本	-15004
FP	-15005
8000	-15006
rowse	-15007
▁loan	-15008
makers	-15009
▁argue	-15010
守护	-15011
拿着	-15012
ITE	-15013
John	-15014
▁fra	-15015
轮胎	-15016
▁era	-15017
▁ped	-15018
▁resid	-15019
家用	-15020
▁（1）	-15021
烤箱	-15022
这部电影	-15023
▁cycl	-15024
▁salt	-15025
▁sizes	-15026
▁convent	-15027
员工的	-15028
▁Connect	-15029
▁factory	-15030
alls	-15031
▁Fun	-15032
▁{}	-15033
▁anxiety	-15034
▁aircraft	-15035
梳理	-15036
此后	-15037
ority	-15038
▁ensuring	-15039
Core	-15040
▁worker	-15041
▁collected	-15042
lt	-15043
生产和	-15044
▁glob	-15045
▁exceed	-15046
1，	-15047
_,	-15048
就被	-15049
生产企业	-15050
▁scenario	-15051
多元化	-15052
Tree	-15053
▁redistribute	-15054
亮相	-15055
沃尔	-15056
裁判	-15057
人们对	-15058
▁delivered	-15059
▁surprising	-15060
发掘	-15061
oga	-15062
审美	-15063
聚合	-15064
days	-15065
IME	-15066
开发的	-15067
我们将在	-15068
media	-15069
信赖	-15070
失望	-15071
奶奶	-15072
TEST	-15073
css	-15074
▁momentum	-15075
▁cro	-15076
联动	-15077
年以上	-15078
▁Turn	-15079
来看看	-15080
▁fees	-15081
▁collections	-15082
正当	-15083
ookie	-15084
)"	-15085
IVE	-15086
▁Som	-15087
("%	-15088
内容的	-15089
不必	-15090
拍照	-15091
事务所	-15092
orem	-15093
▁deploy	-15094
▁controlled	-15095
的空间	-15096
ERROR	-15097
参照	-15098
▁Olymp	-15099
▁seriously	-15100
TF	-15101
将对	-15102
纪委	-15103
▁nan	-15104
reams	-15105
不高	-15106
过渡	-15107
绝缘	-15108
vin	-15109
导致的	-15110
的出现	-15111
听取	-15112
了一下	-15113
tw	-15114
时机	-15115
做什么	-15116
编程语言	-15117
不含	-15118
第八	-15119
雇主	-15120
learn	-15121
位的	-15122
▁dump	-15123
▁meat	-15124
征求意见稿	-15125
obody	-15126
▁Jackson	-15127
▁abstract	-15128
分割	-15129
▁boundaries	-15130
月中	-15131
正常的	-15132
'})	-15133
壮大	-15134
流传	-15135
ican	-15136
export	-15137
▁objective	-15138
能耗	-15139
UTH	-15140
高科技	-15141
审理	-15142
诱发	-15143
较好	-15144
▁JSON	-15145
▁storm	-15146
!"	-15147
三级	-15148
了几	-15149
众生	-15150
追踪	-15151
sur	-15152
典型的	-15153
zeros	-15154
▁toler	-15155
▁listening	-15156
无锡	-15157
▁mine	-15158
▁divided	-15159
海报	-15160
▁evaluation	-15161
摆脱	-15162
旗舰	-15163
▁Tw	-15164
▁文章	-15165
▁fro	-15166
▁habit	-15167
▁Though	-15168
柔软	-15169
时期的	-15170
▁Prem	-15171
herent	-15172
▁controls	-15173
▁emissions	-15174
.;	-15175
任职	-15176
但这	-15177
法的	-15178
王国	-15179
▁经过	-15180
分析师	-15181
▁FBI	-15182
BD	-15183
complete	-15184
▁killing	-15185
▁therapy	-15186
▁assigned	-15187
理解和	-15188
dfrac	-15189
nu	-15190
va	-15191
▁阿	-15192
入门	-15193
+1)	-15194
-2.0	-15195
▁delta	-15196
▁attached	-15197
[1:	-15198
▁LI	-15199
▁Braz	-15200
Simple	-15201
▁portion	-15202
▁accessible	-15203
海军	-15204
面临的	-15205
▁Ram	-15206
▁writes	-15207
▁trigger	-15208
ilton	-15209
此类	-15210
通行	-15211
CEO	-15212
▁DC	-15213
降低了	-15214
▁TypeError	-15215
事宜	-15216
-16	-15217
▁pylint	-15218
▁talent	-15219
借款	-15220
成品	-15221
▁cursor	-15222
short	-15223
签证	-15224
管控	-15225
▁hun	-15226
omega	-15227
▁remained	-15228
千年	-15229
掉了	-15230
放大	-15231
▁PR	-15232
▁(0,	-15233
▁manual	-15234
▁比如	-15235
我喜欢	-15236
竞争对手	-15237
▁signals	-15238
▁您	-15239
▁14.	-15240
为准	-15241
势力	-15242
总会	-15243
POST	-15244
ellect	-15245
▁bench	-15246
▁faced	-15247
外贸	-15248
破产	-15249
▁Taylor	-15250
夜间	-15251
感冒	-15252
▁urban	-15253
合约	-15254
神的	-15255
人工智能技术	-15256
▁assumed	-15257
▁interactions	-15258
oom	-15259
BL	-15260
vol	-15261
▁Asia	-15262
▁Exper	-15263
▁Perhaps	-15264
▁attorney	-15265
各方	-15266
不懈	-15267
-30	-15268
ancer	-15269
holders	-15270
省委	-15271
▁""	-15272
认识到	-15273
子和	-15274
默默	-15275
mega	-15276
Graph	-15277
元的	-15278
助手	-15279
温泉	-15280
▁wine	-15281
▁Palestin	-15282
▁reliable	-15283
游览	-15284
▁ox	-15285
rible	-15286
▁Wild	-15287
images	-15288
▁knowing	-15289
athan	-15290
▁按照	-15291
面临着	-15292
1995	-15293
▁insights	-15294
▁electronic	-15295
一期	-15296
▁aggreg	-15297
GS	-15298
列为	-15299
1'	-15300
噪声	-15301
Dat	-15302
新一代	-15303
让学生	-15304
ells	-15305
▁197	-15306
▁checking	-15307
▁references	-15308
▁mouth	-15309
两国	-15310
处理与	-15311
▁15,	-15312
▁Georg	-15313
▁collaboration	-15314
pb	-15315
▁acting	-15316
▁elected	-15317
等到	-15318
单位的	-15319
给自己	-15320
一首	-15321
剩余	-15322
标的	-15323
者和	-15324
见面	-15325
边界	-15326
▁BE	-15327
[1]	-15328
▁combat	-15329
▁console	-15330
抓好	-15331
Can	-15332
的人物	-15333
ashes	-15334
▁beta	-15335
▁sick	-15336
之时	-15337
怎样的	-15338
职业生涯	-15339
曲线	-15340
mid	-15341
该项目	-15342
▁monitoring	-15343
SET	-15344
▁fn	-15345
中华民族	-15346
片的	-15347
kind	-15348
▁Roman	-15349
▁tweet	-15350
促使	-15351
境界	-15352
▁GL	-15353
▁Young	-15354
pattern	-15355
主持人	-15356
工作经验	-15357
▁meditation	-15358
▁styles	-15359
Vector	-15360
▁picked	-15361
不利	-15362
108	-15363
▁NY	-15364
开始了	-15365
▁stronger	-15366
▁Course	-15367
▁experiments	-15368
供水	-15369
将为	-15370
aws	-15371
本公司	-15372
▁sections	-15373
社保	-15374
可用于	-15375
expr	-15376
▁Lord	-15377
▁hint	-15378
▁possess	-15379
▁engaging	-15380
风雨	-15381
▁*	-15382
▁2	-15383
科学与	-15384
▁rein	-15385
起步	-15386
▁Van	-15387
▁priorit	-15388
▁offensive	-15389
▁grade	-15390
为期	-15391
饲料	-15392
▁13.	-15393
▁conscious	-15394
▁predictions	-15395
共识	-15396
旅程	-15397
125	-15398
▁OK	-15399
▁Writ	-15400
3/	-15401
主力	-15402
出具	-15403
出血	-15404
顶尖	-15405
奖学金	-15406
铝合金	-15407
door	-15408
▁tech	-15409
▁Block	-15410
构造	-15411
人生的	-15412
prise	-15413
github	-15414
▁describes	-15415
▁primarily	-15416
其在	-15417
永久	-15418
nsel	-15419
辈子	-15420
▁wheel	-15421
▁fabric	-15422
水库	-15423
▁sessions	-15424
ounded	-15425
▁inspired	-15426
109	-15427
ensus	-15428
感应	-15429
溶剂	-15430
细分	-15431
的合作	-15432
itchen	-15433
▁Toronto	-15434
买了	-15435
***	-15436
▁Way	-15437
▁Path	-15438
▁explains	-15439
个人信息	-15440
▁Order	-15441
▁Title	-15442
▁symptoms	-15443
▁acknowled	-15444
家政	-15445
▁Tri	-15446
System	-15447
▁noticed	-15448
做得	-15449
划分	-15450
敌人	-15451
▁CS	-15452
▁Cur	-15453
假如	-15454
nament	-15455
▁Cross	-15456
)}	-15457
开创	-15458
icide	-15459
release	-15460
▁Virginia	-15461
公安局	-15462
▁batt	-15463
▁peak	-15464
仓库	-15465
审判	-15466
”.	-15467
的用户	-15468
五一	-15469
▁给出	-15470
工程建设	-15471
▁solving	-15472
更改	-15473
灵感	-15474
走势	-15475
意义的	-15476
领袖	-15477
▁PDF	-15478
quote	-15479
▁Creat	-15480
▁concentration	-15481
Rep	-15482
哈尔滨	-15483
非常重要	-15484
疫情影响	-15485
▁grew	-15486
▁soci	-15487
装机	-15488
副总裁	-15489
CTION	-15490
si	-15491
拉克	-15492
▁Did	-15493
appro	-15494
▁overwhel	-15495
▁replacement	-15496
并以	-15497
▁quadr	-15498
▁assist	-15499
五十	-15500
剧本	-15501
是为	-15502
十二条	-15503
uction	-15504
▁Games	-15505
水电	-15506
稍微	-15507
酒精	-15508
只提供	-15509
lope	-15510
▁Pop	-15511
▁yards	-15512
generate	-15513
fd	-15514
天堂	-15515
闻名	-15516
大致	-15517
▁narrow	-15518
▁comprehensive	-15519
人对	-15520
性好	-15521
ski	-15522
ocus	-15523
ervation	-15524
protocol	-15525
但也	-15526
供电	-15527
所在地	-15528
一遍	-15529
传动	-15530
bind	-15531
▁shares	-15532
▁黄	-15533
通过了	-15534
▁emails	-15535
不合格	-15536
▁counts	-15537
在这种	-15538
建设工程	-15539
▁designs	-15540
彰显	-15541
很重要	-15542
ultane	-15543
仅有	-15544
奖金	-15545
并发	-15546
('\	-15547
ureau	-15548
▁cheap	-15549
▁participate	-15550
动员	-15551
英寸	-15552
工作和	-15553
▁Function	-15554
▁quantity	-15555
镀锌	-15556
▁ingredients	-15557
▁partnership	-15558
一直是	-15559
▁adm	-15560
▁1980	-15561
担忧	-15562
255	-15563
▁entered	-15564
万个	-15565
法治	-15566
▁achieved	-15567
科学的	-15568
DEFAULT	-15569
真相	-15570
tool	-15571
▁rac	-15572
closed	-15573
▁legisl	-15574
▁constraints	-15575
=3	-15576
斯的	-15577
玫瑰	-15578
attrs	-15579
▁robust	-15580
典礼	-15581
高层	-15582
立方米	-15583
时空	-15584
▁drawing	-15585
La	-15586
调试	-15587
另一种	-15588
有一种	-15589
石墨	-15590
Back	-15591
▁idx	-15592
▁army	-15593
值得一提的是	-15594
▁facilit	-15595
央视	-15596
医疗器械	-15597
▁measurement	-15598
体质	-15599
简短	-15600
▁Cru	-15601
它在	-15602
LAB	-15603
▁hurt	-15604
▁vital	-15605
▁consists	-15606
表现出	-15607
鲁迅	-15608
2.4	-15609
环境和	-15610
_.	-15611
原告	-15612
所述	-15613
ows	-15614
届中国	-15615
巧克力	-15616
严峻	-15617
▁missed	-15618
▁stretch	-15619
引人	-15620
How	-15621
每个人都	-15622
▁tokens	-15623
▁20,	-15624
▁measurements	-15625
般的	-15626
▁Jac	-15627
▁Fort	-15628
roph	-15629
不仅仅是	-15630
▁100%	-15631
情的	-15632
向社会	-15633
▁schema	-15634
Act	-15635
可以选择	-15636
inent	-15637
▁instructions	-15638
的国际	-15639
▁Learning	-15640
▁recognition	-15641
命名	-15642
▁74	-15643
外出	-15644
}}{	-15645
▁span	-15646
▁streets	-15647
▁immigration	-15648
估值	-15649
▁Ital	-15650
仓储	-15651
执导	-15652
医院的	-15653
letter	-15654
▁inher	-15655
▁Sometimes	-15656
▁perfectly	-15657
ella	-15658
、3	-15659
不当	-15660
Down	-15661
acks	-15662
▁belief	-15663
timestamp	-15664
变频	-15665
演绎	-15666
stein	-15667
▁Span	-15668
▁elev	-15669
warning	-15670
派遣	-15671
科院	-15672
▁Cre	-15673
Column	-15674
▁duration	-15675
▁III	-15676
▁accommod	-15677
▁scheduled	-15678
为主要	-15679
合法权益	-15680
▁CONDIT	-15681
▁returning	-15682
▁#!	-15683
每一位	-15684
乐团	-15685
月球	-15686
[:,	-15687
▁Meanwhile	-15688
▁instrument	-15689
必需	-15690
指引	-15691
沙漠	-15692
球场	-15693
available	-15694
衡量	-15695
Rel	-15696
▁puts	-15697
▁plastic	-15698
6\	-15699
各样的	-15700
▁Select	-15701
▁temporary	-15702
对中国	-15703
来进行	-15704
▁-0.	-15705
▁wed	-15706
Button	-15707
产物	-15708
Arg	-15709
战略合作	-15710
▁execute	-15711
阐述	-15712
kel	-15713
▁'0	-15714
▁digits	-15715
▁nearby	-15716
偶尔	-15717
组件	-15718
减少了	-15719
▁agricult	-15720
USER	-15721
verty	-15722
▁windows	-15723
▁Unfortunately	-15724
黑洞	-15725
activ	-15726
依次	-15727
目光	-15728
的艺术	-15729
▁GOP	-15730
states	-15731
7\	-15732
出国	-15733
北美	-15734
师傅	-15735
金钱	-15736
▁CA	-15737
只不过	-15738
现有的	-15739
▁simulation	-15740
外语	-15741
▁3:	-15742
字体	-15743
▁gram	-15744
▁websites	-15745
平台的	-15746
▁unittest	-15747
不行	-15748
之内	-15749
火锅	-15750
inx	-15751
▁Sar	-15752
async	-15753
▁heads	-15754
三次	-15755
plus	-15756
无奈	-15757
送到	-15758
队长	-15759
外汇	-15760
公布的	-15761
环境污染	-15762
这件事	-15763
Ab	-15764
奇迹	-15765
智力	-15766
资深	-15767
设备和	-15768
1994	-15769
ternet	-15770
center	-15771
▁coefficients	-15772
严肃	-15773
大专	-15774
建设和	-15775
毕业后	-15776
hers	-15777
――	-15778
业态	-15779
增大	-15780
大家的	-15781
▁quote	-15782
电梯	-15783
关注的	-15784
fc	-15785
仅为	-15786
县城	-15787
▁regime	-15788
▁minimal	-15789
▁opposed	-15790
乐器	-15791
大街	-15792
长远	-15793
办公厅	-15794
')],	-15795
collect	-15796
▁Brazil	-15797
▁herself	-15798
中外	-15799
对自己	-15800
▁alleg	-15801
反射	-15802
处处	-15803
防御	-15804
sym	-15805
用户提供	-15806
Select	-15807
▁declared	-15808
)$$	-15809
▁[	-15810
▁anyway	-15811
▁characteristics	-15812
华夏	-15813
▁normally	-15814
股市	-15815
enable	-15816
Sm	-15817
程度的	-15818
医疗机构	-15819
▁mainly	-15820
leg	-15821
为代表	-15822
是没有	-15823
erer	-15824
tics	-15825
Returns	-15826
这么多	-15827
▁gall	-15828
▁rely	-15829
▁driven	-15830
十足	-15831
Pad	-15832
sent	-15833
积极参与	-15834
接种	-15835
(2,	-15836
enda	-15837
cluster	-15838
光学	-15839
105	-15840
但由于	-15841
▁fewer	-15842
▁NotImplemented	-15843
银行业	-15844
人间	-15845
▁yesterday	-15846
现任	-15847
行走	-15848
▁Mic	-15849
出场	-15850
aded	-15851
Boolean	-15852
三国	-15853
多吃	-15854
的数量	-15855
commit	-15856
到处	-15857
法学	-15858
▁proud	-15859
摩托	-15860
数码	-15861
水量	-15862
沙滩	-15863
诠释	-15864
▁0)	-15865
▁Far	-15866
▁sky	-15867
▁Charles	-15868
："	-15869
Work	-15870
繁殖	-15871
要把	-15872
▁Bra	-15873
旁边	-15874
硫酸	-15875
航线	-15876
▁sad	-15877
军人	-15878
出演	-15879
回去	-15880
广州市	-15881
教育局	-15882
ician	-15883
医护	-15884
一方	-15885
年纪	-15886
gnu	-15887
Method	-15888
ulator	-15889
▁BASIS	-15890
messages	-15891
▁Physics	-15892
▁CONDITIONS	-15893
正义	-15894
▁Ms	-15895
不存在	-15896
▁XML	-15897
毫不	-15898
超过了	-15899
usal	-15900
▁Greek	-15901
他还	-15902
2.2	-15903
▁ride	-15904
阿拉伯	-15905
英格兰	-15906
olving	-15907
▁roughly	-15908
▁55	-15909
▁Images	-15910
▁resident	-15911
途中	-15912
likely	-15913
▁married	-15914
ynamic	-15915
▁conversion	-15916
均可	-15917
▁mit	-15918
▁papers	-15919
▁rotation	-15920
兰州	-15921
27.	-15922
调解	-15923
▁2)	-15924
信贷	-15925
是你	-15926
毕业于	-15927
usage	-15928
▁elections	-15929
)*	-15930
均有	-15931
▁chunk	-15932
feature	-15933
▁YouTube	-15934
▁literature	-15935
家属	-15936
客户端	-15937
是一项	-15938
ixin	-15939
▁stake	-15940
▁bridge	-15941
正好	-15942
alty	-15943
Window	-15944
XT	-15945
撤销	-15946
▁Hard	-15947
▁--------	-15948
并购	-15949
▁Mu	-15950
因为我	-15951
drop	-15952
从业人员	-15953
usters	-15954
碰撞	-15955
▁seasons	-15956
▁把	-15957
MD	-15958
▁manufacturing	-15959
她在	-15960
▁directed	-15961
优美	-15962
湿地	-15963
呈现出	-15964
的孩子	-15965
QQ	-15966
孔子	-15967
越大	-15968
功能的	-15969
▁Deb	-15970
▁estate	-15971
▁soldiers	-15972
）》	-15973
tok	-15974
和国家	-15975
▁god	-15976
成为一个	-15977
▁bare	-15978
▁Never	-15979
▁island	-15980
▁injuries	-15981
机动车	-15982
▁addresses	-15983
yr	-15984
脸上	-15985
▁exercises	-15986
raine	-15987
edu	-15988
▁Cloud	-15989
gressive	-15990
▁heavily	-15991
太平洋	-15992
航空公司	-15993
▁Plus	-15994
▁asset	-15995
▁advertising	-15996
更具	-15997
版的	-15998
两个人	-15999
起重机	-16000
国际机场	-16001
icken	-16002
愿望	-16003
(**	-16004
▁Action	-16005
荣耀	-16006
办事处	-16007
▁spokesman	-16008
模糊	-16009
业内人士	-16010
垄断	-16011
学士	-16012
需求的	-16013
SION	-16014
appy	-16015
▁procedures	-16016
这些问题	-16017
▁Labor	-16018
▁waves	-16019
▁understood	-16020
▁transportation	-16021
一对	-16022
为本	-16023
十三五	-16024
启发	-16025
Min	-16026
jpg	-16027
▁da	-16028
▁employment	-16029
存在着	-16030
▁login	-16031
HP	-16032
仍有	-16033
搜索引擎	-16034
看过	-16035
了一系列	-16036
邮箱地址	-16037
不去	-16038
当日	-16039
法兰	-16040
靠近	-16041
很高的	-16042
温室气体	-16043
▁cutting	-16044
紧紧	-16045
热水器	-16046
lights	-16047
imer	-16048
andon	-16049
▁sugar	-16050
ón	-16051
动词	-16052
洛杉	-16053
arc	-16054
之前的	-16055
劳动力	-16056
▁fee	-16057
这种情况	-16058
▁owned	-16059
急性	-16060
相处	-16061
的价值	-16062
经济效益	-16063
Acc	-16064
确定的	-16065
督促	-16066
太阳系	-16067
parts	-16068
但是在	-16069
▁Valley	-16070
长春	-16071
Task	-16072
已在	-16073
王子	-16074
▁3)	-16075
严格的	-16076
▁subset	-16077
▁metrics	-16078
4.5	-16079
所以在	-16080
▁Cast	-16081
变为	-16082
leq	-16083
发改委	-16084
▁soil	-16085
▁coordinate	-16086
ograp	-16087
▁2015,	-16088
▁dependent	-16089
了他	-16090
肥胖	-16091
博览会	-16092
▁Exp	-16093
全国各地	-16094
▁plain	-16095
之后的	-16096
较小	-16097
kt	-16098
可分为	-16099
洛杉矶	-16100
ouch	-16101
自然科学	-16102
php	-16103
forms	-16104
▁pulled	-16105
元件	-16106
commun	-16107
▁提供	-16108
的任务	-16109
remote	-16110
丧失	-16111
▁AC	-16112
历史的	-16113
elta	-16114
行政部门	-16115
folder	-16116
▁fruit	-16117
▁mistake	-16118
生活在	-16119
自然资源	-16120
▁crew	-16121
▁stdout	-16122
间接	-16123
饮用	-16124
是目前	-16125
建筑工程	-16126
▁deals	-16127
▁outer	-16128
▁disappoint	-16129
▁engagement	-16130
称之为	-16131
");	-16132
▁colon	-16133
▁organized	-16134
坚实	-16135
契机	-16136
关系的	-16137
▁forth	-16138
▁maintenance	-16139
浏览器	-16140
▁tiny	-16141
▁colleagues	-16142
东风	-16143
用作	-16144
▁managing	-16145
▁Gal	-16146
▁harder	-16147
总值	-16148
第九	-16149
nm	-16150
lang	-16151
。2017	-16152
▁formation	-16153
有权	-16154
清除	-16155
片段	-16156
脱离	-16157
▁Colum	-16158
和新	-16159
再到	-16160
杰出	-16161
衍生	-16162
▁Sat	-16163
▁Guard	-16164
▁Request	-16165
名叫	-16166
多多	-16167
▁pin	-16168
重要作用	-16169
▁Carl	-16170
indices	-16171
聚丙烯	-16172
▁serves	-16173
▁其	-16174
发热	-16175
▁Theory	-16176
Bar	-16177
▁注意	-16178
的时代	-16179
▁+	-16180
▁zh	-16181
的大小	-16182
只是一个	-16183
▁Yeah	-16184
▁defensive	-16185
专业化	-16186
的一年	-16187
▁thin	-16188
Access	-16189
▁beauty	-16190
▁tracking	-16191
是大	-16192
流感	-16193
erry	-16194
▁Hence	-16195
▁engaged	-16196
▁discount	-16197
▁inequality	-16198
增添	-16199
▁Core	-16200
▁breaks	-16201
▁Scot	-16202
▁wonderful	-16203
低的	-16204
▁09	-16205
BB	-16206
不适	-16207
▁discovery	-16208
真实的	-16209
▁rub	-16210
▁busy	-16211
▁careful	-16212
▁近	-16213
了吗	-16214
皮肤病	-16215
▁broke	-16216
▁worldwide	-16217
对照	-16218
upload	-16219
▁compens	-16220
细腻	-16221
hal	-16222
的新闻	-16223
"\	-16224
受欢迎的	-16225
投资基金	-16226
商会	-16227
营运	-16228
▁Dat	-16229
游乐	-16230
硬度	-16231
错过	-16232
▁ju	-16233
▁constantly	-16234
添加剂	-16235
▁layout	-16236
国土	-16237
溶解	-16238
2.3	-16239
相对于	-16240
清水	-16241
钢板	-16242
▁Rod	-16243
▁lic	-16244
报表	-16245
放射	-16246
王朝	-16247
▁mel	-16248
主要包括	-16249
市场份额	-16250
▁ans	-16251
ointer	-16252
▁loaded	-16253
>\	-16254
效力	-16255
在上海	-16256
▁Prot	-16257
▁proxy	-16258
占总	-16259
LOG	-16260
一百	-16261
分工	-16262
看的	-16263
itan	-16264
named	-16265
▁Write	-16266
模板	-16267
▁电影	-16268
开发者	-16269
}$$	-16270
▁Local	-16271
▁analog	-16272
▁constitut	-16273
线城市	-16274
▁Aud	-16275
▁Less	-16276
▁hole	-16277
▁keyword	-16278
▁AP	-16279
不喜欢	-16280
aved	-16281
执照	-16282
Exp	-16283
副总经理	-16284
|\	-16285
别墅	-16286
华盛	-16287
均系	-16288
▁occasion	-16289
▁communicate	-16290
外科	-16291
形的	-16292
早日	-16293
▁给出一个	-16294
买卖	-16295
子宫	-16296
的各种	-16297
rieve	-16298
▁capabilities	-16299
Sy	-16300
▁realized	-16301
博客	-16302
▁brands	-16303
卫视	-16304
xygen	-16305
国家和地区	-16306
等特点	-16307
▁ctx	-16308
▁byte	-16309
LICENSE	-16310
▁ending	-16311
开车	-16312
是怎么	-16313
accept	-16314
山的	-16315
租金	-16316
dem	-16317
如果有	-16318
keep	-16319
▁cov	-16320
周岁	-16321
意的	-16322
ANG	-16323
到现在	-16324
▁innovative	-16325
EP	-16326
乐队	-16327
沿着	-16328
-18	-16329
总承包	-16330
olumes	-16331
▁exceptions	-16332
一群	-16333
拼搏	-16334
私募	-16335
脚步	-16336
静电	-16337
▁Str	-16338
▁oblig	-16339
▁plate	-16340
’，	-16341
学业	-16342
观的	-16343
预报	-16344
iot	-16345
城乡建设	-16346
▁hypothesis	-16347
.-	-16348
▁demonstrate	-16349
(2)	-16350
izz	-16351
恋爱	-16352
愉快	-16353
样品	-16354
被告人	-16355
▁hence	-16356
▁decimal	-16357
手的	-16358
纠正	-16359
▁expressions	-16360
Pos	-16361
▁vib	-16362
▁rail	-16363
▁therm	-16364
几次	-16365
▁codes	-16366
▁weren	-16367
irement	-16368
不应	-16369
感激	-16370
煤矿	-16371
见过	-16372
=0.	-16373
sentry	-16374
知名度	-16375
repo	-16376
模范	-16377
贵司	-16378
以下是	-16379
LA	-16380
以内	-16381
凤凰	-16382
▁assessment	-16383
管理系统	-16384
▁Quant	-16385
不低于	-16386
和使用	-16387
ayout	-16388
老化	-16389
几个月	-16390
Token	-16391
▁refers	-16392
▁Element	-16393
6	-16394
▁→	-16395
pick	-16396
▁explos	-16397
也让	-16398
Gui	-16399
cope	-16400
▁voltage	-16401
Me	-16402
在上	-16403
爱你	-16404
美味	-16405
威尔	-16406
eros	-16407
▁disappe	-16408
▁grown	-16409
▁keeps	-16410
aturally	-16411
▁discipl	-16412
MV	-16413
增值税	-16414
心血管	-16415
提名	-16416
地理位置	-16417
▁maxim	-16418
最后的	-16419
paths	-16420
▁pregn	-16421
▁negoti	-16422
}$,	-16423
▁installation	-16424
他也	-16425
计量	-16426
试管	-16427
otted	-16428
珠海	-16429
bro	-16430
免疫力	-16431
▁Polit	-16432
▁moral	-16433
▁pipeline	-16434
自然灾害	-16435
▁unus	-16436
▁operate	-16437
进化	-16438
▁"-	-16439
产业园	-16440
演唱会	-16441
variables	-16442
CF	-16443
上看	-16444
▁covers	-16445
▁deleg	-16446
一声	-16447
吸烟	-16448
utch	-16449
Network	-16450
ami	-16451
uity	-16452
▁BBC	-16453
星座	-16454
短信	-16455
]['	-16456
osa	-16457
▁bike	-16458
-17	-16459
inem	-16460
namespace	-16461
悠久	-16462
▁44	-16463
circ	-16464
"}	-16465
和对	-16466
景色	-16467
保安	-16468
混乱	-16469
公共交通	-16470
过后	-16471
yset	-16472
科技大学	-16473
▁Kenn	-16474
▁studied	-16475
▁arbitrary	-16476
▁recognized	-16477
将被	-16478
Cal	-16479
：00	-16480
front	-16481
▁slowly	-16482
▁correspond	-16483
国立	-16484
尔顿	-16485
生效	-16486
春季	-16487
熊猫	-16488
▁Dev	-16489
不断提升	-16490
_1,	-16491
▁16.	-16492
▁180	-16493
▁steel	-16494
NG	-16495
改正	-16496
还可	-16497
福建省	-16498
olute	-16499
▁forest	-16500
▁converted	-16501
春秋	-16502
Port	-16503
▁upcoming	-16504
▁providers	-16505
家庄	-16506
护栏	-16507
plug	-16508
wing	-16509
▁classical	-16510
▁somewhere	-16511
施行	-16512
除非	-16513
医学院	-16514
使用者	-16515
ador	-16516
▁Column	-16517
▁periods	-16518
吃了	-16519
▁scalar	-16520
cfg	-16521
指的是	-16522
trace	-16523
总数	-16524
可以看到	-16525
▁Abstract	-16526
环境下	-16527
iture	-16528
▁advis	-16529
据悉	-16530
请给	-16531
胡萝卜	-16532
参与录制	-16533
▁2022	-16534
endment	-16535
▁tom	-16536
五金	-16537
土耳	-16538
]))	-16539
dumps	-16540
▁lawsu	-16541
争夺	-16542
付费	-16543
水和	-16544
特别是在	-16545
绝大多数	-16546
Child	-16547
Label	-16548
因子	-16549
是用	-16550
钢材	-16551
▁Brand	-16552
应在	-16553
领先的	-16554
行业协会	-16555
(10	-16556
▁unw	-16557
▁calculation	-16558
入围	-16559
打电话	-16560
表现为	-16561
Mode	-16562
▁rom	-16563
▁cream	-16564
▁weapon	-16565
▁simultane	-16566
入了	-16567
这一切	-16568
▁strip	-16569
总之	-16570
手指	-16571
无比	-16572
至关重要	-16573
▁Library	-16574
报记者	-16575
收集于	-16576
研究的	-16577
▁2014,	-16578
▁predicted	-16579
wan	-16580
届全国	-16581
职业技术	-16582
▁如今	-16583
以来的	-16584
身体的	-16585
四季	-16586
▁Ron	-16587
▁fails	-16588
▁voted	-16589
▁个	-16590
动脉	-16591
湾区	-16592
▁主要	-16593
在我们	-16594
Flow	-16595
▁defaults	-16596
=_	-16597
初始	-16598
手工	-16599
副主席	-16600
▁kil	-16601
▁choosing	-16602
▁explicitly	-16603
和我	-16604
洋葱	-16605
环球	-16606
▁Node	-16607
▁finds	-16608
▁Corpor	-16609
5、	-16610
复发	-16611
456	-16612
希望能	-16613
结构的	-16614
▁exposed	-16615
}.	-16616
不容	-16617
可怕	-16618
起诉	-16619
isa	-16620
相关资源	-16621
高等学校	-16622
Entry	-16623
ampion	-16624
▁legit	-16625
短暂	-16626
对应的	-16627
伊朗	-16628
一篇文章	-16629
screen	-16630
gi	-16631
检索	-16632
▁43	-16633
......	-16634
collection	-16635
8\	-16636
aints	-16637
若本站	-16638
▁Live	-16639
住院	-16640
细致	-16641
陈述	-16642
▁Kn	-16643
▁iPhone	-16644
▁proved	-16645
repr	-16646
▁href	-16647
▁Store	-16648
意愿	-16649
并不提供	-16650
orous	-16651
▁Ohio	-16652
中原	-16653
bet	-16654
▁lazy	-16655
▁talked	-16656
汉字	-16657
逾期	-16658
▁fold	-16659
▁merely	-16660
▁Michigan	-16661
exceptions	-16662
救助	-16663
甚至是	-16664
无意侵犯了	-16665
▁deeper	-16666
▁experimental	-16667
和安全	-16668
price	-16669
itivity	-16670
不宜	-16671
研究和	-16672
前行	-16673
对你	-16674
也可能	-16675
求职	-16676
种族	-16677
▁orbit	-16678
届时	-16679
移植	-16680
▁数据	-16681
▁mob	-16682
综艺	-16683
([[	-16684
若本站收录	-16685
▁Sche	-16686
▁losses	-16687
▁electricity	-16688
▁13,	-16689
就是一个	-16690
歧视	-16691
联络	-16692
▁Policy	-16693
▁functionality	-16694
考证	-16695
▁Ly	-16696
▁boys	-16697
▁Sports	-16698
▁earned	-16699
▁carrying	-16700
区间	-16701
干预	-16702
会影响	-16703
理事会	-16704
▁fib	-16705
助学贷款	-16706
▁educational	-16707
宁静	-16708
常识	-16709
▁immigr	-16710
像素	-16711
▁",	-16712
▁vo	-16713
举行的	-16714
类似的	-16715
burg	-16716
氨基	-16717
职场	-16718
▁Community	-16719
▁introduce	-16720
数百	-16721
hab	-16722
各大视频网站	-16723
▁Indust	-16724
台风	-16725
▁NC	-16726
编写一个	-16727
▁stead	-16728
加班	-16729
rium	-16730
的可能性	-16731
▁Rest	-16732
Facebook	-16733
留言	-16734
酰胺	-16735
十三条	-16736
通过对	-16737
▁1998	-16738
无意侵犯了贵司	-16739
忘了	-16740
土耳其	-16741
▁glo	-16742
▁gro	-16743
资源存储	-16744
▁adult	-16745
▁它	-16746
被人	-16747
较少	-16748
过程中的	-16749
▁neutral	-16750
70%	-16751
本赛季	-16752
▁1.5	-16753
▁displayed	-16754
每人	-16755
已经有	-16756
pathy	-16757
ocolate	-16758
极限	-16759
所有人	-16760
不断发展	-16761
▁impressive	-16762
。?	-16763
评定	-16764
pair	-16765
▁Lew	-16766
▁dot	-16767
▁dynamics	-16768
无意侵犯了贵司版权	-16769
cuss	-16770
Queue	-16771
，2016	-16772
▁newly	-16773
▁revers	-16774
▁shopping	-16775
队友	-16776
▁foods	-16777
两侧	-16778
夫人	-16779
弟弟	-16780
▁BY	-16781
轻易	-16782
一季度	-16783
]:	-16784
新车	-16785
现已	-16786
把自己	-16787
▁gene	-16788
▁Italy	-16789
我们将在第一时间	-16790
孵化	-16791
不少于	-16792
▁Low	-16793
▁fir	-16794
的车	-16795
211	-16796
220	-16797
▁exclusive	-16798
/>	-16799
不满	-16800
狮子	-16801
WARE	-16802
▁introduction	-16803
8_	-16804
…	-16805
6%，	-16806
▁VR	-16807
影响了	-16808
▁younger	-16809
布鲁	-16810
触摸	-16811
量化	-16812
bits	-16813
fa	-16814
▁(0.	-16815
▁fired	-16816
▁guidance	-16817
▁Ha	-16818
音频	-16819
题主	-16820
页面服务	-16821
irtual	-16822
▁sparse	-16823
BE	-16824
南昌	-16825
7%，	-16826
▁pa	-16827
▁上传	-16828
1200	-16829
1993	-16830
▁Brook	-16831
'"	-16832
不安	-16833
4.0	-16834
这样一个	-16835
omatic	-16836
▁giant	-16837
▁Sa	-16838
我们对	-16839
▁tank	-16840
寒冷	-16841
isely	-16842
=4	-16843
环氧	-16844
艰苦	-16845
震撼	-16846
云南省	-16847
也不参与录制	-16848
▁whereas	-16849
不止	-16850
与之	-16851
中介	-16852
做一个	-16853
形式的	-16854
生物学	-16855
命中	-16856
自学	-16857
('%	-16858
none	-16859
▁Tour	-16860
marker	-16861
探险	-16862
引起了	-16863
▁Pot	-16864
▁presentation	-16865
▁king	-16866
取得的	-16867
我相信	-16868
没有什么	-16869
▁comprom	-16870
▁69	-16871
马克思	-16872
rink	-16873
录音	-16874
▁Enc	-16875
depth	-16876
▁dance	-16877
影片资源存储	-16878
▁basket	-16879
aza	-16880
▁guest	-16881
▁Change	-16882
、5	-16883
所未	-16884
▁生成	-16885
▁Ask	-16886
2：	-16887
短短	-16888
nab	-16889
two	-16890
▁}	-16891
拯救	-16892
氯化	-16893
跟随	-16894
64_	-16895
▁72	-16896
▁Map	-16897
▁dogs	-16898
▁muscle	-16899
▁Language	-16900
监理	-16901
党组织	-16902
metic	-16903
▁producing	-16904
十一条	-16905
起来的	-16906
▁furn	-16907
▁targeted	-16908
▁水	-16909
Mon	-16910
什么时候	-16911
▁constants	-16912
了一场	-16913
▁Different	-16914
▁intellect	-16915
▁politicians	-16916
温柔	-16917
耐腐蚀	-16918
ologist	-16919
hr	-16920
一台	-16921
我还	-16922
揭示	-16923
azz	-16924
ragon	-16925
▁extensive	-16926
恶性	-16927
战役	-16928
之类的	-16929
本网站只提供	-16930
▁council	-16931
一杯	-16932
本着	-16933
dots	-16934
邮箱地址来信	-16935
家企业	-16936
显示屏	-16937
清华大学	-16938
并不提供影片资源存储	-16939
士兵	-16940
提问	-16941
在哪里	-16942
附近的	-16943
super	-16944
▁rating	-16945
界的	-16946
很多的	-16947
iner	-16948
为一体的	-16949
被认为是	-16950
asters	-16951
▁arrang	-16952
典范	-16953
厕所	-16954
征集	-16955
除外	-16956
ORS	-16957
▁obser	-16958
▁deleted	-16959
xxxx	-16960
▁Ire	-16961
▁threats	-16962
立场	-16963
难忘	-16964
170	-16965
有关的	-16966
夫妇	-16967
商业模式	-16968
▁milk	-16969
outing	-16970
specific	-16971
3，	-16972
愉悦	-16973
大地	-16974
自愿	-16975
pot	-16976
中午	-16977
麦克	-16978
都非常	-16979
reset	-16980
均系收集于	-16981
▁meetings	-16982
下属	-16983
'))	-16984
Session	-16985
华盛顿	-16986
合作的	-16987
contin	-16988
▁contributions	-16989
已经被	-16990
▁Joseph	-16991
gov	-16992
Resource	-16993
▁focusing	-16994
均系收集于各大视频网站	-16995
MAX	-16996
▁PO	-16997
是一件	-16998
▁dates	-16999
▁displ	-17000
▁fault	-17001
不幸	-17002
感的	-17003
▁Bat	-17004
不忘初心	-17005
衔接	-17006
回复谢谢	-17007
上来	-17008
代价	-17009
▁Die	-17010
十四条	-17011
mble	-17012
的名字	-17013
▁crash	-17014
做事	-17015
gb	-17016
测定	-17017
美团	-17018
▁unlikely	-17019
几何	-17020
是谁	-17021
numpy	-17022
▁Video	-17023
▁Simple	-17024
▁servers	-17025
插入	-17026
uls	-17027
处理与回复谢谢	-17028
我们将在第一时间处理与回复谢谢	-17029
▁Ep	-17030
▁Vari	-17031
请给邮箱地址来信	-17032
▁equality	-17033
OO	-17034
洗衣	-17035
▁variance	-17036
国资	-17037
▁2013,	-17038
dh	-17039
mk	-17040
切成	-17041
20,	-17042
平常	-17043
恶劣	-17044
犹太	-17045
▁Luc	-17046
▁org	-17047
▁alongside	-17048
号召	-17049
Eng	-17050
▁tu	-17051
▁第五	-17052
Hello	-17053
相关资源均系收集于各大视频网站	-17054
中超	-17055
苏宁	-17056
的双	-17057
▁performing	-17058
▁inspect	-17059
半场	-17060
是一款	-17061
▁passes	-17062
电动车	-17063
▁Indeed	-17064
▁argued	-17065
▁applying	-17066
战术	-17067
▁54	-17068
AutoField	-17069
3}	-17070
支持和	-17071
MET	-17072
▁je	-17073
效率和	-17074
ighters	-17075
26.	-17076
PUT	-17077
相关负责人	-17078
▁Common	-17079
▁suffering	-17080
iscal	-17081
▁raises	-17082
▁trained	-17083
▁magnitude	-17084
▁sequences	-17085
昨日	-17086
榜单	-17087
的理念	-17088
▁behaviour	-17089
▁wx	-17090
▁ske	-17091
▁atoms	-17092
▁gradient	-17093
工伤	-17094
沉浸	-17095
清新	-17096
竣工	-17097
那么多	-17098
▁Has	-17099
▁Sher	-17100
making	-17101
ati	-17102
的同学	-17103
9\	-17104
FE	-17105
就读	-17106
▁例如	-17107
▁这里	-17108
▁Following	-17109
在该	-17110
尼克	-17111
▁architecture	-17112
投产	-17113
洛阳	-17114
香味	-17115
特斯拉	-17116
▁Dar	-17117
▁Sov	-17118
▁Among	-17119
▁spark	-17120
将有	-17121
路口	-17122
的日子	-17123
ocab	-17124
▁Head	-17125
能不能	-17126
▁ethical	-17127
▁granted	-17128
>>	-17129
」。	-17130
葡萄牙	-17131
▁aimed	-17132
ractions	-17133
▁transactions	-17134
情景	-17135
社会各界	-17136
Filter	-17137
空白	-17138
▁Case	-17139
▁resc	-17140
▁vice	-17141
▁Syrian	-17142
▁promise	-17143
▁industries	-17144
aze	-17145
电子产品	-17146
▁Level	-17147
想着	-17148
▁LAT	-17149
angers	-17150
▁partition	-17151
州的	-17152
所说的	-17153
物理学	-17154
there	-17155
▁downt	-17156
▁enemy	-17157
▁guarantee	-17158
(4	-17159
▁dx	-17160
▁sensor	-17161
▁Spanish	-17162
反思	-17163
宪法	-17164
年限	-17165
曼联	-17166
电解	-17167
sex	-17168
▁日本	-17169
▁aside	-17170
▁bunch	-17171
一层	-17172
万物	-17173
▁Gi	-17174
增长率	-17175
▁meaningful	-17176
不清	-17177
导致了	-17178
wall	-17179
proto	-17180
ulous	-17181
仲裁	-17182
鉴于	-17183
opes	-17184
民营企业	-17185
▁Area	-17186
▁troops	-17187
影响的	-17188
period	-17189
▁refused	-17190
▁whenever	-17191
▁surprised	-17192
额外	-17193
▁(3)	-17194
cules	-17195
帮忙	-17196
蓬勃	-17197
有力的	-17198
▁最	-17199
处在	-17200
山脉	-17201
▁lift	-17202
amount	-17203
▁subprocess	-17204
接入	-17205
▁0.7	-17206
▁payments	-17207
鲜明	-17208
部门的	-17209
茅台	-17210
可根据	-17211
Length	-17212
储能	-17213
收缩	-17214
财报	-17215
▁forecast	-17216
真的很	-17217
ryption	-17218
▁deeply	-17219
▁magazine	-17220
质量和	-17221
▁cfg	-17222
▁genetic	-17223
▁utility	-17224
▁produces	-17225
▁landscape	-17226
Project	-17227
▁decline	-17228
jo	-17229
法语	-17230
共同努力	-17231
▁adopted	-17232
▁等	-17233
勇于	-17234
走访	-17235
[...]
