48000
0
1
2
3
<pad>	0.0
<s>	0.0
</s>	0.0
<unk>	0.0
<|stream|>	0.0
<|vision|>	0.0
<|endofvision|>	0.0
<|audio|>	0.0
<|endofaudio|>	0.0
<|think|>	0.0
<|endofthink|>	0.0
<|spike|>	0.0
<|tool_call|>	0.0
<|endoftool_call|>	0.0
<|system|>	0.0
<|endofsystem|>	0.0
<|user|>	0.0
<|endofuser|>	0.0
<|assistant|>	0.0
<|endofassistant|>	0.0
<0x00>	0.0
<0x01>	0.0
<0x02>	0.0
<0x03>	0.0
<0x04>	0.0
<0x05>	0.0
<0x06>	0.0
<0x07>	0.0
<0x08>	0.0
<0x09>	0.0
<0x0A>	0.0
<0x0B>	0.0
<0x0C>	0.0
<0x0D>	0.0
<0x0E>	0.0
<0x0F>	0.0
<0x10>	0.0
<0x11>	0.0
<0x12>	0.0
<0x13>	0.0
<0x14>	0.0
<0x15>	0.0
<0x16>	0.0
<0x17>	0.0
<0x18>	0.0
<0x19>	0.0
<0x1A>	0.0
<0x1B>	0.0
<0x1C>	0.0
<0x1D>	0.0
<0x1E>	0.0
<0x1F>	0.0
<0x20>	0.0
<0x21>	0.0
<0x22>	0.0
<0x23>	0.0
<0x24>	0.0
<0x25>	0.0
<0x26>	0.0
<0x27>	0.0
<0x28>	0.0
<0x29>	0.0
<0x2A>	0.0
<0x2B>	0.0
<0x2C>	0.0
<0x2D>	0.0
<0x2E>	0.0
<0x2F>	0.0
<0x30>	0.0
<0x31>	0.0
<0x32>	0.0
<0x33>	0.0
<0x34>	0.0
<0x35>	0.0
<0x36>	0.0
<0x37>	0.0
<0x38>	0.0
<0x39>	0.0
<0x3A>	0.0
<0x3B>	0.0
<0x3C>	0.0
<0x3D>	0.0
<0x3E>	0.0
<0x3F>	0.0
<0x40>	0.0
<0x41>	0.0
<0x42>	0.0
<0x43>	0.0
<0x44>	0.0
<0x45>	0.0
<0x46>	0.0
<0x47>	0.0
<0x48>	0.0
<0x49>	0.0
<0x4A>	0.0
<0x4B>	0.0
<0x4C>	0.0
<0x4D>	0.0
<0x4E>	0.0
<0x4F>	0.0
<0x50>	0.0
<0x51>	0.0
<0x52>	0.0
<0x53>	0.0
<0x54>	0.0
<0x55>	0.0
<0x56>	0.0
<0x57>	0.0
<0x58>	0.0
<0x59>	0.0
<0x5A>	0.0
<0x5B>	0.0
<0x5C>	0.0
<0x5D>	0.0
<0x5E>	0.0
<0x5F>	0.0
<0x60>	0.0
<0x61>	0.0
<0x62>	0.0
<0x63>	0.0
<0x64>	0.0
<0x65>	0.0
<0x66>	0.0
<0x67>	0.0
<0x68>	0.0
<0x69>	0.0
<0x6A>	0.0
<0x6B>	0.0
<0x6C>	0.0
<0x6D>	0.0
<0x6E>	0.0
<0x6F>	0.0
<0x70>	0.0
<0x71>	0.0
<0x72>	0.0
<0x73>	0.0
<0x74>	0.0
<0x75>	0.0
<0x76>	0.0
<0x77>	0.0
<0x78>	0.0
<0x79>	0.0
<0x7A>	0.0
<0x7B>	0.0
<0x7C>	0.0
<0x7D>	0.0
<0x7E>	0.0
<0x7F>	0.0
<0x80>	0.0
<0x81>	0.0
<0x82>	0.0
<0x83>	0.0
<0x84>	0.0
<0x85>	0.0
<0x86>	0.0
<0x87>	0.0
<0x88>	0.0
<0x89>	0.0
<0x8A>	0.0
<0x8B>	0.0
<0x8C>	0.0
<0x8D>	0.0
<0x8E>	0.0
<0x8F>	0.0
<0x90>	0.0
<0x91>	0.0
<0x92>	0.0
<0x93>	0.0
<0x94>	0.0
<0x95>	0.0
<0x96>	0.0
<0x97>	0.0
<0x98>	0.0
<0x99>	0.0
<0x9A>	0.0
<0x9B>	0.0
<0x9C>	0.0
<0x9D>	0.0
<0x9E>	0.0
<0x9F>	0.0
<0xA0>	0.0
<0xA1>	0.0
<0xA2>	0.0
<0xA3>	0.0
<0xA4>	0.0
<0xA5>	0.0
<0xA6>	0.0
<0xA7>	0.0
<0xA8>	0.0
<0xA9>	0.0
<0xAA>	0.0
<0xAB>	0.0
<0xAC>	0.0
<0xAD>	0.0
<0xAE>	0.0
<0xAF>	0.0
<0xB0>	0.0
<0xB1>	0.0
<0xB2>	0.0
<0xB3>	0.0
<0xB4>	0.0
<0xB5>	0.0
<0xB6>	0.0
<0xB7>	0.0
<0xB8>	0.0
<0xB9>	0.0
<0xBA>	0.0
<0xBB>	0.0
<0xBC>	0.0
<0xBD>	0.0
<0xBE>	0.0
<0xBF>	0.0
<0xC0>	0.0
<0xC1>	0.0
<0xC2>	0.0
<0xC3>	0.0
<0xC4>	0.0
<0xC5>	0.0
<0xC6>	0.0
<0xC7>	0.0
<0xC8>	0.0
<0xC9>	0.0
<0xCA>	0.0
<0xCB>	0.0
<0xCC>	0.0
<0xCD>	0.0
<0xCE>	0.0
<0xCF>	0.0
<0xD0>	0.0
<0xD1>	0.0
<0xD2>	0.0
<0xD3>	0.0
<0xD4>	0.0
<0xD5>	0.0
<0xD6>	0.0
<0xD7>	0.0
<0xD8>	0.0
<0xD9>	0.0
<0xDA>	0.0
<0xDB>	0.0
<0xDC>	0.0
<0xDD>	0.0
<0xDE>	0.0
<0xDF>	0.0
<0xE0>	0.0
<0xE1>	0.0
<0xE2>	0.0
<0xE3>	0.0
<0xE4>	0.0
<0xE5>	0.0
<0xE6>	0.0
<0xE7>	0.0
<0xE8>	0.0
<0xE9>	0.0
<0xEA>	0.0
<0xEB>	0.0
<0xEC>	0.0
<0xED>	0.0
<0xEE>	0.0
<0xEF>	0.0
<0xF0>	0.0
<0xF1>	0.0
<0xF2>	0.0
<0xF3>	0.0
<0xF4>	0.0
<0xF5>	0.0
<0xF6>	0.0
<0xF7>	0.0
<0xF8>	0.0
<0xF9>	0.0
<0xFA>	0.0
<0xFB>	0.0
<0xFC>	0.0
<0xFD>	0.0
<0xFE>	0.0
<0xFF>	0.0
..	-0.0
:“	-1.0
▁t	-2.0
。”	-3.0
he	-4.0
一个	-5.0
in	-6.0
....	-7.0
▁a	-8.0
我们	-9.0
什么	-10.0
on	-11.0
自己	-12.0
is	-13.0
re	-14.0
我的	-15.0
?”	-16.0
▁the	-17.0
没有	-18.0
an	-19.0
en	-20.0
▁s	-21.0
▁我	-22.0
er	-23.0
!”	-24.0
了一	-25.0
你的	-26.0
es	-27.0
at	-28.0
问题	-29.0
▁w	-30.0
▁p	-31.0
......	-32.0
▁c	-33.0
ing	-34.0
it	-35.0
他们	-36.0
不是	-37.0
可以	-38.0
ou	-39.0
▁-	-40.0
▁b	-41.0
le	-42.0
--	-43.0
就是	-44.0
知道	-45.0
时候	-46.0
or	-47.0
的人	-48.0
▁f	-49.0
到了	-50.0
这个	-51.0
ll	-52.0
▁m	-53.0
的一	-54.0
妈妈	-55.0
ar	-56.0
▁o	-57.0
喜欢	-58.0
也不	-59.0
因为	-60.0
▁n	-61.0
▁“	-62.0
还是	-63.0
ot	-64.0
中的	-65.0
怎么	-66.0
起来	-67.0
有一	-68.0
ion	-69.0
▁is	-70.0
▁in	-71.0
▁h	-72.0
▁"	-73.0
这样	-74.0
▁of	-75.0
▁你	-76.0
▁to	-77.0
nd	-78.0
▁d	-79.0
ed	-80.0
al	-81.0
现在	-82.0
as	-83.0
是一	-84.0
▁这	-85.0
om	-86.0
人的	-87.0
出来	-88.0
."	-89.0
ent	-90.0
如果	-91.0
ic	-92.0
说道	-93.0
回答	-94.0
一起	-95.0
时间	-96.0
他的	-97.0
不能	-98.0
然后	-99.0
都是	-100.0
已经	-101.0
▁th	-102.0
这一	-103.0
的时候	-104.0
开始	-105.0
进行	-106.0
ow	-107.0
世界	-108.0
朋友	-109.0
不会	-110.0
你们	-111.0
是我	-112.0
真的	-113.0
▁and	-114.0
一样	-115.0
那么	-116.0
▁O	-117.0
孩子	-118.0
让我	-119.0
自己的	-120.0
上的	-121.0
生活	-122.0
发现	-123.0
▁不	-124.0
”,	-125.0
老师	-126.0
所以	-127.0
中国	-128.0
br	-129.0
一直	-130.0
过程	-131.0
▁I	-132.0
觉得	-133.0
tion	-134.0
----	-135.0
os	-136.0
ce	-137.0
答案	-138.0
这么	-139.0
摘要	-140.0
的是	-141.0
ve	-142.0
第一	-143.0
的小	-144.0
突然	-145.0
还有	-146.0
好的	-147.0
▁一	-148.0
可是	-149.0
研究	-150.0
这些	-151.0
心中	-152.0
et	-153.0
但是	-154.0
不知	-155.0
大家	-156.0
最后	-157.0
两个	-158.0
▁y	-159.0
ay	-160.0
只是	-161.0
首歌	-162.0
▁T	-163.0
下来	-164.0
可能	-165.0
▁g	-166.0
▁l	-167.0
不过	-168.0
为了	-169.0
关键	-170.0
▁那	-171.0
感觉	-172.0
声音	-173.0
文章	-174.0
大的	-175.0
文本	-176.0
▁S	-177.0
▁在	-178.0
这里	-179.0
看到	-180.0
一定	-181.0
原来	-182.0
不要	-183.0
过去	-184.0
▁on	-185.0
一步	-186.0
也是	-187.0
很多	-188.0
为什么	-189.0
爸爸	-190.0
有的	-191.0
结果	-192.0
心里	-193.0
只有	-194.0
虽然	-195.0
阅读	-196.0
希望	-197.0
回答问题	-198.0
姑娘	-199.0
出了	-200.0
如何	-201.0
tions	-202.0
ac	-203.0
▁that	-204.0
思考	-205.0
▁it	-206.0
那个	-207.0
之后	-208.0
不同	-209.0
▁请	-210.0
面的	-211.0
▁A	-212.0
永远	-213.0
us	-214.0
,“	-215.0
关键词	-216.0
▁Op	-217.0
如此	-218.0
有人	-219.0
▁Options	-220.0
ir	-221.0
许多	-222.0
——	-223.0
的大	-224.0
非常	-225.0
给我	-226.0
工作	-227.0
东西	-228.0
不到	-229.0
▁摘要	-230.0
▁问题	-231.0
方法	-232.0
id	-233.0
之间	-234.0
分析	-235.0
▁阅读	-236.0
这是	-237.0
▁(	-238.0
地方	-239.0
通过	-240.0
公司	-241.0
需要	-242.0
来了	-243.0
多少	-244.0
一个人	-245.0
我不	-246.0
影响	-247.0
rem	-248.0
一下	-249.0
咱们	-250.0
ell	-251.0
这首歌	-252.0
一点	-253.0
am	-254.0
成了	-255.0
▁e	-256.0
两人	-257.0
ise	-258.0
ol	-259.0
来的	-260.0
一次	-261.0
▁H	-262.0
眼睛	-263.0
给出	-264.0
上了	-265.0
其实	-266.0
不住	-267.0
不得	-268.0
im	-269.0
▁B	-270.0
ig	-271.0
设计	-272.0
hes	-273.0
笑道	-274.0
第二	-275.0
以后	-276.0
终于	-277.0
心想	-278.0
今天	-279.0
”。	-280.0
ble	-281.0
▁C	-282.0
爱的	-283.0
il	-284.0
去了	-285.0
兄弟	-286.0
主要	-287.0
个人	-288.0
她的	-289.0
▁re	-290.0
听得	-291.0
一般	-292.0
▁no	-293.0
里的	-294.0
美丽	-295.0
......”	-296.0
remise	-297.0
!!	-298.0
快乐	-299.0
▁st	-300.0
只要	-301.0
音乐	-302.0
ro	-303.0
ad	-304.0
▁P	-305.0
幸福	-306.0
▁we	-307.0
叫道	-308.0
这种	-309.0
后来	-310.0
这时	-311.0
色的	-312.0
同时	-313.0
同学	-314.0
▁not	-315.0
认真	-316.0
发展	-317.0
ver	-318.0
应该	-319.0
自然	-320.0
故事	-321.0
的歌	-322.0
总是	-323.0
有些	-324.0
中的关键词	-325.0
看着	-326.0
yp	-327.0
听到	-328.0
于是	-329.0
),	-330.0
的话	-331.0
只见	-332.0
一些	-333.0
我就	-334.0
不可	-335.0
武功	-336.0
的事	-337.0
系统	-338.0
重要	-339.0
成为	-340.0
特别	-341.0
。。	-342.0
告诉	-343.0
一声	-344.0
它们	-345.0
我是	-346.0
▁yes	-347.0
si	-348.0
那些	-349.0
st	-350.0
哈哈	-351.0
国家	-352.0
过了	-353.0
师父	-354.0
之中	-355.0
看见	-356.0
el	-357.0
明白	-358.0
使用	-359.0
ur	-360.0
othes	-361.0
出现	-362.0
身上	-363.0
人们	-364.0
发生	-365.0
慢慢	-366.0
不敢	-367.0
理解	-368.0
每天	-369.0
you	-370.0
美国	-371.0
ypothes	-372.0
ypothesis	-373.0
过来	-374.0
十分	-375.0
走了	-376.0
句话	-377.0
认为	-378.0
而且	-379.0
在我	-380.0
我们的	-381.0
▁for	-382.0
离开	-383.0
以及	-384.0
ith	-385.0
其他	-386.0
▁W	-387.0
爱情	-388.0
对于	-389.0
all	-390.0
▁就	-391.0
的情	-392.0
不了	-393.0
ch	-394.0
▁他	-395.0
想起	-396.0
年的	-397.0
爱你	-398.0
社会	-399.0
努力	-400.0
是什么	-401.0
哪里	-402.0
and	-403.0
下的	-404.0
着一	-405.0
▁pos	-406.0
▁小	-407.0
别人	-408.0
想到	-409.0
了我	-410.0
在地	-411.0
▁by	-412.0
部分	-413.0
的心	-414.0
在一起	-415.0
出去	-416.0
不好	-417.0
oo	-418.0
关系	-419.0
所有	-420.0
作为	-421.0
识别	-422.0
给你	-423.0
来到	-424.0
身边	-425.0
生命	-426.0
enten	-427.0
轻轻	-428.0
学习	-429.0
ag	-430.0
爷爷	-431.0
无法	-432.0
几个	-433.0
因此	-434.0
当时	-435.0
城市	-436.0
给出你的	-437.0
记得	-438.0
小宝	-439.0
ke	-440.0
不知道	-441.0
sible	-442.0
选择	-443.0
her	-444.0
子的	-445.0
--------	-446.0
真是	-447.0
op	-448.0
根据	-449.0
作用	-450.0
▁tell	-451.0
住了	-452.0
比较	-453.0
其中	-454.0
ec	-455.0
回家	-456.0
▁possible	-457.0
th	-458.0
我也	-459.0
我想	-460.0
跟着	-461.0
▁The	-462.0
一天	-463.0
好像	-464.0
更加	-465.0
▁con	-466.0
父亲	-467.0
老人	-468.0
就像	-469.0
▁wh	-470.0
众人	-471.0
奶奶	-472.0
韦小宝	-473.0
就会	-474.0
un	-475.0
脸上	-476.0
▁M	-477.0
你是	-478.0
▁我的	-479.0
生的	-480.0
首先	-481.0
相信	-482.0
▁are	-483.0
说话	-484.0
不见	-485.0
曾经	-486.0
继续	-487.0
回来	-488.0
技术	-489.0
以为	-490.0
um	-491.0
儿子	-492.0
二人	-493.0
下去	-494.0
的一声	-495.0
采用	-496.0
胡斐	-497.0
存在	-498.0
会儿	-499.0
。“	-500.0
ter	-501.0
容易	-502.0
▁有	-503.0
▁with	-504.0
一只	-505.0
一切	-506.0
好听	-507.0
得到	-508.0
身体	-509.0
能够	-510.0
开心	-511.0
不再	-512.0
描述	-513.0
▁是	-514.0
母亲	-515.0
有什么	-516.0
我说	-517.0
承志	-518.0
下面的	-519.0
了一个	-520.0
天下	-521.0
大学	-522.0
正在	-523.0
▁man	-524.0
我在	-525.0
太阳	-526.0
是在	-527.0
ut	-528.0
的声音	-529.0
似乎	-530.0
entence	-531.0
▁D	-532.0
都不	-533.0
ud	-534.0
剑士	-535.0
先生	-536.0
范蠡	-537.0
都会	-538.0
来越	-539.0
成功	-540.0
身子	-541.0
见到	-542.0
路上	-543.0
▁r	-544.0
越来越	-545.0
之前	-546.0
也许	-547.0
▁我们	-548.0
被告	-549.0
▁be	-550.0
回到	-551.0
郭靖	-552.0
我要	-553.0
你说	-554.0
学校	-555.0
具有	-556.0
让人	-557.0
难道	-558.0
了起来	-559.0
经济	-560.0
一阵	-561.0
只能	-562.0
▁tr	-563.0
生成	-564.0
开了	-565.0
一人	-566.0
是个	-567.0
阳光	-568.0
晚上	-569.0
包括	-570.0
忽然	-571.0
人生	-572.0
▁当	-573.0
准备	-574.0
服务	-575.0
双手	-576.0
ht	-577.0
▁do	-578.0
👍👍	-579.0
ue	-580.0
好了	-581.0
se	-582.0
女孩	-583.0
温暖	-584.0
▁G	-585.0
ile	-586.0
▁fr	-587.0
由于	-588.0
治疗	-589.0
ation	-590.0
一种	-591.0
声道	-592.0
是一个	-593.0
下了	-594.0
不起	-595.0
令狐	-596.0
取出	-597.0
随着	-598.0
站在	-599.0
死了	-600.0
让你	-601.0
一片	-602.0
运动	-603.0
地区	-604.0
才能	-605.0
地说	-606.0
它的	-607.0
正是	-608.0
便是	-609.0
回忆	-610.0
the	-611.0
高兴	-612.0
在这	-613.0
不错	-614.0
怎样	-615.0
以前	-616.0
控制	-617.0
过的	-618.0
if	-619.0
起了	-620.0
放在	-621.0
ain	-622.0
▁阅读理解	-623.0
英雄	-624.0
李文	-625.0
走到	-626.0
iv	-627.0
表明	-628.0
问道	-629.0
▁从	-630.0
父母	-631.0
坐在	-632.0
提供	-633.0
><	-634.0
也有	-635.0
好好	-636.0
李文秀	-637.0
衣服	-638.0
变化	-639.0
名字	-640.0
ap	-641.0
▁爱	-642.0
变得	-643.0
任何	-644.0
看看	-645.0
ts	-646.0
心的	-647.0
环境	-648.0
▁文章	-649.0
ill	-650.0
三个	-651.0
说着	-652.0
评论	-653.0
的手	-654.0
对方	-655.0
了几	-656.0
各种	-657.0
的地方	-658.0
都有	-659.0
带着	-660.0
或者	-661.0
自由	-662.0
杨过	-663.0
少年	-664.0
一边	-665.0
女儿	-666.0
支持	-667.0
ul	-668.0
为你	-669.0
▁an	-670.0
动物	-671.0
天空	-672.0
to	-673.0
决定	-674.0
哥哥	-675.0
信息	-676.0
不出	-677.0
推理	-678.0
的那	-679.0
保护	-680.0
弟子	-681.0
左右	-682.0
听了	-683.0
主题	-684.0
游戏	-685.0
狄云	-686.0
见他	-687.0
袁承志	-688.0
多的	-689.0
并不	-690.0
伸手	-691.0
:‘	-692.0
ers	-693.0
一条	-694.0
结构	-695.0
无忌	-696.0
给他	-697.0
情况	-698.0
。<	-699.0
家里	-700.0
要求	-701.0
很好	-702.0
ly	-703.0
▁只	-704.0
▁can	-705.0
利用	-706.0
少女	-707.0
今日	-708.0
也没	-709.0
想要	-710.0
我和	-711.0
里面	-712.0
人民	-713.0
感到	-714.0
历史	-715.0
数据	-716.0
有点	-717.0
文化	-718.0
cl	-719.0
上一	-720.0
然而	-721.0
每次	-722.0
令狐冲	-723.0
精神	-724.0
经过	-725.0
手中	-726.0
长剑	-727.0
中心	-728.0
之下	-729.0
让我们	-730.0
提高	-731.0
找到	-732.0
简单	-733.0
新的	-734.0
是否	-735.0
世纪	-736.0
管理	-737.0
思考过程	-738.0
这样的	-739.0
大哥	-740.0
▁L	-741.0
安全	-742.0
甚至	-743.0
表达	-744.0
ab	-745.0
政府	-746.0
到底	-747.0
▁谁	-748.0
处理	-749.0
em	-750.0
天的	-751.0
长的	-752.0
一生	-753.0
能力	-754.0
除了	-755.0
感情	-756.0
说了	-757.0
得了	-758.0
第一次	-759.0
仿佛	-760.0
你不	-761.0
变成	-762.0
▁如果	-763.0
忘记	-764.0
ove	-765.0
此时	-766.0
活动	-767.0
江湖	-768.0
日子	-769.0
原因	-770.0
温柔	-771.0
...	-772.0
▁hypothesis	-773.0
方式	-774.0
眼前	-775.0
▁=	-776.0
▁premise	-777.0
北京	-778.0
分别	-779.0
The	-780.0
爹爹	-781.0
那是	-782.0
眼泪	-783.0
识别出	-784.0
黄蓉	-785.0
坚持	-786.0
那里	-787.0
青春	-788.0
▁at	-789.0
面前	-790.0
上去	-791.0
》,	-792.0
ore	-793.0
真正	-794.0
不断	-795.0
左手	-796.0
夫人	-797.0
件事	-798.0
年轻	-799.0
ld	-800.0
功能	-801.0
直到	-802.0
了他	-803.0
学生	-804.0
谢谢	-805.0
一笑	-806.0
时光	-807.0
计算	-808.0
不由	-809.0
."?	-810.0
着我	-811.0
有了	-812.0
美的	-813.0
有一个	-814.0
下面的问题	-815.0
渐渐	-816.0
题目	-817.0
▁k	-818.0
▁he	-819.0
也没有	-820.0
▁as	-821.0
是你	-822.0
完全	-823.0
来说	-824.0
文本中的关键词	-825.0
点头	-826.0
一年	-827.0
当然	-828.0
模型	-829.0
无论	-830.0
害怕	-831.0
小的	-832.0
电影	-833.0
方面	-834.0
十年	-835.0
导致	-836.0
是谁	-837.0
文中的关键词	-838.0
ight	-839.0
改变	-840.0
健康	-841.0
最终	-842.0
增加	-843.0
早已	-844.0
组织	-845.0
满了	-846.0
还要	-847.0
进入	-848.0
本来	-849.0
基于	-850.0
▁但	-851.0
up	-852.0
还在	-853.0
手机	-854.0
一看	-855.0
喝道	-856.0
梦想	-857.0
相关	-858.0
▁pl	-859.0
张无忌	-860.0
小心	-861.0
小时	-862.0
而是	-863.0
now	-864.0
不及	-865.0
中文	-866.0
est	-867.0
家的	-868.0
目前	-869.0
🌹🌹	-870.0
帮助	-871.0
啦啦	-872.0
效果	-873.0
电视	-874.0
美丽的	-875.0
大声	-876.0
实现	-877.0
功夫	-878.0
)。	-879.0
翻译	-880.0
不在	-881.0
基础	-882.0
基本	-883.0
多么	-884.0
样子	-885.0
清楚	-886.0
属于	-887.0
并且	-888.0
公主	-889.0
our	-890.0
经历	-891.0
必须	-892.0
第三	-893.0
放弃	-894.0
▁sh	-895.0
意思	-896.0
电话	-897.0
是不是	-898.0
未来	-899.0
子里	-900.0
ang	-901.0
不想	-902.0
一位	-903.0
医院	-904.0
他们的	-905.0
注意	-906.0
所有的	-907.0
女人	-908.0
他说	-909.0
我的心	-910.0
分钟	-911.0
进了	-912.0
me	-913.0
愿意	-914.0
经常	-915.0
▁Premise	-916.0
着你	-917.0
每个	-918.0
样的	-919.0
石破	-920.0
市场	-921.0
人员	-922.0
在他	-923.0
记忆	-924.0
都在	-925.0
out	-926.0
把我	-927.0
▁回答问题	-928.0
表示	-929.0
不用	-930.0
厉害	-931.0
之一	-932.0
女子	-933.0
回头	-934.0
ome	-935.0
教育	-936.0
科学	-937.0
性的	-938.0
比赛	-939.0
有效	-940.0
太多	-941.0
▁F	-942.0
整个	-943.0
出的	-944.0
条件	-945.0
就在	-946.0
这位	-947.0
微笑	-948.0
了个	-949.0
有一天	-950.0
石破天	-951.0
打开	-952.0
一会儿	-953.0
右手	-954.0
这次	-955.0
日本	-956.0
三人	-957.0
也会	-958.0
的好	-959.0
口气	-960.0
认真地	-961.0
ack	-962.0
方向	-963.0
▁答案	-964.0
clud	-965.0
应用	-966.0
建立	-967.0
实在	-968.0
不仅	-969.0
伤心	-970.0
不停	-971.0
▁from	-972.0
知识	-973.0
一步一步	-974.0
寂寞	-975.0
▁ent	-976.0
感受	-977.0
不管	-978.0
依然	-979.0
▁,	-980.0
od	-981.0
有个	-982.0
对我	-983.0
看了	-984.0
的我	-985.0
qu	-986.0
就算	-987.0
马上	-988.0
人家	-989.0
明显	-990.0
king	-991.0
遇到	-992.0
仔细	-993.0
age	-994.0
▁ch	-995.0
微微	-996.0
从来	-997.0
直接	-998.0
进行了	-999.0
one	-1000.0
拥有	-1001.0
面对	-1002.0
长大	-1003.0
后的	-1004.0
意义	-1005.0
国王	-1006.0
我会	-1007.0
▁描述	-1008.0
望着	-1009.0
食物	-1010.0
在这里	-1011.0
▁她	-1012.0
是一种	-1013.0
理论	-1014.0
tr	-1015.0
等待	-1016.0
了解	-1017.0
英国	-1018.0
始终	-1019.0
男人	-1020.0
一名	-1021.0
主人	-1022.0
味道	-1023.0
▁题目	-1024.0
▁was	-1025.0
▁N	-1026.0
我一	-1027.0
这个问题	-1028.0
皇帝	-1029.0
得很	-1030.0
▁大	-1031.0
得出	-1032.0
目的	-1033.0
就要	-1034.0
网络	-1035.0
▁抽	-1036.0
ake	-1037.0
有时	-1038.0
认识	-1039.0
▁Is	-1040.0
推理过程	-1041.0
ren	-1042.0
给出你的推理过程	-1043.0
不少	-1044.0
ave	-1045.0
res	-1046.0
转身	-1047.0
地上	-1048.0
最好	-1049.0
当年	-1050.0
时代	-1051.0
出一	-1052.0
倘若	-1053.0
性命	-1054.0
主义	-1055.0
你要	-1056.0
▁抽取出	-1057.0
ive	-1058.0
作业	-1059.0
iled	-1060.0
▁com	-1061.0
认真地思考	-1062.0
clude	-1063.0
▁R	-1064.0
果然	-1065.0
行为	-1066.0
ear	-1067.0
事情	-1068.0
那人	-1069.0
二十	-1070.0
传统	-1071.0
你在	-1072.0
代表	-1073.0
男孩	-1074.0
的爱	-1075.0
ailed	-1076.0
陈家	-1077.0
头发	-1078.0
wo	-1079.0
la	-1080.0
帮我	-1081.0
留下	-1082.0
只好	-1083.0
一定要	-1084.0
每一	-1085.0
大笑	-1086.0
ong	-1087.0
漂亮	-1088.0
如今	-1089.0
rou	-1090.0
说的	-1091.0
成的	-1092.0
接受	-1093.0
见了	-1094.0
▁Hypothesis	-1095.0
表现	-1096.0
▁entailed	-1097.0
奇怪	-1098.0
感谢	-1099.0
▁conclude	-1100.0
却是	-1101.0
▁E	-1102.0
那一	-1103.0
▁his	-1104.0
接着	-1105.0
▁再	-1106.0
获得	-1107.0
art	-1108.0
习惯	-1109.0
师兄	-1110.0
▁天	-1111.0
陈家洛	-1112.0
的风	-1113.0
即使	-1114.0
忘了	-1115.0
还没	-1116.0
敌人	-1117.0
感动	-1118.0
学会	-1119.0
当真	-1120.0
oun	-1121.0
空间	-1122.0
和你	-1123.0
不禁	-1124.0
ard	-1125.0
▁J	-1126.0
▁这段	-1127.0
办法	-1128.0
oc	-1129.0
建议	-1130.0
登时	-1131.0
上来	-1132.0
▁Y	-1133.0
企业	-1134.0
明天	-1135.0
进去	-1136.0
回去	-1137.0
全身	-1138.0
全部	-1139.0
产生	-1140.0
机会	-1141.0
关于	-1142.0
了出来	-1143.0
▁主题	-1144.0
力量	-1145.0
和我	-1146.0
尽管	-1147.0
人类	-1148.0
狐狸	-1149.0
ind	-1150.0
患者	-1151.0
定的	-1152.0
价值	-1153.0
不动	-1154.0
结束	-1155.0
这才	-1156.0
ip	-1157.0
脚步	-1158.0
剑法	-1159.0
后面	-1160.0
ich	-1161.0
岁月	-1162.0
或许	-1163.0
加油	-1164.0
▁想	-1165.0
▁可	-1166.0
思想	-1167.0
不如	-1168.0
不多	-1169.0
国际	-1170.0
珍惜	-1171.0
思念	-1172.0
uc	-1173.0
ant	-1174.0
为何	-1175.0
你这	-1176.0
质量	-1177.0
▁无	-1178.0
一时	-1179.0
被告人	-1180.0
▁这段文本	-1181.0
高的	-1182.0
ies	-1183.0
的影响	-1184.0
向前	-1185.0
ide	-1186.0
摇头	-1187.0
难以	-1188.0
苏普	-1189.0
显示	-1190.0
阿青	-1191.0
了下来	-1192.0
产品	-1193.0
会有	-1194.0
辈子	-1195.0
杀了	-1196.0
他是	-1197.0
结合	-1198.0
速度	-1199.0
在一	-1200.0
结果表明	-1201.0
水平	-1202.0
)、	-1203.0
居然	-1204.0
立即	-1205.0
春天	-1206.0
eop	-1207.0
悄悄	-1208.0
几乎	-1209.0
国的	-1210.0
门口	-1211.0
ate	-1212.0
大叫	-1213.0
另外	-1214.0
be	-1215.0
介绍	-1216.0
▁你的	-1217.0
那样	-1218.0
生成摘要	-1219.0
发出	-1220.0
竟然	-1221.0
实验	-1222.0
eople	-1223.0
▁this	-1224.0
一场	-1225.0
end	-1226.0
生产	-1227.0
姐姐	-1228.0
反应	-1229.0
有多	-1230.0
今年	-1231.0
ie	-1232.0
还能	-1233.0
▁sentence	-1234.0
适合	-1235.0
▁识别出	-1236.0
艺术	-1237.0
眼见	-1238.0
目标	-1239.0
▁心	-1240.0
仍然	-1241.0
的东西	-1242.0
给了	-1243.0
不由得	-1244.0
提出	-1245.0
说不	-1246.0
多年	-1247.0
担心	-1248.0
令人	-1249.0
作品	-1250.0
期待	-1251.0
之时	-1252.0
忍不住	-1253.0
美好	-1254.0
可爱	-1255.0
重新	-1256.0
工程	-1257.0
丈夫	-1258.0
现代	-1259.0
进来	-1260.0
深深	-1261.0
▁别	-1262.0
跟我	-1263.0
内容	-1264.0
▁Sentence	-1265.0
积极	-1266.0
孤独	-1267.0
上面	-1268.0
标准	-1269.0
那时	-1270.0
默默	-1271.0
下面	-1272.0
my	-1273.0
年纪	-1274.0
细胞	-1275.0
称为	-1276.0
听着	-1277.0
营养	-1278.0
▁根据	-1279.0
一把	-1280.0
答应	-1281.0
ist	-1282.0
出手	-1283.0
都要	-1284.0
ne	-1285.0
他在	-1286.0
帮主	-1287.0
头上	-1288.0
----------------	-1289.0
fe	-1290.0
的感觉	-1291.0
下一	-1292.0
是不	-1293.0
参加	-1294.0
▁首先	-1295.0
▁对于	-1296.0
旁边	-1297.0
妹妹	-1298.0
▁or	-1299.0
几天	-1300.0
。’	-1301.0
来自	-1302.0
了什么	-1303.0
▁因为	-1304.0
根本	-1305.0
👏👏	-1306.0
的花	-1307.0
风吹	-1308.0
解决	-1309.0
保持	-1310.0
只怕	-1311.0
建设	-1312.0
家人	-1313.0
下文中的关键词	-1314.0
干净	-1315.0
特征	-1316.0
ess	-1317.0
之外	-1318.0
走进	-1319.0
此刻	-1320.0
同学们	-1321.0
的一个	-1322.0
不懂	-1323.0
ass	-1324.0
消息	-1325.0
▁所以	-1326.0
唯一	-1327.0
似的	-1328.0
又是	-1329.0
民族	-1330.0
实际	-1331.0
瞬间	-1332.0
呼吸	-1333.0
▁v	-1334.0
▁关键词	-1335.0
寻找	-1336.0
很快	-1337.0
人人	-1338.0
空气	-1339.0
夫妇	-1340.0
成长	-1341.0
▁pro	-1342.0
ep	-1343.0
当下	-1344.0
最好的	-1345.0
婆婆	-1346.0
男子	-1347.0
因素	-1348.0
所谓	-1349.0
一张	-1350.0
▁情	-1351.0
材料	-1352.0
受伤	-1353.0
极了	-1354.0
森林	-1355.0
老鼠	-1356.0
值得	-1357.0
失去	-1358.0
oll	-1359.0
ood	-1360.0
唱歌	-1361.0
oy	-1362.0
难过	-1363.0
%,	-1364.0
宝宝	-1365.0
有一种	-1366.0
调查	-1367.0
度的	-1368.0
考试	-1369.0
我又	-1370.0
兵刃	-1371.0
期间	-1372.0
再次	-1373.0
翻译成	-1374.0
你就	-1375.0
ity	-1376.0
家庭	-1377.0
中慧	-1378.0
陪伴	-1379.0
生气	-1380.0
植物	-1381.0
现实	-1382.0
一句	-1383.0
有关	-1384.0
ber	-1385.0
▁$	-1386.0
让他	-1387.0
变成了	-1388.0
吃了	-1389.0
专业	-1390.0
多了	-1391.0
标题	-1392.0
记者	-1393.0
肯定	-1394.0
两位	-1395.0
建筑	-1396.0
颜色	-1397.0
成绩	-1398.0
她们	-1399.0
手指	-1400.0
在你	-1401.0
比如	-1402.0
痛苦	-1403.0
证明	-1404.0
才是	-1405.0
答案是	-1406.0
,,	-1407.0
为我	-1408.0
充满	-1409.0
▁阅读文章	-1410.0
名的	-1411.0
▁wom	-1412.0
模样	-1413.0
从此	-1414.0
身旁	-1415.0
引起	-1416.0
我知道	-1417.0
地道	-1418.0
也不会	-1419.0
十二	-1420.0
汉子	-1421.0
▁啊	-1422.0
▁me	-1423.0
吴国	-1424.0
的高	-1425.0
解答	-1426.0
身后	-1427.0
这般	-1428.0
将他	-1429.0
也要	-1430.0
for	-1431.0
上前	-1432.0
抓住	-1433.0
空中	-1434.0
▁true	-1435.0
见过	-1436.0
跟你	-1437.0
纷纷	-1438.0
医生	-1439.0
这句话	-1440.0
▁j	-1441.0
喜欢你	-1442.0
原告	-1443.0
和尚	-1444.0
看来	-1445.0
还不	-1446.0
严重	-1447.0
一块	-1448.0
大师	-1449.0
正常	-1450.0
模式	-1451.0
各位	-1452.0
性能	-1453.0
普通	-1454.0
最近	-1455.0
也很	-1456.0
吃饭	-1457.0
休息	-1458.0
了一下	-1459.0
你会	-1460.0
我觉得	-1461.0
中间	-1462.0
千万	-1463.0
受到	-1464.0
听说	-1465.0
歌词	-1466.0
▁没有	-1467.0
身来	-1468.0
笑容	-1469.0
不去	-1470.0
银行	-1471.0
第二天	-1472.0
彼此	-1473.0
我去	-1474.0
前面	-1475.0
政治	-1476.0
有一次	-1477.0
人在	-1478.0
不同的	-1479.0
怎么办	-1480.0
武林	-1481.0
相对	-1482.0
xx	-1483.0
某某	-1484.0
分手	-1485.0
弟弟	-1486.0
远远	-1487.0
现场	-1488.0
ach	-1489.0
要是	-1490.0
年代	-1491.0
翻译成中文	-1492.0
却又	-1493.0
▁对	-1494.0
▁ne	-1495.0
唱的	-1496.0
的老	-1497.0
ak	-1498.0
伤害	-1499.0
妻子	-1500.0
就不	-1501.0
四个	-1502.0
勇敢	-1503.0
完了	-1504.0
温度	-1505.0
生物	-1506.0
外面	-1507.0
▁sp	-1508.0
hen	-1509.0
体育	-1510.0
房间	-1511.0
本文	-1512.0
只得	-1513.0
少林	-1514.0
我还	-1515.0
说是	-1516.0
风雨	-1517.0
语言	-1518.0
胸口	-1519.0
ased	-1520.0
心情	-1521.0
困难	-1522.0
在大	-1523.0
拿着	-1524.0
急忙	-1525.0
笑着	-1526.0
丰富	-1527.0
联系	-1528.0
一路	-1529.0
达到	-1530.0
三年	-1531.0
▁bl	-1532.0
以来	-1533.0
降低	-1534.0
▁does	-1535.0
ust	-1536.0
▁看	-1537.0
一刀	-1538.0
无人	-1539.0
上有	-1540.0
消失	-1541.0
▁play	-1542.0
▁标题	-1543.0
▁le	-1544.0
再也	-1545.0
每个人	-1546.0
无奈	-1547.0
战争	-1548.0
大人	-1549.0
以上	-1550.0
山派	-1551.0
可惜	-1552.0
更多	-1553.0
一个个	-1554.0
有限	-1555.0
的事情	-1556.0
想你	-1557.0
计划	-1558.0
心下	-1559.0
责任	-1560.0
时的	-1561.0
▁has	-1562.0
减少	-1563.0
开发	-1564.0
两名	-1565.0
、“	-1566.0
勾践	-1567.0
用于	-1568.0
own	-1569.0
萧中慧	-1570.0
入了	-1571.0
算法	-1572.0
都没有	-1573.0
当我	-1574.0
资源	-1575.0
缓缓	-1576.0
睡觉	-1577.0
关注	-1578.0
距离	-1579.0
带来	-1580.0
把你	-1581.0
就能	-1582.0
子上	-1583.0
图书	-1584.0
四人	-1585.0
做的	-1586.0
夫妻	-1587.0
时期	-1588.0
舒适	-1589.0
的水	-1590.0
将军	-1591.0
是因为	-1592.0
否则	-1593.0
尤其	-1594.0
ting	-1595.0
都能	-1596.0
are	-1597.0
过程中	-1598.0
苹果	-1599.0
月亮	-1600.0
一惊	-1601.0
十八	-1602.0
▁要	-1603.0
立刻	-1604.0
old	-1605.0
那天	-1606.0
形成	-1607.0
的样子	-1608.0
手里	-1609.0
显得	-1610.0
▁文	-1611.0
▁ex	-1612.0
夏天	-1613.0
冬天	-1614.0
一眼	-1615.0
价格	-1616.0
刚才	-1617.0
iven	-1618.0
却不	-1619.0
道理	-1620.0
但我	-1621.0
▁对于下面的问题	-1622.0
听见	-1623.0
星星	-1624.0
在下	-1625.0
多数	-1626.0
得出答案	-1627.0
皮肤	-1628.0
动手	-1629.0
然后得出答案	-1630.0
疾病	-1631.0
公子	-1632.0
真心	-1633.0
ks	-1634.0
ine	-1635.0
做了	-1636.0
本书	-1637.0
歌曲	-1638.0
love	-1639.0
观察	-1640.0
叫我	-1641.0
放下	-1642.0
附近	-1643.0
内心	-1644.0
ia	-1645.0
年来	-1646.0
认真思考	-1647.0
聪明	-1648.0
目光	-1649.0
解释	-1650.0
爱我	-1651.0
读书	-1652.0
试验	-1653.0
▁根据文章	-1654.0
遇见	-1655.0
owing	-1656.0
毕业	-1657.0
后悔	-1658.0
考虑	-1659.0
向他	-1660.0
就可以	-1661.0
检查	-1662.0
脑袋	-1663.0
ure	-1664.0
项目	-1665.0
的生活	-1666.0
熟悉	-1667.0
了你	-1668.0
昨天	-1669.0
把它	-1670.0
的不	-1671.0
we	-1672.0
说出	-1673.0
平时	-1674.0
了吧	-1675.0
这小	-1676.0
物质	-1677.0
位置	-1678.0
交通	-1679.0
无数	-1680.0
说完	-1681.0
赶紧	-1682.0
▁人	-1683.0
评价	-1684.0
明明	-1685.0
共同	-1686.0
一面	-1687.0
分布	-1688.0
含量	-1689.0
看到了	-1690.0
最大的	-1691.0
掌门	-1692.0
当即	-1693.0
状态	-1694.0
之间的	-1695.0
确定	-1696.0
蝴蝶	-1697.0
▁wor	-1698.0
兔子	-1699.0
对你	-1700.0
还会	-1701.0
▁请一步一步	-1702.0
周围	-1703.0
▁让	-1704.0
更是	-1705.0
泪水	-1706.0
用的	-1707.0
稳定	-1708.0
力的	-1709.0
不上	-1710.0
我很	-1711.0
通常	-1712.0
国内	-1713.0
▁al	-1714.0
另一个	-1715.0
▁people	-1716.0
之人	-1717.0
完成	-1718.0
何必	-1719.0
范围	-1720.0
了两	-1721.0
没想到	-1722.0
一齐	-1723.0
吃的	-1724.0
针对	-1725.0
超过	-1726.0
头来	-1727.0
享受	-1728.0
▁韦小宝	-1729.0
领导	-1730.0
并没有	-1731.0
理想	-1732.0
哪个	-1733.0
这就是	-1734.0
ct	-1735.0
叫做	-1736.0
这件事	-1737.0
经典	-1738.0
都很	-1739.0
▁而	-1740.0
到处	-1741.0
说明	-1742.0
天气	-1743.0
龙女	-1744.0
ild	-1745.0
想着	-1746.0
自行	-1747.0
世界上	-1748.0
og	-1749.0
程度	-1750.0
静静	-1751.0
▁好	-1752.0
▁If	-1753.0
拥抱	-1754.0
喜欢的	-1755.0
▁输	-1756.0
▁又	-1757.0
不肯	-1758.0
拿起	-1759.0
没人	-1760.0
满足	-1761.0
av	-1762.0
耳朵	-1763.0
天地	-1764.0
小姐	-1765.0
脸色	-1766.0
很久	-1767.0
特点	-1768.0
请你	-1769.0
如下	-1770.0
造成	-1771.0
的情况	-1772.0
方便	-1773.0
独立	-1774.0
的问题	-1775.0
of	-1776.0
上海	-1777.0
在了	-1778.0
ast	-1779.0
▁却	-1780.0
笑了	-1781.0
依旧	-1782.0
大量	-1783.0
吓得	-1784.0
制作	-1785.0
我心	-1786.0
汽车	-1787.0
蛋白	-1788.0
体的	-1789.0
点了	-1790.0
位于	-1791.0
站起	-1792.0
段誉	-1793.0
教主	-1794.0
紧张	-1795.0
生长	-1796.0
的时间	-1797.0
背后	-1798.0
机构	-1799.0
石头	-1800.0
▁se	-1801.0
不足	-1802.0
往往	-1803.0
irl	-1804.0
利亚	-1805.0
▁foll	-1806.0
黑暗	-1807.0
这人	-1808.0
我都	-1809.0
孤单	-1810.0
最大	-1811.0
欢喜	-1812.0
一动	-1813.0
显著	-1814.0
平均	-1815.0
ice	-1816.0
▁阿	-1817.0
青衣	-1818.0
在地下	-1819.0
第一个	-1820.0
ment	-1821.0
▁老	-1822.0
aby	-1823.0
不成	-1824.0
危险	-1825.0
社区	-1826.0
循环	-1827.0
最高	-1828.0
行动	-1829.0
告诉我	-1830.0
▁/	-1831.0
全国	-1832.0
ge	-1833.0
▁Wh	-1834.0
在我的	-1835.0
教室	-1836.0
公园	-1837.0
房子	-1838.0
走出	-1839.0
歌手	-1840.0
大夫	-1841.0
天天	-1842.0
说到	-1843.0
悲伤	-1844.0
压力	-1845.0
满脸	-1846.0
既然	-1847.0
穿着	-1848.0
瞧瞧	-1849.0
小说	-1850.0
▁用	-1851.0
丝毫	-1852.0
常常	-1853.0
什么时候	-1854.0
就这样	-1855.0
!!!	-1856.0
片刻	-1857.0
蒙古	-1858.0
几年	-1859.0
安慰	-1860.0
银子	-1861.0
不觉	-1862.0
▁这时	-1863.0
无比	-1864.0
说得	-1865.0
他一	-1866.0
▁woman	-1867.0
好多	-1868.0
秋天	-1869.0
综合	-1870.0
👍👍👍👍	-1871.0
高手	-1872.0
行的	-1873.0
形式	-1874.0
失败	-1875.0
一个小	-1876.0
▁one	-1877.0
欧阳	-1878.0
皇上	-1879.0
下午	-1880.0
对手	-1881.0
很有	-1882.0
ame	-1883.0
之事	-1884.0
土地	-1885.0
当地	-1886.0
ould	-1887.0
放心	-1888.0
数学	-1889.0
女性	-1890.0
三十	-1891.0
再说	-1892.0
那种	-1893.0
给人	-1894.0
相互	-1895.0
干什么	-1896.0
内力	-1897.0
了这	-1898.0
勇气	-1899.0
加上	-1900.0
way	-1901.0
地下	-1902.0
的新	-1903.0
推荐	-1904.0
互相	-1905.0
的光	-1906.0
说过	-1907.0
百姓	-1908.0
图书馆	-1909.0
毕竟	-1910.0
窗外	-1911.0
经验	-1912.0
垃圾	-1913.0
边的	-1914.0
错了	-1915.0
▁de	-1916.0
确实	-1917.0
从前	-1918.0
的故事	-1919.0
学院	-1920.0
远处	-1921.0
吸引	-1922.0
照片	-1923.0
秘密	-1924.0
▁us	-1925.0
▁也	-1926.0
人间	-1927.0
心头	-1928.0
事实	-1929.0
白的	-1930.0
小人	-1931.0
时尚	-1932.0
▁把	-1933.0
迅速	-1934.0
坚强	-1935.0
大地	-1936.0
独自	-1937.0
背上	-1938.0
合作	-1939.0
别的	-1940.0
▁让我	-1941.0
负责	-1942.0
ree	-1943.0
之处	-1944.0
政策	-1945.0
中有	-1946.0
一颗	-1947.0
部门	-1948.0
不久	-1949.0
紧紧	-1950.0
结婚	-1951.0
等等	-1952.0
又有	-1953.0
鸡蛋	-1954.0
不必	-1955.0
▁不要	-1956.0
不相	-1957.0
月光	-1958.0
照顾	-1959.0
走过	-1960.0
▁现在	-1961.0
一根	-1962.0
是我的	-1963.0
床上	-1964.0
真实	-1965.0
报道	-1966.0
外婆	-1967.0
▁following	-1968.0
提起	-1969.0
的美	-1970.0
反而	-1971.0
家乡	-1972.0
▁范蠡	-1973.0
等你	-1974.0
夜里	-1975.0
师哥	-1976.0
蚂蚁	-1977.0
ally	-1978.0
出来的	-1979.0
▁her	-1980.0
的身	-1981.0
两只	-1982.0
一听	-1983.0
之极	-1984.0
了一声	-1985.0
台湾	-1986.0
心道	-1987.0
投资	-1988.0
穴道	-1989.0
美好的	-1990.0
再见	-1991.0
欧洲	-1992.0
做出	-1993.0
门外	-1994.0
叶子	-1995.0
法律	-1996.0
个月	-1997.0
一家	-1998.0
至少	-1999.0
冠南	-2000.0
陪你	-2001.0
哈哈大笑	-2002.0
人口	-2003.0
大侠	-2004.0
ime	-2005.0
每一个	-2006.0
一口	-2007.0
异常	-2008.0
ry	-2009.0
刚刚	-2010.0
随即	-2011.0
实体	-2012.0
pl	-2013.0
不下	-2014.0
青青	-2015.0
付出	-2016.0
可怜	-2017.0
重要的	-2018.0
大王	-2019.0
去找	-2020.0
和他	-2021.0
相遇	-2022.0
偷偷	-2023.0
用户	-2024.0
大喜	-2025.0
快速	-2026.0
真的很	-2027.0
act	-2028.0
声响	-2029.0
早就	-2030.0
过了一	-2031.0
青衣剑士	-2032.0
说我	-2033.0
▁have	-2034.0
保证	-2035.0
ans	-2036.0
ah	-2037.0
懂得	-2038.0
中华	-2039.0
very	-2040.0
▁找	-2041.0
进一步	-2042.0
分离	-2043.0
。。。	-2044.0
一定会	-2045.0
’,	-2046.0
不对	-2047.0
那老	-2048.0
ater	-2049.0
风格	-2050.0
鼻子	-2051.0
双方	-2052.0
伙伴	-2053.0
red	-2054.0
匆匆	-2055.0
创造	-2056.0
手臂	-2057.0
资料	-2058.0
露出	-2059.0
也可以	-2060.0
桃花	-2061.0
ace	-2062.0
陌生	-2063.0
系列	-2064.0
立时	-2065.0
舒服	-2066.0
者的	-2067.0
情的	-2068.0
暗暗	-2069.0
时刻	-2070.0
oh	-2071.0
才会	-2072.0
哪些	-2073.0
王子	-2074.0
ost	-2075.0
袁冠南	-2076.0
辛苦	-2077.0
恢复	-2078.0
▁还	-2079.0
安排	-2080.0
ical	-2081.0
人物	-2082.0
动力	-2083.0
抬头	-2084.0
有没有	-2085.0
联合	-2086.0
检测	-2087.0
青年	-2088.0
给她	-2089.0
分享	-2090.0
道路	-2091.0
😘😘	-2092.0
区域	-2093.0
一样的	-2094.0
也就	-2095.0
抱着	-2096.0
淡淡	-2097.0
▁摘要生成	-2098.0
老板	-2099.0
一段	-2100.0
妈妈的	-2101.0
只听得	-2102.0
大了	-2103.0
世上	-2104.0
ike	-2105.0
星期	-2106.0
gh	-2107.0
万元	-2108.0
差异	-2109.0
安静	-2110.0
但他	-2111.0
红的	-2112.0
歌声	-2113.0
理由	-2114.0
香港	-2115.0
在那	-2116.0
完美	-2117.0
学的	-2118.0
问我	-2119.0
有着	-2120.0
甜蜜	-2121.0
顿时	-2122.0
未必	-2123.0
单位	-2124.0
sh	-2125.0
之上	-2126.0
小龙女	-2127.0
只剩	-2128.0
岁的	-2129.0
ub	-2130.0
▁Given	-2131.0
怎能	-2132.0
ond	-2133.0
一下子	-2134.0
复杂	-2135.0
我来	-2136.0
低声道	-2137.0
在此	-2138.0
草原	-2139.0
说什么	-2140.0
卫士	-2141.0
用力	-2142.0
我国	-2143.0
肚子	-2144.0
ite	-2145.0
阶段	-2146.0
人都	-2147.0
命运	-2148.0
鲜血	-2149.0
天雄	-2150.0
小时候	-2151.0
江南	-2152.0
而来	-2153.0
化的	-2154.0
烦恼	-2155.0
合同	-2156.0
从未	-2157.0
软件	-2158.0
这两	-2159.0
生日	-2160.0
也不能	-2161.0
及其	-2162.0
拒绝	-2163.0
中了	-2164.0
鲁克	-2165.0
▁像	-2166.0
在地上	-2167.0
威信	-2168.0
大概	-2169.0
尾巴	-2170.0
死亡	-2171.0
老爷	-2172.0
而已	-2173.0
给我们	-2174.0
▁you	-2175.0
▁张	-2176.0
我才	-2177.0
对我说	-2178.0
卓天雄	-2179.0
我把	-2180.0
▁来	-2181.0
的你	-2182.0
而出	-2183.0
等到	-2184.0
葡萄	-2185.0
轻松	-2186.0
面上	-2187.0
胡子	-2188.0
▁cl	-2189.0
早上	-2190.0
成熟	-2191.0
的气	-2192.0
对不起	-2193.0
是他	-2194.0
至于	-2195.0
见她	-2196.0
前辈	-2197.0
逐渐	-2198.0
世间	-2199.0
都没	-2200.0
~~	-2201.0
意的	-2202.0
▁原来	-2203.0
一直在	-2204.0
有所	-2205.0
▁白	-2206.0
骄傲	-2207.0
不愿	-2208.0
并不是	-2209.0
宝贝	-2210.0
意识	-2211.0
错误	-2212.0
的地	-2213.0
领域	-2214.0
一遍	-2215.0
七八	-2216.0
玫瑰	-2217.0
神经	-2218.0
忽听得	-2219.0
na	-2220.0
我这	-2221.0
飞机	-2222.0
另一	-2223.0
季节	-2224.0
兴奋	-2225.0
▁其实	-2226.0
▁know	-2227.0
遗憾	-2228.0
症状	-2229.0
随后	-2230.0
feren	-2231.0
礼物	-2232.0
绝对	-2233.0
大家都	-2234.0
与你	-2235.0
人心	-2236.0
❤❤	-2237.0
持续	-2238.0
总会	-2239.0
▁也许	-2240.0
爸爸妈妈	-2241.0
的路	-2242.0
阿曼	-2243.0
不行	-2244.0
我只	-2245.0
这首	-2246.0
ces	-2247.0
那少女	-2248.0
我最	-2249.0
▁胡斐	-2250.0
▁最	-2251.0
电脑	-2252.0
▁K	-2253.0
你怎么	-2254.0
沉默	-2255.0
😭😭	-2256.0
法国	-2257.0
祝福	-2258.0
体系	-2259.0
女生	-2260.0
▁文本	-2261.0
有你	-2262.0
结论	-2263.0
以下	-2264.0
传来	-2265.0
我便	-2266.0
公安	-2267.0
玻璃	-2268.0
优秀	-2269.0
很大	-2270.0
翅膀	-2271.0
▁which	-2272.0
之声	-2273.0
双眼	-2274.0
不够	-2275.0
英语	-2276.0
远方	-2277.0
灵魂	-2278.0
从而	-2279.0
地里	-2280.0
te	-2281.0
不开	-2282.0
中央	-2283.0
▁In	-2284.0
写的	-2285.0
各自	-2286.0
态度	-2287.0
正好	-2288.0
躺在	-2289.0
不怕	-2290.0
情绪	-2291.0
独特	-2292.0
相思	-2293.0
锦衫	-2294.0
锦衫剑士	-2295.0
测试	-2296.0
保险	-2297.0
生素	-2298.0
不着	-2299.0
是最	-2300.0
长期	-2301.0
▁U	-2302.0
一招	-2303.0
哪知	-2304.0
正式	-2305.0
▁ro	-2306.0
促进	-2307.0
风景	-2308.0
▁虽然	-2309.0
像是	-2310.0
具体	-2311.0
夜晚	-2312.0
想法	-2313.0
此外	-2314.0
跟他	-2315.0
眼中	-2316.0
刀法	-2317.0
记录	-2318.0
黄金	-2319.0
亲爱的	-2320.0
▁per	-2321.0
桌上	-2322.0
自我	-2323.0
伯伯	-2324.0
眼神	-2325.0
猴子	-2326.0
表演	-2327.0
也能	-2328.0
here	-2329.0
so	-2330.0
任务	-2331.0
我有	-2332.0
两个人	-2333.0
增长	-2334.0
按照	-2335.0
▁我要	-2336.0
公公	-2337.0
突然间	-2338.0
▁为	-2339.0
ect	-2340.0
事件	-2341.0
树上	-2342.0
药物	-2343.0
嘴里	-2344.0
年龄	-2345.0
分为	-2346.0
▁每	-2347.0
简直	-2348.0
走去	-2349.0
老婆	-2350.0
工艺	-2351.0
欣赏	-2352.0
嘴巴	-2353.0
下降	-2354.0
iz	-2355.0
旋律	-2356.0
也好	-2357.0
力气	-2358.0
地球	-2359.0
相比	-2360.0
从小	-2361.0
、《	-2362.0
自动	-2363.0
过去了	-2364.0
▁可是	-2365.0
▁花	-2366.0
,”	-2367.0
眼里	-2368.0
这等	-2369.0
公里	-2370.0
叔叔	-2371.0
伤口	-2372.0
一大	-2373.0
改革	-2374.0
适才	-2375.0
▁说	-2376.0
组成	-2377.0
尼亚	-2378.0
半点	-2379.0
偶尔	-2380.0
▁【	-2381.0
点点	-2382.0
汉人	-2383.0
出门	-2384.0
规定	-2385.0
走向	-2386.0
体内	-2387.0
发布	-2388.0
版本	-2389.0
甚是	-2390.0
▁一个	-2391.0
▁pr	-2392.0
年前	-2393.0
欢迎	-2394.0
天上	-2395.0
看得	-2396.0
而去	-2397.0
别人的	-2398.0
加入	-2399.0
有时候	-2400.0
一股	-2401.0
开放	-2402.0
在哪里	-2403.0
动作	-2404.0
着他	-2405.0
▁让我们	-2406.0
血刀	-2407.0
儿童	-2408.0
改善	-2409.0
视频	-2410.0
苏鲁克	-2411.0
感激	-2412.0
感染	-2413.0
现象	-2414.0
参与	-2415.0
只听	-2416.0
报告	-2417.0
这几	-2418.0
可能是	-2419.0
搭配	-2420.0
▁该	-2421.0
头顶	-2422.0
转过	-2423.0
关心	-2424.0
早晨	-2425.0
落在	-2426.0
只觉	-2427.0
电子	-2428.0
避免	-2429.0
到来	-2430.0
多久	-2431.0
▁Ch	-2432.0
信号	-2433.0
同样	-2434.0
狮子	-2435.0
你也	-2436.0
好看	-2437.0
言语	-2438.0
▁You	-2439.0
激动	-2440.0
之意	-2441.0
那就	-2442.0
用心	-2443.0
的神	-2444.0
侍卫	-2445.0
周威信	-2446.0
模糊	-2447.0
原来是	-2448.0
热闹	-2449.0
科技	-2450.0
正要	-2451.0
消极	-2452.0
支付	-2453.0
树叶	-2454.0
了半	-2455.0
▁ab	-2456.0
农民	-2457.0
▁comp	-2458.0
演唱	-2459.0
的家	-2460.0
校园	-2461.0
移动	-2462.0
一件	-2463.0
ense	-2464.0
新闻	-2465.0
氧化	-2466.0
来到了	-2467.0
你看	-2468.0
怀里	-2469.0
身份	-2470.0
怒道	-2471.0
把他	-2472.0
断了	-2473.0
讨论	-2474.0
▁《	-2475.0
和小	-2476.0
一会	-2477.0
善良	-2478.0
当初	-2479.0
▁文案	-2480.0
▁就算	-2481.0
得意	-2482.0
哭了	-2483.0
▁风	-2484.0
节目	-2485.0
ick	-2486.0
十余	-2487.0
也不是	-2488.0
了一眼	-2489.0
去的	-2490.0
的一切	-2491.0
相当	-2492.0
有趣	-2493.0
般的	-2494.0
▁Based	-2495.0
无限	-2496.0
你能	-2497.0
承诺	-2498.0
的说	-2499.0
今生	-2500.0
罗斯	-2501.0
▁Th	-2502.0
▁今天	-2503.0
着了	-2504.0
数十	-2505.0
数字	-2506.0
ark	-2507.0
明白了	-2508.0
只不过	-2509.0
疼痛	-2510.0
卫生	-2511.0
训练	-2512.0
▁我想	-2513.0
吸收	-2514.0
此人	-2515.0
民警	-2516.0
▁*	-2517.0
不清	-2518.0
你去	-2519.0
ance	-2520.0
还没有	-2521.0
制度	-2522.0
劳动	-2523.0
嘿嘿	-2524.0
小孩	-2525.0
公共	-2526.0
专辑	-2527.0
强盗	-2528.0
基础上	-2529.0
不论	-2530.0
作者	-2531.0
方案	-2532.0
大海	-2533.0
好朋友	-2534.0
重的	-2535.0
失望	-2536.0
参数	-2537.0
抽取	-2538.0
宣布	-2539.0
出来了	-2540.0
如同	-2541.0
精彩	-2542.0
有很多	-2543.0
美元	-2544.0
这条	-2545.0
了口气	-2546.0
越国	-2547.0
▁their	-2548.0
青蛙	-2549.0
孩子们	-2550.0
她说	-2551.0
台上	-2552.0
的日子	-2553.0
▁+	-2554.0
终究	-2555.0
的主要	-2556.0
不说	-2557.0
怀念	-2558.0
此事	-2559.0
希腊	-2560.0
为人	-2561.0
着的	-2562.0
跑到	-2563.0
▁te	-2564.0
万里	-2565.0
一道	-2566.0
连续	-2567.0
何时	-2568.0
之际	-2569.0
掉了	-2570.0
绿色	-2571.0
千里	-2572.0
坏了	-2573.0
手掌	-2574.0
▁Do	-2575.0
▁two	-2576.0
没什么	-2577.0
委员	-2578.0
脑海	-2579.0
追求	-2580.0
真正的	-2581.0
旁人	-2582.0
没了	-2583.0
........	-2584.0
小学	-2585.0
体验	-2586.0
??	-2587.0
再来	-2588.0
老虎	-2589.0
不自	-2590.0
鼓励	-2591.0
萝卜	-2592.0
找不到	-2593.0
也在	-2594.0
并非	-2595.0
个个	-2596.0
更好	-2597.0
我却	-2598.0
再也不	-2599.0
柔软	-2600.0
ri	-2601.0
出版	-2602.0
设备	-2603.0
梦中	-2604.0
大多数	-2605.0
粉丝	-2606.0
能量	-2607.0
男性	-2608.0
▁王	-2609.0
一世	-2610.0
故意	-2611.0
在水	-2612.0
气的	-2613.0
红色	-2614.0
▁中	-2615.0
我爱	-2616.0
收入	-2617.0
回来了	-2618.0
面积	-2619.0
反正	-2620.0
军队	-2621.0
海洋	-2622.0
过得	-2623.0
你我	-2624.0
树枝	-2625.0
体会	-2626.0
血管	-2627.0
印度	-2628.0
种子	-2629.0
职业	-2630.0
per	-2631.0
童年	-2632.0
说不出	-2633.0
想象	-2634.0
ish	-2635.0
▁都	-2636.0
结局	-2637.0
找到了	-2638.0
了好	-2639.0
定了	-2640.0
类型	-2641.0
又道	-2642.0
法院	-2643.0
了吗	-2644.0
▁若	-2645.0
含有	-2646.0
经营	-2647.0
梦里	-2648.0
▁但是	-2649.0
估计	-2650.0
相见	-2651.0
走在	-2652.0
小小的	-2653.0
师弟	-2654.0
何况	-2655.0
西施	-2656.0
转眼	-2657.0
一杯	-2658.0
口中	-2659.0
的眼睛	-2660.0
▁三	-2661.0
我对	-2662.0
文字	-2663.0
鸳鸯	-2664.0
▁Oh	-2665.0
大树	-2666.0
ated	-2667.0
我爱你	-2668.0
有多少	-2669.0
▁李	-2670.0
▁为什么	-2671.0
第四	-2672.0
还有一	-2673.0
天涯	-2674.0
身材	-2675.0
ial	-2676.0
▁go	-2677.0
德国	-2678.0
我还是	-2679.0
死的	-2680.0
上课	-2681.0
拿出	-2682.0
日的	-2683.0
我没	-2684.0
生怕	-2685.0
相爱	-2686.0
大伙	-2687.0
▁将	-2688.0
的方法	-2689.0
维生素	-2690.0
分开	-2691.0
食品	-2692.0
了过去	-2693.0
很喜欢	-2694.0
不大	-2695.0
▁out	-2696.0
怎么说	-2697.0
特别是	-2698.0
合理	-2699.0
警察	-2700.0
到的	-2701.0
了我的	-2702.0
还可以	-2703.0
花园	-2704.0
一辈子	-2705.0
师妹	-2706.0
出生	-2707.0
东方	-2708.0
全是	-2709.0
情感	-2710.0
沙漠	-2711.0
隐隐	-2712.0
mer	-2713.0
无声	-2714.0
▁这个	-2715.0
向我	-2716.0
怎么样	-2717.0
化学	-2718.0
▁she	-2719.0
需求	-2720.0
提醒	-2721.0
慢慢地	-2722.0
往事	-2723.0
白色	-2724.0
▁will	-2725.0
大大	-2726.0
消费	-2727.0
get	-2728.0
▁帮我	-2729.0
▁day	-2730.0
的脸	-2731.0
▁br	-2732.0
知道了	-2733.0
相同	-2734.0
▁He	-2735.0
留在	-2736.0
身的	-2737.0
最佳	-2738.0
your	-2739.0
满满	-2740.0
地的	-2741.0
ort	-2742.0
使得	-2743.0
很难	-2744.0
深处	-2745.0
各人	-2746.0
超级	-2747.0
出现在	-2748.0
一份	-2749.0
食用	-2750.0
▁up	-2751.0
我喜欢	-2752.0
▁令狐冲	-2753.0
但见	-2754.0
水笙	-2755.0
醒来	-2756.0
ous	-2757.0
道人	-2758.0
统计	-2759.0
模拟	-2760.0
▁And	-2761.0
▁many	-2762.0
住在	-2763.0
探讨	-2764.0
陪我	-2765.0
提出了	-2766.0
▁多	-2767.0
去看	-2768.0
一首	-2769.0
薛烛	-2770.0
流水	-2771.0
了一些	-2772.0
哭泣	-2773.0
角落	-2774.0
到我	-2775.0
肩头	-2776.0
书生	-2777.0
犯罪	-2778.0
脾气	-2779.0
纤维	-2780.0
就把	-2781.0
毫无	-2782.0
现在的	-2783.0
农村	-2784.0
如果你	-2785.0
不但	-2786.0
怎地	-2787.0
便即	-2788.0
主任	-2789.0
心理	-2790.0
连忙	-2791.0
石清	-2792.0
伸出	-2793.0
▁袁承志	-2794.0
▁sense	-2795.0
玉龙	-2796.0
出发	-2797.0
浪漫	-2798.0
旅游	-2799.0
最初	-2800.0
色彩	-2801.0
go	-2802.0
用来	-2803.0
我可	-2804.0
ural	-2805.0
得到了	-2806.0
▁抽取出文本中的关键词	-2807.0
我自己	-2808.0
▁It	-2809.0
▁帮我识别出	-2810.0
▁帮我识别出文本中的关键词	-2811.0
了出去	-2812.0
成立	-2813.0
自在	-2814.0
那么多	-2815.0
一见	-2816.0
全球	-2817.0
办公	-2818.0
主意	-2819.0
程灵	-2820.0
在她	-2821.0
角度	-2822.0
大事	-2823.0
春风	-2824.0
▁众人	-2825.0
了一种	-2826.0
▁妈妈	-2827.0
ound	-2828.0
动了	-2829.0
祖国	-2830.0
ra	-2831.0
Two	-2832.0
大部分	-2833.0
刺激	-2834.0
转头	-2835.0
自信	-2836.0
不容易	-2837.0
兴趣	-2838.0
承认	-2839.0
灿烂	-2840.0
恋爱	-2841.0
▁狄云	-2842.0
充满了	-2843.0
▁识别出文本中的关键词	-2844.0
胡一刀	-2845.0
将来	-2846.0
▁关键词识别	-2847.0
上下	-2848.0
▁num	-2849.0
随便	-2850.0
▁找出	-2851.0
提升	-2852.0
ook	-2853.0
▁girl	-2854.0
同意	-2855.0
呵呵	-2856.0
元素	-2857.0
一座	-2858.0
计老人	-2859.0
人体	-2860.0
怀疑	-2861.0
机关	-2862.0
展开	-2863.0
想念	-2864.0
滋味	-2865.0
ase	-2866.0
程灵素	-2867.0
上文中的关键词	-2868.0
专家	-2869.0
▁dog	-2870.0
微博	-2871.0
》。	-2872.0
操作	-2873.0
不安	-2874.0
居民	-2875.0
媒体	-2876.0
手上	-2877.0
来看	-2878.0
篇文章	-2879.0
销售	-2880.0
ye	-2881.0
斯特	-2882.0
及时	-2883.0
苗人	-2884.0
主动	-2885.0
低头	-2886.0
至今	-2887.0
重重	-2888.0
听他	-2889.0
影子	-2890.0
ning	-2891.0
▁愿	-2892.0
练习	-2893.0
给予	-2894.0
正确	-2895.0
所在	-2896.0
表面	-2897.0
明的	-2898.0
接触	-2899.0
小小	-2900.0
调整	-2901.0
▁什么	-2902.0
指标	-2903.0
购买	-2904.0
基因	-2905.0
例如	-2906.0
萨克	-2907.0
挣扎	-2908.0
花开	-2909.0
年级	-2910.0
茫茫	-2911.0
你的人	-2912.0
平台	-2913.0
流行	-2914.0
你好	-2915.0
吩咐	-2916.0
热情	-2917.0
约定	-2918.0
产业	-2919.0
太太	-2920.0
的天	-2921.0
叫他	-2922.0
我心里	-2923.0
你可	-2924.0
心底	-2925.0
%。	-2926.0
十五	-2927.0
机器	-2928.0
配合	-2929.0
的答案是	-2930.0
成分	-2931.0
男生	-2932.0
▁最后	-2933.0
要去	-2934.0
胜利	-2935.0
会不会	-2936.0
罗马	-2937.0
几次	-2938.0
燃烧	-2939.0
白马	-2940.0
▁make	-2941.0
他又	-2942.0
”、“	-2943.0
小子	-2944.0
优化	-2945.0
▁关键词抽取	-2946.0
画面	-2947.0
外的	-2948.0
下面的文本	-2949.0
性和	-2950.0
脂肪	-2951.0
望去	-2952.0
制造	-2953.0
工业	-2954.0
身前	-2955.0
乌龟	-2956.0
宗教	-2957.0
ens	-2958.0
竹棒	-2959.0
我看	-2960.0
足球	-2961.0
取得	-2962.0
欢乐	-2963.0
躲在	-2964.0
花的	-2965.0
补充	-2966.0
我也不	-2967.0
犹如	-2968.0
的发展	-2969.0
而不	-2970.0
了许多	-2971.0
吃了一	-2972.0
。”“	-2973.0
aus	-2974.0
便在	-2975.0
污染	-2976.0
眼光	-2977.0
规模	-2978.0
▁gr	-2979.0
驾驶	-2980.0
戚芳	-2981.0
啊啊	-2982.0
两种	-2983.0
打得	-2984.0
▁为了	-2985.0
pp	-2986.0
攻击	-2987.0
拼命	-2988.0
阿姨	-2989.0
的作用	-2990.0
心灵	-2991.0
心中的	-2992.0
▁到	-2993.0
的情感	-2994.0
▁据	-2995.0
去年	-2996.0
增强	-2997.0
齐声	-2998.0
没事	-2999.0
ose	-3000.0
活着	-3001.0
aring	-3002.0
▁who	-3003.0
朋友们	-3004.0
子胥	-3005.0
成员	-3006.0
长得	-3007.0
也就是	-3008.0
你别	-3009.0
谢谢你	-3010.0
失去了	-3011.0
irst	-3012.0
受了	-3013.0
金属	-3014.0
开口	-3015.0
节奏	-3016.0
藏在	-3017.0
长老	-3018.0
却也	-3019.0
黑色	-3020.0
你想	-3021.0
但是我	-3022.0
ff	-3023.0
ary	-3024.0
报仇	-3025.0
部的	-3026.0
ress	-3027.0
是以	-3028.0
背景	-3029.0
徐天	-3030.0
神色	-3031.0
的重要	-3032.0
指着	-3033.0
出口	-3034.0
伍子胥	-3035.0
ference	-3036.0
一个大	-3037.0
哪怕	-3038.0
狠狠	-3039.0
进步	-3040.0
原本	-3041.0
损失	-3042.0
?”“	-3043.0
车辆	-3044.0
整体	-3045.0
会议	-3046.0
毫不	-3047.0
指挥	-3048.0
清晰	-3049.0
苗人凤	-3050.0
原谅	-3051.0
厨房	-3052.0
老人家	-3053.0
叫声	-3054.0
手术	-3055.0
一日	-3056.0
靠近	-3057.0
一句话	-3058.0
的世界	-3059.0
平静	-3060.0
特殊	-3061.0
air	-3062.0
这款	-3063.0
举行	-3064.0
师叔	-3065.0
平凡	-3066.0
树林	-3067.0
day	-3068.0
ont	-3069.0
多种	-3070.0
早期	-3071.0
行业	-3072.0
▁ad	-3073.0
的研究	-3074.0
ire	-3075.0
上学	-3076.0
概念	-3077.0
耳边	-3078.0
广泛	-3079.0
难忘	-3080.0
).	-3081.0
▁car	-3082.0
男女	-3083.0
的书	-3084.0
▁nat	-3085.0
不然	-3086.0
工具	-3087.0
定是	-3088.0
对他	-3089.0
被称为	-3090.0
单刀	-3091.0
每年	-3092.0
糊涂	-3093.0
适应	-3094.0
▁Can	-3095.0
娃娃	-3096.0
程序	-3097.0
飞燕	-3098.0
🌹🌹🌹🌹	-3099.0
▁阅读文本	-3100.0
▁阅读文本回答问题	-3101.0
故乡	-3102.0
流泪	-3103.0
手下	-3104.0
儿的	-3105.0
品牌	-3106.0
▁阅读下面的文本	-3107.0
走近	-3108.0
江湖上	-3109.0
行政	-3110.0
农业	-3111.0
足够	-3112.0
了得	-3113.0
累了	-3114.0
▁mean	-3115.0
不易	-3116.0
何处	-3117.0
功效	-3118.0
究竟	-3119.0
喝酒	-3120.0
抑制	-3121.0
的一种	-3122.0
想不到	-3123.0
尤其是	-3124.0
山上	-3125.0
机制	-3126.0
开始了	-3127.0
实施	-3128.0
平安	-3129.0
性格	-3130.0
手腕	-3131.0
骂道	-3132.0
▁St	-3133.0
ov	-3134.0
其余	-3135.0
创新	-3136.0
啊哟	-3137.0
惊喜	-3138.0
记住	-3139.0
▁sit	-3140.0
只小	-3141.0
家中	-3142.0
睡眠	-3143.0
都可以	-3144.0
停止	-3145.0
ther	-3146.0
收获	-3147.0
叹了口气	-3148.0
他就	-3149.0
为主	-3150.0
的设计	-3151.0
措施	-3152.0
事故	-3153.0
她是	-3154.0
生活中	-3155.0
会的	-3156.0
好奇	-3157.0
规律	-3158.0
四周	-3159.0
重点	-3160.0
▁boy	-3161.0
培养	-3162.0
无可	-3163.0
协议	-3164.0
快的	-3165.0
了三	-3166.0
商业	-3167.0
疯狂	-3168.0
内的	-3169.0
那时候	-3170.0
交易	-3171.0
丁典	-3172.0
脚下	-3173.0
wh	-3174.0
很少	-3175.0
生死	-3176.0
▁bu	-3177.0
的孩子	-3178.0
证据	-3179.0
▁ar	-3180.0
有几	-3181.0
做好	-3182.0
奔跑	-3183.0
指导	-3184.0
着我的	-3185.0
广场	-3186.0
招数	-3187.0
是啊	-3188.0
水果	-3189.0
。(	-3190.0
发挥	-3191.0
慕容	-3192.0
的长	-3193.0
不喜欢	-3194.0
一百	-3195.0
妹子	-3196.0
萧峰	-3197.0
▁爱情	-3198.0
强的	-3199.0
旅行	-3200.0
宝刀	-3201.0
竞争	-3202.0
今晚	-3203.0
只想	-3204.0
派的	-3205.0
led	-3206.0
全世界	-3207.0
给我的	-3208.0
数量	-3209.0
杀人	-3210.0
最爱	-3211.0
而不是	-3212.0
算是	-3213.0
网站	-3214.0
冷冷	-3215.0
符合	-3216.0
很多人	-3217.0
?<	-3218.0
欧阳锋	-3219.0
得多	-3220.0
老公	-3221.0
你还	-3222.0
清晨	-3223.0
罢了	-3224.0
这么多	-3225.0
▁石破天	-3226.0
放手	-3227.0
前的	-3228.0
angu	-3229.0
▁总	-3230.0
不料	-3231.0
离开了	-3232.0
老头	-3233.0
饮食	-3234.0
自行车	-3235.0
运用	-3236.0
效率	-3237.0
妈妈说	-3238.0
委屈	-3239.0
十几	-3240.0
反对	-3241.0
醒了	-3242.0
更多的	-3243.0
牵挂	-3244.0
风险	-3245.0
或是	-3246.0
牙齿	-3247.0
白云	-3248.0
▁all	-3249.0
起来了	-3250.0
瞎子	-3251.0
部队	-3252.0
千年	-3253.0
得知	-3254.0
没法	-3255.0
挑战	-3256.0
的味道	-3257.0
走着	-3258.0
深情	-3259.0
irt	-3260.0
本事	-3261.0
▁周	-3262.0
实践	-3263.0
▁李文秀	-3264.0
资金	-3265.0
这一次	-3266.0
ord	-3267.0
▁只要	-3268.0
组合	-3269.0
igh	-3270.0
那位	-3271.0
一团	-3272.0
赶到	-3273.0
大约	-3274.0
林玉龙	-3275.0
必要	-3276.0
的名	-3277.0
🙏🙏	-3278.0
know	-3279.0
多谢	-3280.0
没有人	-3281.0
让她	-3282.0
ons	-3283.0
做到	-3284.0
不变	-3285.0
比例	-3286.0
的面	-3287.0
老大	-3288.0
都被	-3289.0
接过	-3290.0
流浪	-3291.0
腰间	-3292.0
中医	-3293.0
▁翻译成中文	-3294.0
背影	-3295.0
等我	-3296.0
新鲜	-3297.0
落地	-3298.0
规则	-3299.0
假装	-3300.0
对付	-3301.0
逍遥	-3302.0
差不多	-3303.0
文学	-3304.0
round	-3305.0
▁langu	-3306.0
为他	-3307.0
家伙	-3308.0
言道	-3309.0
do	-3310.0
云奇	-3311.0
的中心	-3312.0
金融	-3313.0
uch	-3314.0
传播	-3315.0
宝树	-3316.0
歌唱	-3317.0
统治	-3318.0
若兰	-3319.0
oung	-3320.0
▁自	-3321.0
中午	-3322.0
佩服	-3323.0
你知道	-3324.0
好吗	-3325.0
犹豫	-3326.0
不见了	-3327.0
点了点头	-3328.0
不免	-3329.0
参考	-3330.0
就有	-3331.0
无力	-3332.0
指出	-3333.0
微微一笑	-3334.0
otal	-3335.0
你了	-3336.0
怀中	-3337.0
暗器	-3338.0
hing	-3339.0
奈何	-3340.0
闪闪	-3341.0
笑声	-3342.0
网上	-3343.0
生态	-3344.0
便宜	-3345.0
▁下	-3346.0
抬起	-3347.0
苗若兰	-3348.0
▁they	-3349.0
达海	-3350.0
麻烦	-3351.0
系统的	-3352.0
丁不	-3353.0
▁fl	-3354.0
天堂	-3355.0
渴望	-3356.0
离去	-3357.0
一鸣	-3358.0
作文	-3359.0
心上	-3360.0
帝国	-3361.0
加强	-3362.0
破坏	-3363.0
不停地	-3364.0
讨厌	-3365.0
app	-3366.0
▁不管	-3367.0
十六	-3368.0
地位	-3369.0
特性	-3370.0
▁听	-3371.0
亲自	-3372.0
破了	-3373.0
的对	-3374.0
中原	-3375.0
不舍	-3376.0
允许	-3377.0
宝剑	-3378.0
▁stand	-3379.0
临床	-3380.0
是有	-3381.0
舍不得	-3382.0
▁language	-3383.0
本身	-3384.0
花儿	-3385.0
▁曾经	-3386.0
人群	-3387.0
不该	-3388.0
低声	-3389.0
常见	-3390.0
不爱	-3391.0
但在	-3392.0
使我	-3393.0
的原因	-3394.0
▁它	-3395.0
我已经	-3396.0
我们都	-3397.0
上述	-3398.0
回事	-3399.0
▁ac	-3400.0
着一个	-3401.0
叫你	-3402.0
und	-3403.0
轻轻地	-3404.0
▁基于	-3405.0
前来	-3406.0
的山	-3407.0
▁张无忌	-3408.0
时辰	-3409.0
做什么	-3410.0
遥远	-3411.0
任飞燕	-3412.0
意见	-3413.0
战斗	-3414.0
业务	-3415.0
半和	-3416.0
满意	-3417.0
革命	-3418.0
告诉你	-3419.0
这么一	-3420.0
▁能	-3421.0
古怪	-3422.0
重大	-3423.0
▁un	-3424.0
怎么会	-3425.0
我没有	-3426.0
baby	-3427.0
▁的	-3428.0
念头	-3429.0
▁natural	-3430.0
一刻	-3431.0
某些	-3432.0
!!!!	-3433.0
军事	-3434.0
眉头	-3435.0
▁黄	-3436.0
真好	-3437.0
陌生人	-3438.0
传说	-3439.0
北方	-3440.0
盈盈	-3441.0
▁child	-3442.0
一怔	-3443.0
躬身	-3444.0
▁第二天	-3445.0
高速	-3446.0
印象	-3447.0
向后	-3448.0
发现了	-3449.0
康熙	-3450.0
想想	-3451.0
无不	-3452.0
酒店	-3453.0
和她	-3454.0
说不定	-3455.0
伤了	-3456.0
底下	-3457.0
七公	-3458.0
四侠	-3459.0
承受	-3460.0
说出你的	-3461.0
▁number	-3462.0
▁total	-3463.0
武器	-3464.0
一步一步的	-3465.0
▁so	-3466.0
到达	-3467.0
陈达海	-3468.0
是由	-3469.0
▁我会	-3470.0
站起身来	-3471.0
other	-3472.0
深入	-3473.0
然后进行	-3474.0
哪儿	-3475.0
对着	-3476.0
被人	-3477.0
光明	-3478.0
预防	-3479.0
爱上	-3480.0
好人	-3481.0
不顾	-3482.0
水的	-3483.0
总统	-3484.0
悠悠	-3485.0
之心	-3486.0
着急	-3487.0
▁year	-3488.0
表情	-3489.0
▁qu	-3490.0
▁what	-3491.0
也都	-3492.0
神奇	-3493.0
曹云奇	-3494.0
寻思	-3495.0
干吗	-3496.0
细细	-3497.0
情人	-3498.0
不许	-3499.0
教授	-3500.0
血液	-3501.0
首先给出	-3502.0
▁请给出你的推理过程	-3503.0
请给出你的推理过程	-3504.0
注定	-3505.0
内功	-3506.0
已是	-3507.0
彻底	-3508.0
咖啡	-3509.0
哈萨克	-3510.0
萧半和	-3511.0
然后回答问题	-3512.0
首先给出思考过程	-3513.0
赵敏	-3514.0
的朋友	-3515.0
你有	-3516.0
可是我	-3517.0
在这个	-3518.0
是为了	-3519.0
无穷	-3520.0
等人	-3521.0
高中	-3522.0
▁你说	-3523.0
快地	-3524.0
相公	-3525.0
金面	-3526.0
分析了	-3527.0
街上	-3528.0
投入	-3529.0
趋势	-3530.0
集团	-3531.0
显然	-3532.0
呼呼	-3533.0
对照	-3534.0
的名字	-3535.0
创作	-3536.0
les	-3537.0
然后进行回答	-3538.0
▁首先给出你的推理过程	-3539.0
ob	-3540.0
智慧	-3541.0
的前	-3542.0
▁首先说出你的	-3543.0
▁首先说出你的思考过程	-3544.0
放入	-3545.0
itt	-3546.0
官兵	-3547.0
门的	-3548.0
向上	-3549.0
羡慕	-3550.0
ents	-3551.0
▁如	-3552.0
烈的	-3553.0
!”“	-3554.0
玉米	-3555.0
看起来	-3556.0
ian	-3557.0
不像	-3558.0
好处	-3559.0
采取	-3560.0
准确	-3561.0
来源	-3562.0
一丝	-3563.0
▁输入	-3564.0
思考过程如下	-3565.0
▁我的思考过程如下	-3566.0
尝试	-3567.0
平衡	-3568.0
拉着	-3569.0
些什么	-3570.0
仿真	-3571.0
心疼	-3572.0
在乎	-3573.0
走来	-3574.0
年轻人	-3575.0
徐天宏	-3576.0
深刻	-3577.0
▁comm	-3578.0
是要	-3579.0
的外	-3580.0
回过	-3581.0
冠军	-3582.0
大爷	-3583.0
出现了	-3584.0
惊讶	-3585.0
名叫	-3586.0
可怕	-3587.0
给出答案	-3588.0
吴王	-3589.0
嘻嘻	-3590.0
▁wal	-3591.0
▁V	-3592.0
▁和	-3593.0
▁只有	-3594.0
举起	-3595.0
▁fe	-3596.0
▁请仔细	-3597.0
决心	-3598.0
夕阳	-3599.0
然后给出你的	-3600.0
然后给出你的答案	-3601.0
▁请仔细认真地思考	-3602.0
▁cr	-3603.0
为什么要	-3604.0
五个	-3605.0
亮的	-3606.0
合适	-3607.0
小鸟	-3608.0
就好	-3609.0
因为我	-3610.0
▁请进行	-3611.0
然后给出答案	-3612.0
一步一步的推理	-3613.0
▁请进行一步一步的推理	-3614.0
一双	-3615.0
▁还是	-3616.0
玩耍	-3617.0
混合	-3618.0
震山	-3619.0
收拾	-3620.0
官员	-3621.0
打算	-3622.0
送到	-3623.0
利益	-3624.0
大伙儿	-3625.0
▁让我们认真地思考	-3626.0
▁让我们认真地思考这个问题	-3627.0
交给	-3628.0
运行	-3629.0
反复	-3630.0
解答过程	-3631.0
一半	-3632.0
品质	-3633.0
不小心	-3634.0
▁请认真思考	-3635.0
并且给出你的	-3636.0
并且给出你的解答过程	-3637.0
群雄	-3638.0
▁突然	-3639.0
▁记得	-3640.0
真的是	-3641.0
然后做出	-3642.0
和答案	-3643.0
打了	-3644.0
角色	-3645.0
彩虹	-3646.0
▁认真思考	-3647.0
然后做出解答	-3648.0
浓度	-3649.0
▁为何	-3650.0
▁en	-3651.0
▁等	-3652.0
ult	-3653.0
就此	-3654.0
这篇文章	-3655.0
共和	-3656.0
▁senten	-3657.0
贵的	-3658.0
是我们	-3659.0
认真地思考下面的问题	-3660.0
▁请一步一步认真地思考下面的问题	-3661.0
▁马	-3662.0
一番	-3663.0
大小	-3664.0
生活的	-3665.0
▁春	-3666.0
相似	-3667.0
执行	-3668.0
随风	-3669.0
▁请给出你的	-3670.0
思考过程和答案	-3671.0
▁请给出你的思考过程和答案	-3672.0
使劲	-3673.0
公元	-3674.0
在意	-3675.0
我家	-3676.0
放学	-3677.0
××	-3678.0
偏偏	-3679.0
香味	-3680.0
▁没	-3681.0
形象	-3682.0
接近	-3683.0
ause	-3684.0
太平	-3685.0
尔库	-3686.0
iss	-3687.0
轻易	-3688.0
申请	-3689.0
乾隆	-3690.0
火车	-3691.0
送给	-3692.0
金面佛	-3693.0
大吃	-3694.0
can	-3695.0
预测	-3696.0
分子	-3697.0
红了	-3698.0
幸福的	-3699.0
消化	-3700.0
▁sentences	-3701.0
▁上	-3702.0
已然	-3703.0
多半	-3704.0
文明	-3705.0
应该是	-3706.0
很好的	-3707.0
可见	-3708.0
地震	-3709.0
成本	-3710.0
文件	-3711.0
日后	-3712.0
手中的	-3713.0
优势	-3714.0
尽头	-3715.0
无所	-3716.0
山洞	-3717.0
穿过	-3718.0
名为	-3719.0
▁res	-3720.0
意外	-3721.0
洪七公	-3722.0
生命的	-3723.0
交流	-3724.0
令我	-3725.0
的歌曲	-3726.0
公路	-3727.0
尸体	-3728.0
大怒	-3729.0
在那里	-3730.0
黑夜	-3731.0
万震山	-3732.0
不信	-3733.0
韦小宝道	-3734.0
广告	-3735.0
不理	-3736.0
人民币	-3737.0
不太	-3738.0
手段	-3739.0
量的	-3740.0
小白	-3741.0
虚竹	-3742.0
一旦	-3743.0
只剩下	-3744.0
地回答问题	-3745.0
放开	-3746.0
不可能	-3747.0
▁请一步一步地回答问题	-3748.0
▁他们	-3749.0
▁希望	-3750.0
▁water	-3751.0
我好	-3752.0
▁while	-3753.0
__	-3754.0
fter	-3755.0
▁wearing	-3756.0
小熊	-3757.0
指点	-3758.0
duc	-3759.0
中人	-3760.0
发的	-3761.0
联盟	-3762.0
昨日	-3763.0
▁后来	-3764.0
教学	-3765.0
状况	-3766.0
精致	-3767.0
树木	-3768.0
费用	-3769.0
学家	-3770.0
▁each	-3771.0
▁inference	-3772.0
长大了	-3773.0
每日	-3774.0
了下去	-3775.0
都说	-3776.0
车尔库	-3777.0
反映	-3778.0
我能	-3779.0
都已	-3780.0
便如	-3781.0
规划	-3782.0
好汉	-3783.0
啦啦啦啦	-3784.0
游泳	-3785.0
红尘	-3786.0
落下	-3787.0
▁还有	-3788.0
召重	-3789.0
充分	-3790.0
她在	-3791.0
无敌	-3792.0
枸杞	-3793.0
读者	-3794.0
听到了	-3795.0
有限公司	-3796.0
ign	-3797.0
▁min	-3798.0
一对	-3799.0
就被	-3800.0
form	-3801.0
蔬菜	-3802.0
也不敢	-3803.0
俄罗斯	-3804.0
▁经	-3805.0
起床	-3806.0
本人	-3807.0
难得	-3808.0
老师的	-3809.0
太过	-3810.0
▁夜	-3811.0
武当	-3812.0
西方	-3813.0
舞台	-3814.0
黄色	-3815.0
用手	-3816.0
想起了	-3817.0
批评	-3818.0
里有	-3819.0
聊天	-3820.0
?’	-3821.0
南京	-3822.0
点点头	-3823.0
ates	-3824.0
指数	-3825.0
现下	-3826.0
整天	-3827.0
碰到	-3828.0
的音乐	-3829.0
的心情	-3830.0
小区	-3831.0
无情	-3832.0
ug	-3833.0
红花	-3834.0
难受	-3835.0
▁。	-3836.0
损伤	-3837.0
写着	-3838.0
幸运	-3839.0
迷宫	-3840.0
▁何	-3841.0
回了	-3842.0
str	-3843.0
老子	-3844.0
气息	-3845.0
自主	-3846.0
才知道	-3847.0
瞧着	-3848.0
纪念	-3849.0
药师	-3850.0
水中	-3851.0
老者	-3852.0
▁other	-3853.0
处于	-3854.0
ount	-3855.0
一朵	-3856.0
这儿	-3857.0
你自己	-3858.0
▁were	-3859.0
丐帮	-3860.0
这场	-3861.0
黄的	-3862.0
评论表达	-3863.0
是大	-3864.0
您的	-3865.0
物的	-3866.0
跟随	-3867.0
强度	-3868.0
▁sc	-3869.0
南方	-3870.0
对比	-3871.0
了很多	-3872.0
请问	-3873.0
盖一鸣	-3874.0
▁first	-3875.0
ade	-3876.0
优质	-3877.0
即可	-3878.0
不一样	-3879.0
往前	-3880.0
而言	-3881.0
ool	-3882.0
愿望	-3883.0
有一些	-3884.0
身上的	-3885.0
将我	-3886.0
走吧	-3887.0
唱着	-3888.0
尚未	-3889.0
摔倒	-3890.0
西瓜	-3891.0
良久	-3892.0
便要	-3893.0
假如	-3894.0
又想	-3895.0
愤怒	-3896.0
屁股	-3897.0
白天	-3898.0
士兵	-3899.0
多次	-3900.0
▁一天	-3901.0
那只	-3902.0
也不知	-3903.0
闪烁	-3904.0
看见了	-3905.0
不来	-3906.0
杀死	-3907.0
每当	-3908.0
不定	-3909.0
爱过	-3910.0
类的	-3911.0
铸剑	-3912.0
集中	-3913.0
观点	-3914.0
▁get	-3915.0
吃了一惊	-3916.0
衣衫	-3917.0
会在	-3918.0
兀自	-3919.0
命令	-3920.0
一头	-3921.0
五十	-3922.0
上午	-3923.0
缘分	-3924.0
鸟儿	-3925.0
提取	-3926.0
明月	-3927.0
▁正	-3928.0
发光	-3929.0
可爱的	-3930.0
able	-3931.0
不听	-3932.0
他也	-3933.0
守护	-3934.0
随时	-3935.0
未来的	-3936.0
房中	-3937.0
▁dr	-3938.0
了一条	-3939.0
我了	-3940.0
舞蹈	-3941.0
告别	-3942.0
奋斗	-3943.0
种种	-3944.0
在空中	-3945.0
客气	-3946.0
寒冷	-3947.0
问答	-3948.0
师伯	-3949.0
伯通	-3950.0
阿拉	-3951.0
即将	-3952.0
响起	-3953.0
这对	-3954.0
ink	-3955.0
roup	-3956.0
▁于是	-3957.0
在一个	-3958.0
和平	-3959.0
得罪	-3960.0
防止	-3961.0
的情况下	-3962.0
你一	-3963.0
的海	-3964.0
▁young	-3965.0
对象	-3966.0
大汉	-3967.0
大门	-3968.0
若不是	-3969.0
四下	-3970.0
咳嗽	-3971.0
商量	-3972.0
太监	-3973.0
于是我	-3974.0
口袋	-3975.0
山羊	-3976.0
▁郭靖	-3977.0
工资	-3978.0
▁两人	-3979.0
什么事	-3980.0
that	-3981.0
▁基于这篇文章	-3982.0
▁基于这篇文章生成摘要	-3983.0
不绝	-3984.0
当日	-3985.0
来得	-3986.0
滴滴	-3987.0
平方	-3988.0
房屋	-3989.0
竟是	-3990.0
▁海	-3991.0
man	-3992.0
们的	-3993.0
依据	-3994.0
过后	-3995.0
你们的	-3996.0
西北	-3997.0
间的	-3998.0
erson	-3999.0
四季	-4000.0
到他	-4001.0
让自己	-4002.0
▁只是	-4003.0
变了	-4004.0
观众	-4005.0
的情绪	-4006.0
对自己	-4007.0
👏👏👏👏	-4008.0
。。。。	-4009.0
一一	-4010.0
半山	-4011.0
成就	-4012.0
天然	-4013.0
它是	-4014.0
飞翔	-4015.0
原则	-4016.0
实力	-4017.0
王爷	-4018.0
类似	-4019.0
》、《	-4020.0
大陆	-4021.0
芝麻	-4022.0
的歌声	-4023.0
发觉	-4024.0
com	-4025.0
翠山	-4026.0
温暖的	-4027.0
偶像	-4028.0
尊重	-4029.0
回首	-4030.0
大气	-4031.0
青桐	-4032.0
好吧	-4033.0
这可	-4034.0
人和	-4035.0
最多	-4036.0
权利	-4037.0
不知不觉	-4038.0
我们要	-4039.0
折磨	-4040.0
统一	-4041.0
了过来	-4042.0
▁An	-4043.0
你的心	-4044.0
这一招	-4045.0
下次	-4046.0
在于	-4047.0
雪花	-4048.0
中国的	-4049.0
忧伤	-4050.0
这只	-4051.0
ody	-4052.0
忘不了	-4053.0
这两个	-4054.0
是正	-4055.0
脖子	-4056.0
别说	-4057.0
前后	-4058.0
开门	-4059.0
镖头	-4060.0
复合	-4061.0
物理	-4062.0
▁根据文章生成摘要	-4063.0
全面	-4064.0
事业	-4065.0
医疗	-4066.0
生存	-4067.0
风中	-4068.0
你可以	-4069.0
方面的	-4070.0
不堪	-4071.0
更有	-4072.0
买了	-4073.0
沉吟	-4074.0
ition	-4075.0
明确	-4076.0
山东	-4077.0
谢逊	-4078.0
▁into	-4079.0
不尽	-4080.0
心地	-4081.0
白发	-4082.0
绽放	-4083.0
两条	-4084.0
从不	-4085.0
开展	-4086.0
机场	-4087.0
办公室	-4088.0
喜悦	-4089.0
有些人	-4090.0
基金	-4091.0
一起去	-4092.0
智能	-4093.0
动的	-4094.0
时间的	-4095.0
手一	-4096.0
绿的	-4097.0
街道	-4098.0
连接	-4099.0
巨大的	-4100.0
古代	-4101.0
联邦	-4102.0
花香	-4103.0
霍青桐	-4104.0
万人	-4105.0
主要描述	-4106.0
公交	-4107.0
免疫	-4108.0
完整	-4109.0
委员会	-4110.0
肌肉	-4111.0
穿上	-4112.0
的那个	-4113.0
缺乏	-4114.0
▁sm	-4115.0
一群	-4116.0
约翰	-4117.0
自是	-4118.0
来来	-4119.0
一首歌	-4120.0
主要描述了什么	-4121.0
no	-4122.0
感冒	-4123.0
限制	-4124.0
▁这段文本主要描述了什么	-4125.0
媳妇	-4126.0
ings	-4127.0
等着	-4128.0
道德	-4129.0
并无	-4130.0
好不好	-4131.0
▁新	-4132.0
下山	-4133.0
不群	-4134.0
他人	-4135.0
邻居	-4136.0
听这首歌	-4137.0
树下	-4138.0
▁bec	-4139.0
点儿	-4140.0
莫愁	-4141.0
帮忙	-4142.0
话说	-4143.0
查明	-4144.0
相应	-4145.0
重复	-4146.0
去世	-4147.0
感恩	-4148.0
土壤	-4149.0
大惊	-4150.0
最美的	-4151.0
的了	-4152.0
详细	-4153.0
你却	-4154.0
大雨	-4155.0
错过	-4156.0
初中	-4157.0
向来	-4158.0
当你	-4159.0
了一大	-4160.0
▁dis	-4161.0
呈现	-4162.0
放松	-4163.0
桌子	-4164.0
妇女	-4165.0
神情	-4166.0
可能会	-4167.0
国师	-4168.0
▁然后	-4169.0
▁more	-4170.0
不时	-4171.0
有许多	-4172.0
太岳	-4173.0
点的	-4174.0
神秘	-4175.0
客人	-4176.0
心脏	-4177.0
还是负	-4178.0
▁sec	-4179.0
的中心思想	-4180.0
我不是	-4181.0
利于	-4182.0
说他	-4183.0
大吃一惊	-4184.0
定义	-4185.0
urn	-4186.0
▁如今	-4187.0
爱的人	-4188.0
▁over	-4189.0
NA	-4190.0
意味	-4191.0
保障	-4192.0
这部	-4193.0
钢琴	-4194.0
万剑	-4195.0
幻想	-4196.0
▁这段文本的中心思想	-4197.0
了她	-4198.0
行走	-4199.0
▁不知	-4200.0
形容	-4201.0
背心	-4202.0
ph	-4203.0
飞行	-4204.0
回到了	-4205.0
▁some	-4206.0
又惊	-4207.0
连连	-4208.0
我可以	-4209.0
纽约	-4210.0
警方	-4211.0
鉴定	-4212.0
▁ag	-4213.0
温馨	-4214.0
你又	-4215.0
年了	-4216.0
贷款	-4217.0
问答社区	-4218.0
了一阵	-4219.0
释放	-4220.0
屋里	-4221.0
ail	-4222.0
白色的	-4223.0
师傅	-4224.0
▁off	-4225.0
与我	-4226.0
再去	-4227.0
岳不群	-4228.0
建立了	-4229.0
郭襄	-4230.0
▁down	-4231.0
了一只	-4232.0
幸好	-4233.0
测量	-4234.0
那就是	-4235.0
,《	-4236.0
笑脸	-4237.0
更好的	-4238.0
的一些	-4239.0
婴儿	-4240.0
▁我是	-4241.0
头的	-4242.0
宇宙	-4243.0
发射	-4244.0
欢呼	-4245.0
把自己	-4246.0
▁Test	-4247.0
丁珰	-4248.0
验证	-4249.0
红色的	-4250.0
▁work	-4251.0
行驶	-4252.0
上升	-4253.0
说起	-4254.0
学会了	-4255.0
ence	-4256.0
▁but	-4257.0
▁刘	-4258.0
的就是	-4259.0
全力	-4260.0
无聊	-4261.0
▁才	-4262.0
冷笑道	-4263.0
ife	-4264.0
在家	-4265.0
收到	-4266.0
小草	-4267.0
单曲	-4268.0
▁时间	-4269.0
我爹爹	-4270.0
人士	-4271.0
将其	-4272.0
承担	-4273.0
调节	-4274.0
那边	-4275.0
味的	-4276.0
少了	-4277.0
大大的	-4278.0
▁when	-4279.0
只道	-4280.0
日常	-4281.0
永不	-4282.0
本领	-4283.0
高度	-4284.0
:"	-4285.0
ows	-4286.0
▁多少	-4287.0
玩具	-4288.0
知他	-4289.0
▁im	-4290.0
到现在	-4291.0
寻常	-4292.0
武士	-4293.0
落叶	-4294.0
选项	-4295.0
前进	-4296.0
翼翼	-4297.0
不明	-4298.0
是怎么	-4299.0
大哭	-4300.0
保留	-4301.0
坐着	-4302.0
招呼	-4303.0
担任	-4304.0
机械	-4305.0
说了什么	-4306.0
休闲	-4307.0
洋洋	-4308.0
斯的	-4309.0
▁How	-4310.0
教师	-4311.0
走上	-4312.0
▁长	-4313.0
场上	-4314.0
活性	-4315.0
浪费	-4316.0
▁这就是	-4317.0
并肩	-4318.0
老的	-4319.0
太岳四侠	-4320.0
半夜	-4321.0
生意	-4322.0
司机	-4323.0
热的	-4324.0
xt	-4325.0
太后	-4326.0
estion	-4327.0
是从	-4328.0
蜜蜂	-4329.0
线性	-4330.0
ors	-4331.0
珍珠	-4332.0
▁我在	-4333.0
!’	-4334.0
优雅	-4335.0
审理	-4336.0
▁pass	-4337.0
了的	-4338.0
文中	-4339.0
羽毛	-4340.0
重伤	-4341.0
魅力	-4342.0
型的	-4343.0
大声道	-4344.0
给自己	-4345.0
只会	-4346.0
是好	-4347.0
打电话	-4348.0
这时候	-4349.0
更新	-4350.0
我不知道	-4351.0
▁高	-4352.0
而又	-4353.0
我一直	-4354.0
之力	-4355.0
用了	-4356.0
▁杨过	-4357.0
信心	-4358.0
女朋友	-4359.0
东北	-4360.0
ory	-4361.0
厚的	-4362.0
发表	-4363.0
密度	-4364.0
看书	-4365.0
面包	-4366.0
▁We	-4367.0
▁生成摘要	-4368.0
▁识别出下文中的关键词	-4369.0
形态	-4370.0
情愿	-4371.0
中年	-4372.0
发育	-4373.0
春花	-4374.0
细节	-4375.0
灯光	-4376.0
无意	-4377.0
有机	-4378.0
细腻	-4379.0
试试	-4380.0
真情	-4381.0
播放	-4382.0
教会	-4383.0
自身	-4384.0
不出来	-4385.0
xxxx	-4386.0
吃完	-4387.0
女神	-4388.0
良好的	-4389.0
最终的答案是	-4390.0
丛中	-4391.0
漂亮的	-4392.0
想去	-4393.0
摇头道	-4394.0
发了	-4395.0
书包	-4396.0
地问	-4397.0
执着	-4398.0
剑术	-4399.0
得太	-4400.0
这份	-4401.0
张召重	-4402.0
》(	-4403.0
地向	-4404.0
为难	-4405.0
内部	-4406.0
获得了	-4407.0
解开	-4408.0
图像	-4409.0
万圭	-4410.0
不算	-4411.0
这段	-4412.0
那年	-4413.0
普遍	-4414.0
谁能	-4415.0
战略	-4416.0
跳舞	-4417.0
这一切	-4418.0
▁今	-4419.0
全都	-4420.0
静静地	-4421.0
屋顶	-4422.0
▁情感	-4423.0
他们在	-4424.0
多个	-4425.0
添加	-4426.0
真的好	-4427.0
不需要	-4428.0
安装	-4429.0
掌握	-4430.0
的人生	-4431.0
日夜	-4432.0
ied	-4433.0
▁men	-4434.0
将她	-4435.0
之情	-4436.0
利的	-4437.0
坐下	-4438.0
清澈	-4439.0
病毒	-4440.0
饺子	-4441.0
bo	-4442.0
单纯	-4443.0
一顿	-4444.0
大有	-4445.0
走路	-4446.0
追逐	-4447.0
▁永远	-4448.0
研究了	-4449.0
一夜	-4450.0
我已	-4451.0
见面	-4452.0
我就是	-4453.0
的工作	-4454.0
▁找出下文中的关键词	-4455.0
大厅	-4456.0
语文	-4457.0
贡献	-4458.0
体现	-4459.0
▁抽取出下文中的关键词	-4460.0
害人	-4461.0
友谊	-4462.0
迎接	-4463.0
慢慢的	-4464.0
▁输出	-4465.0
什么都	-4466.0
这话	-4467.0
闪避	-4468.0
好生	-4469.0
构建	-4470.0
淡淡的	-4471.0
微笑道	-4472.0
▁成	-4473.0
四十	-4474.0
首次	-4475.0
着头	-4476.0
重视	-4477.0
▁这段文本说了什么	-4478.0
一致	-4479.0
▁人生	-4480.0
▁输出摘要	-4481.0
你来	-4482.0
和谐	-4483.0
是对	-4484.0
教堂	-4485.0
永恒	-4486.0
我现在	-4487.0
掌门人	-4488.0
纵身	-4489.0
梅花	-4490.0
痕迹	-4491.0
葫芦	-4492.0
vel	-4493.0
不忍	-4494.0
鱼同	-4495.0
外公	-4496.0
▁group	-4497.0
站起来	-4498.0
imes	-4499.0
看了看	-4500.0
▁fact	-4501.0
你快	-4502.0
总结	-4503.0
小心翼翼	-4504.0
规矩	-4505.0
▁黄蓉	-4506.0
定要	-4507.0
探索	-4508.0
月份	-4509.0
又是一	-4510.0
▁than	-4511.0
地图	-4512.0
铁路	-4513.0
来不及	-4514.0
回到家	-4515.0
情歌	-4516.0
想来	-4517.0
行人	-4518.0
东南	-4519.0
你瞧	-4520.0
文种	-4521.0
微信	-4522.0
依赖	-4523.0
客户	-4524.0
此后	-4525.0
汗水	-4526.0
条件下	-4527.0
let	-4528.0
最喜欢	-4529.0
我们就	-4530.0
简单的	-4531.0
▁person	-4532.0
四名	-4533.0
西班	-4534.0
ating	-4535.0
傍晚	-4536.0
朦胧	-4537.0
▁这个问题	-4538.0
ys	-4539.0
发展的	-4540.0
▁哦	-4541.0
下手	-4542.0
十足	-4543.0
明星	-4544.0
这本书	-4545.0
睡着了	-4546.0
上山	-4547.0
航空	-4548.0
装饰	-4549.0
给了我	-4550.0
西班牙	-4551.0
▁its	-4552.0
动态	-4553.0
杰伦	-4554.0
问他	-4555.0
飞舞	-4556.0
一个月	-4557.0
余鱼同	-4558.0
两次	-4559.0
相逢	-4560.0
邀请	-4561.0
这是我	-4562.0
又要	-4563.0
武艺	-4564.0
相处	-4565.0
轻功	-4566.0
融合	-4567.0
一身	-4568.0
艰难	-4569.0
▁white	-4570.0
对其	-4571.0
摇晃	-4572.0
美妙	-4573.0
部位	-4574.0
▁怎么	-4575.0
不已	-4576.0
广东	-4577.0
窗户	-4578.0
了多少	-4579.0
的主	-4580.0
面料	-4581.0
是一位	-4582.0
叫什么	-4583.0
昨晚	-4584.0
通知	-4585.0
师太	-4586.0
睁开	-4587.0
少林寺	-4588.0
小猪	-4589.0
atch	-4590.0
包裹	-4591.0
的方式	-4592.0
矛盾	-4593.0
风筝	-4594.0
包含	-4595.0
带来的	-4596.0
你再	-4597.0
理会	-4598.0
确是	-4599.0
也已	-4600.0
伦敦	-4601.0
地面	-4602.0
不自禁	-4603.0
计算机	-4604.0
演员	-4605.0
血压	-4606.0
oss	-4607.0
互联	-4608.0
桂花	-4609.0
发生了	-4610.0
▁playing	-4611.0
比我	-4612.0
▁情感分析	-4613.0
像个	-4614.0
誓言	-4615.0
着她	-4616.0
▁time	-4617.0
aw	-4618.0
云南	-4619.0
怀抱	-4620.0
小女孩	-4621.0
帽子	-4622.0
行了	-4623.0
电视剧	-4624.0
rough	-4625.0
年后	-4626.0
鞋子	-4627.0
施工	-4628.0
▁梦	-4629.0
对待	-4630.0
近日	-4631.0
不能再	-4632.0
爸妈	-4633.0
愿你	-4634.0
的人们	-4635.0
半个	-4636.0
小狗	-4637.0
花瓣	-4638.0
PS	-4639.0
分类	-4640.0
判断	-4641.0
地把	-4642.0
运气	-4643.0
锻炼	-4644.0
信仰	-4645.0
双目	-4646.0
特色	-4647.0
法子	-4648.0
▁从此	-4649.0
II	-4650.0
热爱	-4651.0
上帝	-4652.0
心中一	-4653.0
下雨	-4654.0
某甲	-4655.0
让他们	-4656.0
一手	-4657.0
吴国剑士	-4658.0
为此	-4659.0
前往	-4660.0
完颜	-4661.0
因为他	-4662.0
好像在	-4663.0
去吧	-4664.0
资格	-4665.0
挂在	-4666.0
成功的	-4667.0
一本	-4668.0
然道	-4669.0
---	-4670.0
派出	-4671.0
▁ser	-4672.0
清新	-4673.0
宣传	-4674.0
眼看	-4675.0
几步	-4676.0
带来了	-4677.0
尴尬	-4678.0
▁red	-4679.0
吴三	-4680.0
宝石	-4681.0
那姓	-4682.0
面临	-4683.0
生机	-4684.0
下来的	-4685.0
队伍	-4686.0
不得不	-4687.0
双刀	-4688.0
短暂	-4689.0
有何	-4690.0
ath	-4691.0
第二次	-4692.0
▁南	-4693.0
上班	-4694.0
绿色的	-4695.0
广州	-4696.0
▁终于	-4697.0
书中	-4698.0
无礼	-4699.0
规范	-4700.0
须得	-4701.0
让它	-4702.0
述了	-4703.0
问你	-4704.0
一点点	-4705.0
博士	-4706.0
沙发	-4707.0
试图	-4708.0
武林中	-4709.0
恭喜	-4710.0
流星	-4711.0
一辆	-4712.0
不语	-4713.0
恐惧	-4714.0
电池	-4715.0
肝脏	-4716.0
明知	-4717.0
牛奶	-4718.0
群众	-4719.0
高于	-4720.0
很是	-4721.0
得上	-4722.0
长时间	-4723.0
他把	-4724.0
盼望	-4725.0
小姑娘	-4726.0
文泰	-4727.0
不幸	-4728.0
尽量	-4729.0
玩笑	-4730.0
贸易	-4731.0
也不知道	-4732.0
第五	-4733.0
风的	-4734.0
主席	-4735.0
娱乐	-4736.0
自从	-4737.0
长长的	-4738.0
几十	-4739.0
得好	-4740.0
又惊又	-4741.0
我再	-4742.0
地在	-4743.0
打扰	-4744.0
not	-4745.0
快乐的	-4746.0
这座	-4747.0
的一部分	-4748.0
各个	-4749.0
车上	-4750.0
提供了	-4751.0
孩儿	-4752.0
照亮	-4753.0
等候	-4754.0
诊断	-4755.0
吴三桂	-4756.0
。《	-4757.0
流动	-4758.0
▁回答	-4759.0
下马	-4760.0
只因	-4761.0
篮球	-4762.0
▁how	-4763.0
住他	-4764.0
打败	-4765.0
很大的	-4766.0
不离	-4767.0
点燃	-4768.0
追赶	-4769.0
这句话翻译成中文	-4770.0
”“	-4771.0
天使	-4772.0
清洁	-4773.0
▁不是	-4774.0
的变化	-4775.0
个性	-4776.0
何以	-4777.0
忙碌	-4778.0
不会再	-4779.0
▁black	-4780.0
刚好	-4781.0
并在	-4782.0
一口气	-4783.0
斯坦	-4784.0
和其他	-4785.0
先前	-4786.0
可真	-4787.0
吴士	-4788.0
四处	-4789.0
修改	-4790.0
请求	-4791.0
一支	-4792.0
加快	-4793.0
▁就是	-4794.0
从来没	-4795.0
勉强	-4796.0
的最	-4797.0
对照组	-4798.0
学术	-4799.0
阿尔	-4800.0
随机	-4801.0
的模样	-4802.0
半天	-4803.0
的金	-4804.0
对我的	-4805.0
演唱会	-4806.0
不一会儿	-4807.0
当作	-4808.0
行礼	-4809.0
伤感	-4810.0
杭州	-4811.0
fore	-4812.0
已被	-4813.0
传递	-4814.0
官方	-4815.0
题主	-4816.0
万分	-4817.0
做个	-4818.0
无双	-4819.0
香气	-4820.0
教的	-4821.0
设置	-4822.0
飘飘	-4823.0
我跟	-4824.0
王者	-4825.0
是那么	-4826.0
赵半山	-4827.0
▁二	-4828.0
得他	-4829.0
核心	-4830.0
案件	-4831.0
相助	-4832.0
共有	-4833.0
失落	-4834.0
道上	-4835.0
什么的	-4836.0
ple	-4837.0
▁had	-4838.0
着小	-4839.0
▁金	-4840.0
两步	-4841.0
已有	-4842.0
形状	-4843.0
伙子	-4844.0
打造	-4845.0
有人说	-4846.0
松鼠	-4847.0
就开始	-4848.0
他想	-4849.0
女士	-4850.0
抚摸	-4851.0
时分	-4852.0
蛋白质	-4853.0
一开始	-4854.0
雪山派	-4855.0
了大	-4856.0
动听	-4857.0
停留	-4858.0
专门	-4859.0
向往	-4860.0
细菌	-4861.0
维持	-4862.0
频率	-4863.0
乖乖	-4864.0
在外	-4865.0
▁红	-4866.0
句子	-4867.0
品种	-4868.0
嗓子	-4869.0
他不	-4870.0
生平	-4871.0
离别	-4872.0
活力	-4873.0
跑了	-4874.0
镖局	-4875.0
随手	-4876.0
▁stud	-4877.0
闭上	-4878.0
▁new	-4879.0
▁被	-4880.0
回归	-4881.0
快要	-4882.0
跃起	-4883.0
乌鸦	-4884.0
门前	-4885.0
发抖	-4886.0
说来	-4887.0
▁run	-4888.0
确认	-4889.0
菊花	-4890.0
ik	-4891.0
肩膀	-4892.0
阵阵	-4893.0
先后	-4894.0
暑假	-4895.0
边缘	-4896.0
伟大	-4897.0
圈子	-4898.0
潇洒	-4899.0
真相	-4900.0
而过	-4901.0
公鸡	-4902.0
所有人	-4903.0
进攻	-4904.0
也被	-4905.0
全然	-4906.0
年少	-4907.0
并未	-4908.0
绝望	-4909.0
道长	-4910.0
没有了	-4911.0
▁我知道	-4912.0
四川	-4913.0
家长	-4914.0
西亚	-4915.0
丰富的	-4916.0
徘徊	-4917.0
气质	-4918.0
磕头	-4919.0
最后的	-4920.0
三天	-4921.0
纵然	-4922.0
我们在	-4923.0
中文怎么说	-4924.0
也无	-4925.0
展现	-4926.0
河边	-4927.0
叹道	-4928.0
偶然	-4929.0
其它	-4930.0
板上	-4931.0
浑身	-4932.0
曲线	-4933.0
▁前	-4934.0
▁雨	-4935.0
料想	-4936.0
转移	-4937.0
道的	-4938.0
都不会	-4939.0
喜爱	-4940.0
幼儿	-4941.0
▁Q	-4942.0
改进	-4943.0
▁我的心	-4944.0
离子	-4945.0
逃走	-4946.0
镖师	-4947.0
魔法	-4948.0
这些人	-4949.0
▁以	-4950.0
商品	-4951.0
大利	-4952.0
▁过了	-4953.0
周伯通	-4954.0
群豪	-4955.0
认定	-4956.0
调皮	-4957.0
大胆	-4958.0
打着	-4959.0
拿到	-4960.0
涉及	-4961.0
了一会儿	-4962.0
书记	-4963.0
儿女	-4964.0
只须	-4965.0
▁到了	-4966.0
reet	-4967.0
);	-4968.0
天真	-4969.0
资本	-4970.0
omet	-4971.0
不平	-4972.0
少妇	-4973.0
我用	-4974.0
支撑	-4975.0
三分	-4976.0
今后	-4977.0
XX	-4978.0
应当	-4979.0
蓝色	-4980.0
▁山	-4981.0
推开	-4982.0
的梦	-4983.0
文献	-4984.0
相识	-4985.0
这就	-4986.0
wor	-4987.0
这一下	-4988.0
又在	-4989.0
忙道	-4990.0
着那	-4991.0
缓解	-4992.0
芷若	-4993.0
解药	-4994.0
这小子	-4995.0
庄主	-4996.0
免费	-4997.0
回报	-4998.0
毒针	-4999.0
▁What	-5000.0
三位	-5001.0
▁请回答	-5002.0
的基础上	-5003.0
快快	-5004.0
教我	-5005.0
八名	-5006.0
清兵	-5007.0
怎会	-5008.0
冬季	-5009.0
决不	-5010.0
百年	-5011.0
池塘	-5012.0
男朋友	-5013.0
▁请回答下面的问题	-5014.0
▁陈	-5015.0
中最	-5016.0
坚定	-5017.0
环保	-5018.0
原理	-5019.0
相救	-5020.0
赔偿	-5021.0
don	-5022.0
▁有一天	-5023.0
几句	-5024.0
奇迹	-5025.0
少数	-5026.0
更为	-5027.0
anc	-5028.0
两银子	-5029.0
的第一	-5030.0
功力	-5031.0
这张	-5032.0
akes	-5033.0
得我	-5034.0
灰狼	-5035.0
遗忘	-5036.0
你的手	-5037.0
嫌疑	-5038.0
只见他	-5039.0
摇了	-5040.0
▁就像	-5041.0
地看着	-5042.0
口腔	-5043.0
数值	-5044.0
要我	-5045.0
乔峰	-5046.0
遇上	-5047.0
当当	-5048.0
做法	-5049.0
变的	-5050.0
明亮	-5051.0
明日	-5052.0
耀眼	-5053.0
▁选项	-5054.0
处处	-5055.0
相伴	-5056.0
答允	-5057.0
不完	-5058.0
华山	-5059.0
病人	-5060.0
荷花	-5061.0
超越	-5062.0
避开	-5063.0
覆盖	-5064.0
清香	-5065.0
笑话	-5066.0
在我们	-5067.0
▁cor	-5068.0
万物	-5069.0
君子	-5070.0
韩国	-5071.0
了自己	-5072.0
的同时	-5073.0
一来	-5074.0
ump	-5075.0
分别为	-5076.0
依靠	-5077.0
展示	-5078.0
ange	-5079.0
基督	-5080.0
率领	-5081.0
▁会	-5082.0
变形	-5083.0
周期	-5084.0
开的	-5085.0
华辉	-5086.0
座位	-5087.0
中国人	-5088.0
对面	-5089.0
▁str	-5090.0
动弹	-5091.0
厘米	-5092.0
嘴角	-5093.0
固定	-5094.0
把握	-5095.0
民主	-5096.0
询问	-5097.0
便道	-5098.0
==	-5099.0
过于	-5100.0
▁bo	-5101.0
加工	-5102.0
嗓音	-5103.0
武学	-5104.0
系数	-5105.0
ven	-5106.0
在自己	-5107.0
黄药师	-5108.0
整齐	-5109.0
那可	-5110.0
主要是	-5111.0
去做	-5112.0
孩子的	-5113.0
是一只	-5114.0
▁两	-5115.0
不忘	-5116.0
我从	-5117.0
签订	-5118.0
老了	-5119.0
输了	-5120.0
我发现	-5121.0
aking	-5122.0
这事	-5123.0
人来	-5124.0
在小	-5125.0
大队	-5126.0
材质	-5127.0
与他	-5128.0
双臂	-5129.0
构成	-5130.0
▁sk	-5131.0
有的人	-5132.0
而上	-5133.0
蛋糕	-5134.0
洗澡	-5135.0
疲惫	-5136.0
造型	-5137.0
广播	-5138.0
花朵	-5139.0
生病	-5140.0
一定是	-5141.0
旋转	-5142.0
黄色的	-5143.0
水里	-5144.0
甜的	-5145.0
路过	-5146.0
一切都	-5147.0
城里	-5148.0
好啊	-5149.0
平之	-5150.0
整理	-5151.0
白雪	-5152.0
▁after	-5153.0
心事	-5154.0
圆圆	-5155.0
拔出	-5156.0
看你	-5157.0
▁本	-5158.0
叹息	-5159.0
居住	-5160.0
say	-5161.0
医学	-5162.0
大战	-5163.0
效应	-5164.0
挫折	-5165.0
身形	-5166.0
美人	-5167.0
镜子	-5168.0
共和国	-5169.0
代替	-5170.0
童话	-5171.0
骆冰	-5172.0
▁不过	-5173.0
则是	-5174.0
奇道	-5175.0
提前	-5176.0
aid	-5177.0
这个世界	-5178.0
▁shirt	-5179.0
大会	-5180.0
牺牲	-5181.0
人生的	-5182.0
教训	-5183.0
不解	-5184.0
的身影	-5185.0
tern	-5186.0
姥姥	-5187.0
平常	-5188.0
▁So	-5189.0
哎呀	-5190.0
泥土	-5191.0
外国	-5192.0
拉齐	-5193.0
策略	-5194.0
焦急	-5195.0
退出	-5196.0
互联网	-5197.0
演绎	-5198.0
一闪	-5199.0
丽的	-5200.0
带走	-5201.0
接到	-5202.0
月的	-5203.0
过了一会儿	-5204.0
听过	-5205.0
ib	-5206.0
奉献	-5207.0
伟大的	-5208.0
助于	-5209.0
▁难道	-5210.0
久的	-5211.0
层次	-5212.0
岩石	-5213.0
投降	-5214.0
相斗	-5215.0
袭击	-5216.0
飞到	-5217.0
ady	-5218.0
小朋友	-5219.0
▁hold	-5220.0
口的	-5221.0
场景	-5222.0
顺利	-5223.0
ms	-5224.0
无尽	-5225.0
而起	-5226.0
表白	-5227.0
ely	-5228.0
声中	-5229.0
沉沉	-5230.0
烟客	-5231.0
轻轻一	-5232.0
里面的	-5233.0
我妈	-5234.0
阻止	-5235.0
▁无论	-5236.0
其次	-5237.0
黑的	-5238.0
其他的	-5239.0
鸳鸯刀	-5240.0
大脑	-5241.0
谁都	-5242.0
谢烟客	-5243.0
家族	-5244.0
标志	-5245.0
往下	-5246.0
长发	-5247.0
▁there	-5248.0
小弟	-5249.0
香香	-5250.0
为自己	-5251.0
▁part	-5252.0
冰冷	-5253.0
我真	-5254.0
途中	-5255.0
▁看着	-5256.0
的一天	-5257.0
的关系	-5258.0
不良	-5259.0
夏季	-5260.0
球队	-5261.0
的后	-5262.0
不服	-5263.0
岛上	-5264.0
你的爱	-5265.0
都是一	-5266.0
信任	-5267.0
呆了	-5268.0
拿了	-5269.0
敏感	-5270.0
试卷	-5271.0
不可以	-5272.0
。|	-5273.0
姊姊	-5274.0
得紧	-5275.0
打架	-5276.0
简约	-5277.0
动脉	-5278.0
亿元	-5279.0
想过	-5280.0
也可	-5281.0
匕首	-5282.0
成果	-5283.0
十三	-5284.0
透气	-5285.0
yst	-5286.0
李莫愁	-5287.0
见识	-5288.0
评估	-5289.0
著名的	-5290.0
山的	-5291.0
叫人	-5292.0
舌头	-5293.0
半年	-5294.0
搜索	-5295.0
悄悄地	-5296.0
才发现	-5297.0
现状	-5298.0
却在	-5299.0
两年	-5300.0
沉重	-5301.0
mm	-5302.0
拇指	-5303.0
冲突	-5304.0
奔到	-5305.0
身穿	-5306.0
非洲	-5307.0
▁blue	-5308.0
动着	-5309.0
了一遍	-5310.0
大为	-5311.0
拾起	-5312.0
若是	-5313.0
▁need	-5314.0
巴巴	-5315.0
颗粒	-5316.0
脆弱	-5317.0
▁gre	-5318.0
之色	-5319.0
情况下	-5320.0
我真的	-5321.0
办理	-5322.0
高考	-5323.0
公安局	-5324.0
这不是	-5325.0
从来没有	-5326.0
▁hour	-5327.0
站着	-5328.0
不掉	-5329.0
莫名	-5330.0
我们班	-5331.0
发动	-5332.0
热血	-5333.0
要紧	-5334.0
▁中国	-5335.0
还记得	-5336.0
向你	-5337.0
坏人	-5338.0
好笑	-5339.0
vers	-5340.0
排名	-5341.0
的结果	-5342.0
ouse	-5343.0
又问	-5344.0
服用	-5345.0
繁华	-5346.0
而我	-5347.0
帮你	-5348.0
王国	-5349.0
田野	-5350.0
而行	-5351.0
胡说	-5352.0
好久	-5353.0
强烈	-5354.0
散发	-5355.0
的人物	-5356.0
结束了	-5357.0
伤痕	-5358.0
随意	-5359.0
我怎么	-5360.0
▁also	-5361.0
同伴	-5362.0
深圳	-5363.0
谁的	-5364.0
uit	-5365.0
不让	-5366.0
有过	-5367.0
ream	-5368.0
制备	-5369.0
那儿	-5370.0
▁是否	-5371.0
▁五	-5372.0
眼镜	-5373.0
网友	-5374.0
ock	-5375.0
凌晨	-5376.0
雪山	-5377.0
oin	-5378.0
却已	-5379.0
村民	-5380.0
是你的	-5381.0
▁common	-5382.0
使者	-5383.0
倒了	-5384.0
区的	-5385.0
舵主	-5386.0
黑白	-5387.0
▁back	-5388.0
函数	-5389.0
合成	-5390.0
才有	-5391.0
做一个	-5392.0
叫着	-5393.0
屋子	-5394.0
▁直到	-5395.0
产生的	-5396.0
春秋	-5397.0
▁am	-5398.0
▁did	-5399.0
敌手	-5400.0
的头	-5401.0
独特的	-5402.0
博物	-5403.0
菩萨	-5404.0
课程	-5405.0
障碍	-5406.0
顺着	-5407.0
给他们	-5408.0
女郎	-5409.0
倒也	-5410.0
看过	-5411.0
全真	-5412.0
大多	-5413.0
瓦耳	-5414.0
精灵	-5415.0
赶快	-5416.0
的意思	-5417.0
凤凰	-5418.0
ale	-5419.0
▁——	-5420.0
小二	-5421.0
散步	-5422.0
终点	-5423.0
一个人的	-5424.0
瓦耳拉齐	-5425.0
万万	-5426.0
大汗	-5427.0
接连	-5428.0
颤抖	-5429.0
不及待	-5430.0
倒在地	-5431.0
父子	-5432.0
爆炸	-5433.0
透过	-5434.0
他对	-5435.0
没有什么	-5436.0
迫不及待	-5437.0
▁很	-5438.0
主持	-5439.0
这番	-5440.0
够了	-5441.0
张开	-5442.0
尽数	-5443.0
收藏	-5444.0
眼眶	-5445.0
身影	-5446.0
林平之	-5447.0
▁<	-5448.0
▁杨	-5449.0
严格	-5450.0
合物	-5451.0
面目	-5452.0
又一次	-5453.0
暗中	-5454.0
河南	-5455.0
狼狈	-5456.0
春节	-5457.0
仙女	-5458.0
鱼儿	-5459.0
它们的	-5460.0
是多么	-5461.0
匹马	-5462.0
跟她	-5463.0
极为	-5464.0
肌肤	-5465.0
路边	-5466.0
猛地	-5467.0
车的	-5468.0
颇为	-5469.0
能不能	-5470.0
laim	-5471.0
克斯	-5472.0
抱怨	-5473.0
火把	-5474.0
文泰来	-5475.0
▁pre	-5476.0
向着	-5477.0
快活	-5478.0
▁去	-5479.0
带领	-5480.0
归来	-5481.0
到最后	-5482.0
ittle	-5483.0
de	-5484.0
此处	-5485.0
我相信	-5486.0
with	-5487.0
我先	-5488.0
li	-5489.0
鲜花	-5490.0
的路上	-5491.0
听到这首歌	-5492.0
对她	-5493.0
感受到	-5494.0
乡下	-5495.0
两天	-5496.0
铁干	-5497.0
苏联	-5498.0
形的	-5499.0
潮流	-5500.0
写作	-5501.0
在山	-5502.0
性质	-5503.0
跟前	-5504.0
ank	-5505.0
▁ph	-5506.0
不曾	-5507.0
群体	-5508.0
hed	-5509.0
区别	-5510.0
救命	-5511.0
牢牢	-5512.0
周绮	-5513.0
器的	-5514.0
巴黎	-5515.0
构造	-5516.0
到这里	-5517.0
沧桑	-5518.0
观看	-5519.0
",	-5520.0
大道	-5521.0
光芒	-5522.0
金银	-5523.0
抓住了	-5524.0
每天都	-5525.0
仅仅	-5526.0
公司的	-5527.0
数百	-5528.0
不通	-5529.0
在心里	-5530.0
的武功	-5531.0
▁̄	-5532.0
学科	-5533.0
抵挡	-5534.0
英文	-5535.0
得更	-5536.0
腿上	-5537.0
不识	-5538.0
他要	-5539.0
带上	-5540.0
精度	-5541.0
ars	-5542.0
认为是	-5543.0
▁秋	-5544.0
公开	-5545.0
发作	-5546.0
掌力	-5547.0
物品	-5548.0
▁lar	-5549.0
ual	-5550.0
▁sitting	-5551.0
人了	-5552.0
全无	-5553.0
心痛	-5554.0
解放	-5555.0
设施	-5556.0
闵柔	-5557.0
通过对	-5558.0
不止	-5559.0
哪有	-5560.0
一千	-5561.0
上天	-5562.0
深夜	-5563.0
相貌	-5564.0
紫衣	-5565.0
学者	-5566.0
方程	-5567.0
盯着	-5568.0
只有一	-5569.0
建造	-5570.0
ball	-5571.0
公众	-5572.0
手足	-5573.0
相反	-5574.0
苦苦	-5575.0
了一口	-5576.0
发行	-5577.0
哲学	-5578.0
姑姑	-5579.0
是非	-5580.0
相交	-5581.0
黄昏	-5582.0
》《	-5583.0
呆呆	-5584.0
好吃	-5585.0
老天	-5586.0
他还	-5587.0
甚为	-5588.0
io	-5589.0
仲英	-5590.0
响应	-5591.0
沧海	-5592.0
消防	-5593.0
玩的	-5594.0
骨头	-5595.0
这是一	-5596.0
❤️	-5597.0
实的	-5598.0
喝了	-5599.0
▁find	-5600.0
总管	-5601.0
妈的	-5602.0
ict	-5603.0
这许多	-5604.0
了一会	-5605.0
陈家洛道	-5606.0
%.	-5607.0
心惊	-5608.0
手法	-5609.0
闻到	-5610.0
就不会	-5611.0
强调	-5612.0
国家的	-5613.0
威胁	-5614.0
立马	-5615.0
绵绵	-5616.0
率为	-5617.0
老太	-5618.0
前方	-5619.0
包袱	-5620.0
化为	-5621.0
向西	-5622.0
种族	-5623.0
QQ	-5624.0
真诚	-5625.0
远去	-5626.0
▁col	-5627.0
ement	-5628.0
寂静	-5629.0
一想	-5630.0
比武	-5631.0
半晌	-5632.0
归农	-5633.0
得起	-5634.0
在一旁	-5635.0
跟我说	-5636.0
▁des	-5637.0
定位	-5638.0
不明白	-5639.0
张翠山	-5640.0
我终于	-5641.0
不便	-5642.0
向外	-5643.0
和大	-5644.0
通红	-5645.0
一言	-5646.0
分泌	-5647.0
抱住	-5648.0
清风	-5649.0
ok	-5650.0
当天	-5651.0
见那	-5652.0
挥手	-5653.0
河水	-5654.0
牵着	-5655.0
分数	-5656.0
奋力	-5657.0
登记	-5658.0
▁勾践	-5659.0
场的	-5660.0
白衣	-5661.0
过往	-5662.0
实用	-5663.0
把这	-5664.0
蜗牛	-5665.0
员工	-5666.0
牛肉	-5667.0
哈哈哈哈	-5668.0
期的	-5669.0
远了	-5670.0
不是我	-5671.0
剑尖	-5672.0
未能	-5673.0
所谓的	-5674.0
这么说	-5675.0
一棵	-5676.0
翩翩	-5677.0
一滴	-5678.0
做事	-5679.0
带我	-5680.0
再加上	-5681.0
第二个	-5682.0
伊斯	-5683.0
tain	-5684.0
ai	-5685.0
ck	-5686.0
但她	-5687.0
客店	-5688.0
犹太	-5689.0
ton	-5690.0
可靠	-5691.0
害死	-5692.0
必定	-5693.0
派人	-5694.0
到哪里	-5695.0
共享	-5696.0
双掌	-5697.0
走的	-5698.0
回味	-5699.0
多吃	-5700.0
蜡烛	-5701.0
▁那些	-5702.0
问题的	-5703.0
迷茫	-5704.0
听听	-5705.0
年华	-5706.0
应力	-5707.0
穿越	-5708.0
华山派	-5709.0
满是	-5710.0
着脸	-5711.0
跑去	-5712.0
人说	-5713.0
包装	-5714.0
缺点	-5715.0
▁Un	-5716.0
维护	-5717.0
ina	-5718.0
的同学	-5719.0
▁met	-5720.0
心动	-5721.0
牡丹	-5722.0
子和	-5723.0
起身	-5724.0
远离	-5725.0
很好听	-5726.0
风师兄	-5727.0
port	-5728.0
打扮	-5729.0
放到	-5730.0
那也	-5731.0
老年	-5732.0
还好	-5733.0
中毒	-5734.0
口水	-5735.0
▁app	-5736.0
暂时	-5737.0
你是我	-5738.0
我不会	-5739.0
遇到了	-5740.0
刺猬	-5741.0
处机	-5742.0
来找	-5743.0
分明	-5744.0
吃过	-5745.0
就去	-5746.0
真爱	-5747.0
粮食	-5748.0
好似	-5749.0
恐怕	-5750.0
欺骗	-5751.0
地区的	-5752.0
大自然	-5753.0
战士	-5754.0
推广	-5755.0
浙江	-5756.0
自豪	-5757.0
将会	-5758.0
度过	-5759.0
起舞	-5760.0
陶醉	-5761.0
meric	-5762.0
莫非	-5763.0
实际上	-5764.0
留下的	-5765.0
怀孕	-5766.0
沿着	-5767.0
成为了	-5768.0
▁此	-5769.0
其时	-5770.0
惊呼	-5771.0
就没有	-5772.0
▁日	-5773.0
呜呜	-5774.0
是指	-5775.0
蓝天	-5776.0
姐妹	-5777.0
是哪	-5778.0
▁随着	-5779.0
——”	-5780.0
我希望	-5781.0
答应了	-5782.0
制的	-5783.0
无言	-5784.0
的天空	-5785.0
亲人	-5786.0
公平	-5787.0
之地	-5788.0
工人	-5789.0
火焰	-5790.0
自杀	-5791.0
我们一起	-5792.0
向她	-5793.0
均匀	-5794.0
与人	-5795.0
冷笑	-5796.0
范蠡道	-5797.0
宁静	-5798.0
小猫	-5799.0
是很	-5800.0
菲青	-5801.0
小花	-5802.0
待得	-5803.0
感慨	-5804.0
骆驼	-5805.0
Ch	-5806.0
bl	-5807.0
南部	-5808.0
王的	-5809.0
▁幸福	-5810.0
点头道	-5811.0
一曲	-5812.0
毒药	-5813.0
太多的	-5814.0
笑着说	-5815.0
人海	-5816.0
较大	-5817.0
一点儿	-5818.0
利剑	-5819.0
快步	-5820.0
椅子	-5821.0
比亚	-5822.0
乘客	-5823.0
视觉	-5824.0
辉煌	-5825.0
介绍了	-5826.0
感觉到	-5827.0
▁这句话	-5828.0
CA	-5829.0
一分	-5830.0
公布	-5831.0
小兔	-5832.0
起到	-5833.0
iel	-5834.0
一路上	-5835.0
陆菲青	-5836.0
觉得自己	-5837.0
under	-5838.0
层的	-5839.0
沉积	-5840.0
蜘蛛	-5841.0
衣袖	-5842.0
丘处机	-5843.0
又能	-5844.0
得不	-5845.0
报警	-5846.0
发明	-5847.0
说说	-5848.0
白万剑	-5849.0
▁years	-5850.0
▁street	-5851.0
完善	-5852.0
的两	-5853.0
大象	-5854.0
已将	-5855.0
教练	-5856.0
绳子	-5857.0
街头	-5858.0
郭芙	-5859.0
pr	-5860.0
级的	-5861.0
你为什么	-5862.0
决计	-5863.0
双腿	-5864.0
like	-5865.0
👍👍👍👍👍👍👍👍	-5866.0
法的	-5867.0
声说道	-5868.0
▁喜欢	-5869.0
三角	-5870.0
语气	-5871.0
是的	-5872.0
测定	-5873.0
深的	-5874.0
不错的	-5875.0
总有	-5876.0
提到	-5877.0
老奶奶	-5878.0
冷漠	-5879.0
沅芷	-5880.0
说到这里	-5881.0
▁them	-5882.0
危机	-5883.0
灵珊	-5884.0
遭遇	-5885.0
屏幕	-5886.0
房门	-5887.0
工作人员	-5888.0
不胜	-5889.0
关节	-5890.0
唯有	-5891.0
落的	-5892.0
意大利	-5893.0
接下来	-5894.0
开来	-5895.0
线的	-5896.0
唯一的	-5897.0
ants	-5898.0
美女	-5899.0
的一声响	-5900.0
):	-5901.0
回应	-5902.0
跑步	-5903.0
薛烛道	-5904.0
柔情	-5905.0
为我们	-5906.0
墙上	-5907.0
恐怖	-5908.0
晶莹	-5909.0
缠绵	-5910.0
一般的	-5911.0
十四	-5912.0
打击	-5913.0
▁old	-5914.0
▁rec	-5915.0
西藏	-5916.0
CD	-5917.0
一柄	-5918.0
风声	-5919.0
▁Which	-5920.0
▁曾	-5921.0
景色	-5922.0
▁那少女	-5923.0
化作	-5924.0
裘千	-5925.0
渐渐地	-5926.0
做人	-5927.0
分辨	-5928.0
暴雨	-5929.0
看的	-5930.0
重庆	-5931.0
团团	-5932.0
燕子	-5933.0
你还是	-5934.0
袁紫衣	-5935.0
▁任	-5936.0
权力	-5937.0
一副	-5938.0
培训	-5939.0
柔和	-5940.0
而下	-5941.0
对了	-5942.0
南海	-5943.0
听的	-5944.0
格外	-5945.0
较高	-5946.0
士中	-5947.0
曲子	-5948.0
遗传	-5949.0
香蕉	-5950.0
近年来	-5951.0
买的	-5952.0
呼唤	-5953.0
活泼	-5954.0
祝你	-5955.0
经理	-5956.0
看不见	-5957.0
便会	-5958.0
行事	-5959.0
各种各	-5960.0
IS	-5961.0
分配	-5962.0
同桌	-5963.0
块钱	-5964.0
市民	-5965.0
高高	-5966.0
摇了摇头	-5967.0
ations	-5968.0
从中	-5969.0
作家	-5970.0
▁about	-5971.0
在海	-5972.0
意味着	-5973.0
▁through	-5974.0
。"	-5975.0
一旁	-5976.0
主角	-5977.0
有谁	-5978.0
疑惑	-5979.0
相依	-5980.0
干燥	-5981.0
的多	-5982.0
草地上	-5983.0
雨水	-5984.0
作战	-5985.0
冲击	-5986.0
把她	-5987.0
见你	-5988.0
说要	-5989.0
时而	-5990.0
尽情	-5991.0
监督	-5992.0
的是什么	-5993.0
乌云	-5994.0
拿来	-5995.0
晚辈	-5996.0
朝廷	-5997.0
河流	-5998.0
纵马	-5999.0
岳灵珊	-6000.0
熟悉的	-6001.0
之内	-6002.0
奔出	-6003.0
疗效	-6004.0
好友	-6005.0
起的	-6006.0
森林里	-6007.0
CO	-6008.0
一脚	-6009.0
超市	-6010.0
那日	-6011.0
中所	-6012.0
ason	-6013.0
惭愧	-6014.0
放了	-6015.0
灭绝	-6016.0
丁不四	-6017.0
的力量	-6018.0
又不	-6019.0
杂志	-6020.0
淋漓	-6021.0
破绽	-6022.0
鸭子	-6023.0
▁唱	-6024.0
惊奇	-6025.0
欺侮	-6026.0
纳米	-6027.0
这天	-6028.0
amp	-6029.0
看不到	-6030.0
anna	-6031.0
ooking	-6032.0
▁again	-6033.0
剑谱	-6034.0
干部	-6035.0
老家	-6036.0
我不想	-6037.0
当前	-6038.0
携带	-6039.0
话来	-6040.0
ft	-6041.0
交换	-6042.0
尔斯	-6043.0
下载	-6044.0
车站	-6045.0
rap	-6046.0
wer	-6047.0
人们的	-6048.0
%、	-6049.0
世的	-6050.0
疲劳	-6051.0
段时间	-6052.0
钥匙	-6053.0
倒退	-6054.0
亿美元	-6055.0
他会	-6056.0
▁if	-6057.0
运输	-6058.0
下来了	-6059.0
博物馆	-6060.0
胡萝卜	-6061.0
▁爱你	-6062.0
还有什么	-6063.0
婚姻	-6064.0
将这	-6065.0
所得	-6066.0
辜负	-6067.0
公元前	-6068.0
▁快	-6069.0
▁就这样	-6070.0
次日	-6071.0
――	-6072.0
有种	-6073.0
没能	-6074.0
不要再	-6075.0
代谢	-6076.0
胖子	-6077.0
过去的	-6078.0
▁我们的	-6079.0
剑招	-6080.0
增添	-6081.0
选举	-6082.0
地铁	-6083.0
大名	-6084.0
▁请你	-6085.0
的人都	-6086.0
俯身	-6087.0
宁愿	-6088.0
常规	-6089.0
自语	-6090.0
那个人	-6091.0
俱乐	-6092.0
我叫	-6093.0
无悔	-6094.0
女孩子	-6095.0
留下了	-6096.0
pt	-6097.0
照耀	-6098.0
的精神	-6099.0
逃避	-6100.0
▁水	-6101.0
被子	-6102.0
见到了	-6103.0
▁But	-6104.0
有余	-6105.0
顷刻	-6106.0
顺手	-6107.0
ins	-6108.0
完美的	-6109.0
我心中	-6110.0
使人	-6111.0
出声	-6112.0
来啦	-6113.0
我们是	-6114.0
每一天	-6115.0
温柔的	-6116.0
金蛇	-6117.0
怎么了	-6118.0
的爱情	-6119.0
默默地	-6120.0
传奇	-6121.0
联赛	-6122.0
▁只见	-6123.0
▁这是	-6124.0
time	-6125.0
刹那	-6126.0
清醒	-6127.0
著名	-6128.0
ily	-6129.0
为一	-6130.0
usic	-6131.0
仍是	-6132.0
得住	-6133.0
▁然而	-6134.0
oney	-6135.0
途径	-6136.0
每一次	-6137.0
悟空	-6138.0
欢笑	-6139.0
传统的	-6140.0
阮士中	-6141.0
▁x	-6142.0
一剑	-6143.0
各地	-6144.0
技巧	-6145.0
你没	-6146.0
奇妙	-6147.0
由此	-6148.0
你就是	-6149.0
忘掉	-6150.0
都市	-6151.0
通道	-6152.0
也是一	-6153.0
在中国	-6154.0
点缀	-6155.0
肿瘤	-6156.0
例子	-6157.0
滚滚	-6158.0
以免	-6159.0
房里	-6160.0
饭后	-6161.0
ull	-6162.0
不知如何	-6163.0
另有	-6164.0
嘲笑	-6165.0
总算	-6166.0
oth	-6167.0
Th	-6168.0
就没	-6169.0
徒弟	-6170.0
世界的	-6171.0
▁would	-6172.0
借口	-6173.0
团队	-6174.0
明教	-6175.0
美味	-6176.0
图片	-6177.0
als	-6178.0
六个	-6179.0
十七	-6180.0
田伯	-6181.0
监测	-6182.0
明显的	-6183.0
倒是	-6184.0
显是	-6185.0
湖南	-6186.0
纠缠	-6187.0
起伏	-6188.0
An	-6189.0
各有	-6190.0
物种	-6191.0
看出	-6192.0
飞出	-6193.0
只要你	-6194.0
国外	-6195.0
个子	-6196.0
ystem	-6197.0
与其	-6198.0
想说	-6199.0
抓起	-6200.0
时常	-6201.0
而死	-6202.0
的答案	-6203.0
施展	-6204.0
上了一	-6205.0
树的	-6206.0
道歉	-6207.0
ited	-6208.0
▁long	-6209.0
阿拉伯	-6210.0
的确	-6211.0
饮酒	-6212.0
露出了	-6213.0
争吵	-6214.0
年年	-6215.0
注册	-6216.0
生了	-6217.0
碎了	-6218.0
离婚	-6219.0
农夫	-6220.0
加拿	-6221.0
手脚	-6222.0
技能	-6223.0
豆腐	-6224.0
ner	-6225.0
却没有	-6226.0
主教	-6227.0
早餐	-6228.0
藏着	-6229.0
转换	-6230.0
运营	-6231.0
忘记了	-6232.0
队长	-6233.0
清楚楚	-6234.0
··	-6235.0
一晃	-6236.0
协调	-6237.0
危急	-6238.0
演出	-6239.0
缺少	-6240.0
脸颊	-6241.0
节日	-6242.0
十一	-6243.0
某个	-6244.0
混乱	-6245.0
寿命	-6246.0
▁为你	-6247.0
刚开始	-6248.0
老实	-6249.0
lec	-6250.0
便有	-6251.0
不好意思	-6252.0
fr	-6253.0
outs	-6254.0
清清楚楚	-6255.0
ax	-6256.0
文艺	-6257.0
期望	-6258.0
饮料	-6259.0
这个人	-6260.0
适当	-6261.0
下一个	-6262.0
李文秀道	-6263.0
依法	-6264.0
加速	-6265.0
微风	-6266.0
抵抗	-6267.0
老祖	-6268.0
强大	-6269.0
耳机	-6270.0
衣裳	-6271.0
贝尔	-6272.0
连声	-6273.0
险些	-6274.0
是人	-6275.0
装备	-6276.0
一同	-6277.0
江山	-6278.0
很容易	-6279.0
将那	-6280.0
上市	-6281.0
清脆	-6282.0
内心的	-6283.0
素质	-6284.0
聚集	-6285.0
▁Sh	-6286.0
▁一个人	-6287.0
弥漫	-6288.0
长江	-6289.0
在这儿	-6290.0
地打	-6291.0
平平	-6292.0
是用	-6293.0
观念	-6294.0
双脚	-6295.0
地对	-6296.0
愉快	-6297.0
迎面	-6298.0
没关系	-6299.0
地点	-6300.0
计较	-6301.0
▁standing	-6302.0
仍在	-6303.0
版型	-6304.0
得不到	-6305.0
深深的	-6306.0
范大夫	-6307.0
ww	-6308.0
优点	-6309.0
守候	-6310.0
悲哀	-6311.0
殖民	-6312.0
身手	-6313.0
双足	-6314.0
胸膛	-6315.0
了不起	-6316.0
不经	-6317.0
亲切	-6318.0
牵手	-6319.0
any	-6320.0
ower	-6321.0
一到	-6322.0
乐队	-6323.0
凝视	-6324.0
失了	-6325.0
杀我	-6326.0
猎人	-6327.0
▁Ne	-6328.0
走开	-6329.0
▁第	-6330.0
式的	-6331.0
证实	-6332.0
谁知	-6333.0
▁fil	-6334.0
无关	-6335.0
不休	-6336.0
岛主	-6337.0
干扰	-6338.0
橘子	-6339.0
继承	-6340.0
回答说	-6341.0
小孩子	-6342.0
科学家	-6343.0
▁我爱你	-6344.0
以此	-6345.0
听歌	-6346.0
周末	-6347.0
差点	-6348.0
手持	-6349.0
基本上	-6350.0
拉克	-6351.0
毒手	-6352.0
▁我爱	-6353.0
出一个	-6354.0
三次	-6355.0
只为	-6356.0
忍耐	-6357.0
筷子	-6358.0
父亲的	-6359.0
思绪	-6360.0
果实	-6361.0
逻辑	-6362.0
▁一起	-6363.0
动物们	-6364.0
好好的	-6365.0
着自己	-6366.0
天龙	-6367.0
资产	-6368.0
的儿子	-6369.0
火光	-6370.0
看法	-6371.0
闪电	-6372.0
高级	-6373.0
在你的	-6374.0
天边	-6375.0
alk	-6376.0
▁him	-6377.0
便可	-6378.0
又说	-6379.0
女的	-6380.0
得像	-6381.0
糟糕	-6382.0
输入	-6383.0
over	-6384.0
😘😘😘😘	-6385.0
uring	-6386.0
不等	-6387.0
外号	-6388.0
林中	-6389.0
游客	-6390.0
移民	-6391.0
有心	-6392.0
脚步声	-6393.0
”(	-6394.0
别再	-6395.0
打死	-6396.0
▁放	-6397.0
低于	-6398.0
格兰	-6399.0
楼下	-6400.0
在他的	-6401.0
田归农	-6402.0
▁passage	-6403.0
给的	-6404.0
▁只听得	-6405.0
回复	-6406.0
海军	-6407.0
突出	-6408.0
脚印	-6409.0
▁是我	-6410.0
苗大侠	-6411.0
▁春天	-6412.0
又一	-6413.0
漫画	-6414.0
路的	-6415.0
可以在	-6416.0
▁When	-6417.0
战胜	-6418.0
来临	-6419.0
灯火	-6420.0
称赞	-6421.0
ait	-6422.0
CT	-6423.0
快点	-6424.0
思索	-6425.0
摇滚	-6426.0
不多时	-6427.0
越来越多	-6428.0
▁越	-6429.0
众多	-6430.0
冒险	-6431.0
非法	-6432.0
的一响	-6433.0
吉他	-6434.0
带了	-6435.0
换了	-6436.0
财产	-6437.0
我只是	-6438.0
最后一	-6439.0
动静	-6440.0
故障	-6441.0
服装	-6442.0
灯笼	-6443.0
青山	-6444.0
ats	-6445.0
ets	-6446.0
just	-6447.0
出于	-6448.0
原始	-6449.0
心意	-6450.0
泪流	-6451.0
try	-6452.0
▁ball	-6453.0
从事	-6454.0
保存	-6455.0
同事	-6456.0
很远	-6457.0
恍然	-6458.0
把小	-6459.0
推进	-6460.0
透明	-6461.0
▁大家	-6462.0
ix	-6463.0
似是	-6464.0
十多	-6465.0
大型	-6466.0
不愿意	-6467.0
有助于	-6468.0
▁阿青	-6469.0
伙伴们	-6470.0
做饭	-6471.0
心跳	-6472.0
一带	-6473.0
之物	-6474.0
但这	-6475.0
自有	-6476.0
长了	-6477.0
因为你	-6478.0
▁hum	-6479.0
青文	-6480.0
颇有	-6481.0
也不用	-6482.0
还有一个	-6483.0
心念	-6484.0
能在	-6485.0
中学	-6486.0
兵器	-6487.0
劲力	-6488.0
坐骑	-6489.0
姓名	-6490.0
没错	-6491.0
白菜	-6492.0
温和	-6493.0
皱纹	-6494.0
赛季	-6495.0
浓浓	-6496.0
脱手	-6497.0
了一场	-6498.0
因为它	-6499.0
我看到	-6500.0
闯王	-6501.0
▁每天	-6502.0
十字	-6503.0
专利	-6504.0
了一口气	-6505.0
八卦	-6506.0
喊道	-6507.0
并对	-6508.0
路人	-6509.0
过年	-6510.0
写了	-6511.0
▁世界	-6512.0
作为一个	-6513.0
余生	-6514.0
推动	-6515.0
不得了	-6516.0
出血	-6517.0
西部	-6518.0
身在	-6519.0
嘴唇	-6520.0
小可	-6521.0
良好	-6522.0
同样的	-6523.0
严厉	-6524.0
客厅	-6525.0
巨大	-6526.0
散了	-6527.0
正如	-6528.0
红花会	-6529.0
pe	-6530.0
取代	-6531.0
这老	-6532.0
夫差	-6533.0
找个	-6534.0
黑暗中	-6535.0
开花	-6536.0
摇摆	-6537.0
观的	-6538.0
误差	-6539.0
醉了	-6540.0
陡然	-6541.0
的都是	-6542.0
三名	-6543.0
人工	-6544.0
团结	-6545.0
左掌	-6546.0
恶鬼	-6547.0
边界	-6548.0
主张	-6549.0
大口	-6550.0
大方	-6551.0
姿态	-6552.0
财富	-6553.0
▁你是	-6554.0
写作业	-6555.0
咨询	-6556.0
情景	-6557.0
最美	-6558.0
▁produc	-6559.0
我做	-6560.0
荷叶	-6561.0
融化	-6562.0
😂😂	-6563.0
got	-6564.0
气候	-6565.0
作曲	-6566.0
原创	-6567.0
神仙	-6568.0
▁three	-6569.0
傻瓜	-6570.0
消除	-6571.0
难免	-6572.0
就好了	-6573.0
老爷爷	-6574.0
在后	-6575.0
水面	-6576.0
议论	-6577.0
诧异	-6578.0
总舵主	-6579.0
一红	-6580.0
溜溜	-6581.0
裤子	-6582.0
高校	-6583.0
▁黑	-6584.0
心思	-6585.0
我听	-6586.0
禁止	-6587.0
为止	-6588.0
澳大	-6589.0
实在是	-6590.0
不妨	-6591.0
前行	-6592.0
咽喉	-6593.0
密切	-6594.0
其中的	-6595.0
周仲英	-6596.0
幼儿园	-6597.0
右臂	-6598.0
子安	-6599.0
赶来	-6600.0
▁你可以	-6601.0
豪杰	-6602.0
路口	-6603.0
伤痛	-6604.0
出神	-6605.0
增大	-6606.0
大臣	-6607.0
请教	-6608.0
▁我也	-6609.0
我师父	-6610.0
一指	-6611.0
城堡	-6612.0
对此	-6613.0
知的	-6614.0
进展	-6615.0
▁目的	-6616.0
就是这样	-6617.0
养殖	-6618.0
固然	-6619.0
▁最终的答案是	-6620.0
一脸	-6621.0
壁上	-6622.0
的热	-6623.0
突破	-6624.0
自成	-6625.0
升起	-6626.0
因子	-6627.0
带有	-6628.0
我和你	-6629.0
我永远	-6630.0
▁She	-6631.0
BA	-6632.0
民间	-6633.0
被你	-6634.0
高强	-6635.0
▁sur	-6636.0
亚洲	-6637.0
▁bet	-6638.0
定然	-6639.0
将你	-6640.0
美食	-6641.0
ough	-6642.0
乐趣	-6643.0
轮回	-6644.0
min	-6645.0
什么是	-6646.0
大风	-6647.0
看我	-6648.0
▁build	-6649.0
假的	-6650.0
升高	-6651.0
带到	-6652.0
有钱	-6653.0
河里	-6654.0
百分	-6655.0
缤纷	-6656.0
看上去	-6657.0
沟通	-6658.0
电梯	-6659.0
逍遥子	-6660.0
五年	-6661.0
卧室	-6662.0
宝藏	-6663.0
尽力	-6664.0
弹性	-6665.0
相聚	-6666.0
额头	-6667.0
引起的	-6668.0
我的爱	-6669.0
喃喃	-6670.0
怒气	-6671.0
胆子	-6672.0
西安	-6673.0
血刀僧	-6674.0
outside	-6675.0
协会	-6676.0
图案	-6677.0
天南	-6678.0
死后	-6679.0
想到了	-6680.0
一方	-6681.0
凄凉	-6682.0
质感	-6683.0
高大	-6684.0
▁这些	-6685.0
对你说	-6686.0
fl	-6687.0
不吃	-6688.0
张望	-6689.0
无处	-6690.0
他和	-6691.0
夜的	-6692.0
整整	-6693.0
牧羊	-6694.0
▁全	-6695.0
▁走	-6696.0
约束	-6697.0
纸上	-6698.0
严肃	-6699.0
情深	-6700.0
存在的	-6701.0
cer	-6702.0
突然之间	-6703.0
同一	-6704.0
便能	-6705.0
必然	-6706.0
总体	-6707.0
是了	-6708.0
▁千	-6709.0
勃勃	-6710.0
大众	-6711.0
死去	-6712.0
被我	-6713.0
除非	-6714.0
▁那天	-6715.0
▁This	-6716.0
呐喊	-6717.0
岂知	-6718.0
谁也不	-6719.0
上次	-6720.0
人之	-6721.0
年间	-6722.0
引发	-6723.0
思维	-6724.0
俱乐部	-6725.0
的机会	-6726.0
▁飞	-6727.0
不远	-6728.0
就说	-6729.0
百岁	-6730.0
▁陈家洛	-6731.0
人为	-6732.0
紧急	-6733.0
▁不再	-6734.0
范围内	-6735.0
那样的	-6736.0
ually	-6737.0
久了	-6738.0
何等	-6739.0
家门	-6740.0
山谷	-6741.0
推出	-6742.0
的马	-6743.0
知己	-6744.0
背着	-6745.0
语音	-6746.0
队员	-6747.0
派出所	-6748.0
cess	-6749.0
玩了	-6750.0
▁walking	-6751.0
▁四	-6752.0
小鱼	-6753.0
就连	-6754.0
了不少	-6755.0
可不是	-6756.0
没有任何	-6757.0
▁used	-6758.0
三百	-6759.0
亲戚	-6760.0
娘子	-6761.0
心碎	-6762.0
打个	-6763.0
的车	-6764.0
芬芳	-6765.0
跟踪	-6766.0
▁minut	-6767.0
乞丐	-6768.0
土豆	-6769.0
种植	-6770.0
深深地	-6771.0
设计的	-6772.0
▁There	-6773.0
那小	-6774.0
好手	-6775.0
富含	-6776.0
拍摄	-6777.0
药品	-6778.0
他自己	-6779.0
▁front	-6780.0
倾听	-6781.0
工厂	-6782.0
ends	-6783.0
抱起	-6784.0
生理	-6785.0
眼下	-6786.0
群岛	-6787.0
那一刻	-6788.0
山顶	-6789.0
张三	-6790.0
金子	-6791.0
该方法	-6792.0
围绕	-6793.0
收集	-6794.0
放进	-6795.0
破碎	-6796.0
优美	-6797.0
陷入	-6798.0
feel	-6799.0
SA	-6800.0
人数	-6801.0
来回	-6802.0
打开了	-6803.0
又有什么	-6804.0
澳大利亚	-6805.0
动车	-6806.0
奥斯	-6807.0
暖暖	-6808.0
模仿	-6809.0
这歌	-6810.0
当真是	-6811.0
▁hand	-6812.0
ek	-6813.0
交警	-6814.0
天长	-6815.0
美貌	-6816.0
运动员	-6817.0
▁做	-6818.0
会上	-6819.0
宿舍	-6820.0
步伐	-6821.0
癌症	-6822.0
耐心	-6823.0
你的歌	-6824.0
的光芒	-6825.0
遇见你	-6826.0
治理	-6827.0
翻身	-6828.0
见证	-6829.0
你不是	-6830.0
考察	-6831.0
草地	-6832.0
▁一切	-6833.0
也不错	-6834.0
元的	-6835.0
最低	-6836.0
有意	-6837.0
😁😁	-6838.0
月初	-6839.0
转向	-6840.0
信念	-6841.0
分解	-6842.0
未免	-6843.0
北部	-6844.0
提着	-6845.0
武汉	-6846.0
经历了	-6847.0
▁above	-6848.0
听她	-6849.0
祈祷	-6850.0
而在	-6851.0
昆虫	-6852.0
当中	-6853.0
悬崖	-6854.0
▁inc	-6855.0
啪啪	-6856.0
实话	-6857.0
才华	-6858.0
扩大	-6859.0
的目光	-6860.0
这一生	-6861.0
五六	-6862.0
气得	-6863.0
流淌	-6864.0
清凉	-6865.0
沙滩	-6866.0
清水	-6867.0
关怀	-6868.0
到你	-6869.0
洞里	-6870.0
满面	-6871.0
乡村	-6872.0
信用	-6873.0
唱片	-6874.0
布置	-6875.0
机的	-6876.0
若无	-6877.0
预计	-6878.0
上马	-6879.0
动画	-6880.0
了几下	-6881.0
局部	-6882.0
在美国	-6883.0
▁much	-6884.0
不做	-6885.0
富贵	-6886.0
条约	-6887.0
给它	-6888.0
只是一	-6889.0
唱出了	-6890.0
▁been	-6891.0
奥运	-6892.0
我被	-6893.0
而至	-6894.0
我的手	-6895.0
一掌	-6896.0
剩下	-6897.0
太极	-6898.0
把手	-6899.0
着实	-6900.0
了些	-6901.0
福康	-6902.0
长安	-6903.0
我不能	-6904.0
高兴地	-6905.0
包围	-6906.0
那张	-6907.0
之所以	-6908.0
催化	-6909.0
明媚	-6910.0
病的	-6911.0
蓦地里	-6912.0
ward	-6913.0
创业	-6914.0
厕所	-6915.0
▁because	-6916.0
瞧得	-6917.0
嫌疑人	-6918.0
MA	-6919.0
下令	-6920.0
不死	-6921.0
便秘	-6922.0
漫长	-6923.0
诗人	-6924.0
久久	-6925.0
振动	-6926.0
满头	-6927.0
耶律	-6928.0
负担	-6929.0
▁wr	-6930.0
我看见	-6931.0
每个人都	-6932.0
▁where	-6933.0
了他的	-6934.0
剩下的	-6935.0
轻轻的	-6936.0
▁万	-6937.0
无缘	-6938.0
本院	-6939.0
江苏	-6940.0
鞑子	-6941.0
▁outside	-6942.0
升级	-6943.0
在哪	-6944.0
像一个	-6945.0
出了一	-6946.0
落入	-6947.0
转念	-6948.0
回家了	-6949.0
▁days	-6950.0
他却	-6951.0
呵护	-6952.0
视为	-6953.0
说你	-6954.0
提高了	-6955.0
▁second	-6956.0
书的	-6957.0
州的	-6958.0
总之	-6959.0
挺剑	-6960.0
ics	-6961.0
一小	-6962.0
原料	-6963.0
山坡	-6964.0
短短	-6965.0
李沅芷	-6966.0
福康安	-6967.0
埃及	-6968.0
年至	-6969.0
拱手	-6970.0
棉花	-6971.0
香主	-6972.0
大家的	-6973.0
脑海中	-6974.0
花铁干	-6975.0
人才	-6976.0
八方	-6977.0
抢上	-6978.0
生生	-6979.0
阿九	-6980.0
ious	-6981.0
原地	-6982.0
室内	-6983.0
终身	-6984.0
这下	-6985.0
MP	-6986.0
gl	-6987.0
一枚	-6988.0
凝神	-6989.0
富有	-6990.0
尺寸	-6991.0
直至	-6992.0
象征	-6993.0
▁与	-6994.0
啤酒	-6995.0
那条	-6996.0
周芷若	-6997.0
will	-6998.0
同行	-6999.0
说法	-7000.0
氏兄弟	-7001.0
稳定性	-7002.0
社会主义	-7003.0
gr	-7004.0
丝丝	-7005.0
五彩	-7006.0
在前	-7007.0
景象	-7008.0
识得	-7009.0
辐射	-7010.0
曾经的	-7011.0
千玺	-7012.0
▁mon	-7013.0
▁月	-7014.0
过度	-7015.0
的季节	-7016.0
二次	-7017.0
仙人	-7018.0
地产	-7019.0
天色	-7020.0
秋风	-7021.0
谎言	-7022.0
一无	-7023.0
掠过	-7024.0
我不禁	-7025.0
丫头	-7026.0
人是	-7027.0
军官	-7028.0
对准	-7029.0
所能	-7030.0
窗口	-7031.0
魔鬼	-7032.0
鲜艳	-7033.0
取得了	-7034.0
什么东西	-7035.0
▁温	-7036.0
义父	-7037.0
吴坎	-7038.0
救援	-7039.0
珍贵	-7040.0
爱情的	-7041.0
列车	-7042.0
当他	-7043.0
当场	-7044.0
激励	-7045.0
吓了一	-7046.0
哈哈哈	-7047.0
的食物	-7048.0
火烧	-7049.0
认得	-7050.0
▁爸爸	-7051.0
ield	-7052.0
一心	-7053.0
干了	-7054.0
星光	-7055.0
管家	-7056.0
没办法	-7057.0
再看	-7058.0
意料	-7059.0
方丈	-7060.0
框架	-7061.0
完成了	-7062.0
仪琳	-7063.0
掌柜	-7064.0
工作的	-7065.0
无论是	-7066.0
初步	-7067.0
神功	-7068.0
老爸	-7069.0
隧道	-7070.0
城市的	-7071.0
激素	-7072.0
的红	-7073.0
田青文	-7074.0
平淡	-7075.0
既是	-7076.0
忍受	-7077.0
死在	-7078.0
灵活	-7079.0
装置	-7080.0
wanna	-7081.0
人多	-7082.0
塑料	-7083.0
抛弃	-7084.0
船上	-7085.0
难题	-7086.0
▁stat	-7087.0
▁women	-7088.0
提示	-7089.0
作出	-7090.0
咚咚	-7091.0
送了	-7092.0
亲手	-7093.0
好心	-7094.0
花生	-7095.0
史婆婆	-7096.0
不宜	-7097.0
举办	-7098.0
好几	-7099.0
降水	-7100.0
OS	-7101.0
取消	-7102.0
司法	-7103.0
头脑	-7104.0
岂能	-7105.0
握住	-7106.0
楚国	-7107.0
身高	-7108.0
what	-7109.0
下课	-7110.0
与众	-7111.0
喝彩	-7112.0
尽了	-7113.0
精力	-7114.0
较为	-7115.0
震撼	-7116.0
我都会	-7117.0
刷刷	-7118.0
密的	-7119.0
代价	-7120.0
十九	-7121.0
头陀	-7122.0
▁一直	-7123.0
▁ear	-7124.0
手的	-7125.0
迟疑	-7126.0
了一顿	-7127.0
中药	-7128.0
伤悲	-7129.0
州市	-7130.0
▁从前	-7131.0
太平洋	-7132.0
奶奶的	-7133.0
迅捷	-7134.0
非同	-7135.0
麻雀	-7136.0
卫星	-7137.0
恭敬	-7138.0
获取	-7139.0
酒杯	-7140.0
骑马	-7141.0
▁Americ	-7142.0
借款	-7143.0
花花	-7144.0
有一只	-7145.0
▁your	-7146.0
占领	-7147.0
听完	-7148.0
尸身	-7149.0
所说	-7150.0
▁sw	-7151.0
所以我	-7152.0
那书生	-7153.0
▁我喜欢	-7154.0
一拍	-7155.0
成都	-7156.0
的三	-7157.0
遭到	-7158.0
elf	-7159.0
PC	-7160.0
女王	-7161.0
欲望	-7162.0
清洗	-7163.0
那份	-7164.0
▁只听	-7165.0
▁就在	-7166.0
也不要	-7167.0
有一定的	-7168.0
光了	-7169.0
半截	-7170.0
发达	-7171.0
待要	-7172.0
的白	-7173.0
▁To	-7174.0
无所谓	-7175.0
我的心里	-7176.0
▁几	-7177.0
入侵	-7178.0
发芽	-7179.0
财政	-7180.0
不过是	-7181.0
无论如何	-7182.0
滋润	-7183.0
ird	-7184.0
地从	-7185.0
糖尿	-7186.0
▁一生	-7187.0
▁是你	-7188.0
为她	-7189.0
低下	-7190.0
南北	-7191.0
哎哟	-7192.0
校长	-7193.0
盛开	-7194.0
😍😍	-7195.0
▁against	-7196.0
你若	-7197.0
去向	-7198.0
自言	-7199.0
还未	-7200.0
闪动	-7201.0
伸手去	-7202.0
化合物	-7203.0
说不出的	-7204.0
▁开	-7205.0
包容	-7206.0
漫步	-7207.0
He	-7208.0
单独	-7209.0
处罚	-7210.0
夷光	-7211.0
相距	-7212.0
乃是	-7213.0
八道	-7214.0
唠叨	-7215.0
就想	-7216.0
无忧	-7217.0
朝鲜	-7218.0
烟花	-7219.0
人人都	-7220.0
香香公主	-7221.0
在马	-7222.0
批准	-7223.0
踏上	-7224.0
品味	-7225.0
拍手	-7226.0
替代	-7227.0
餐厅	-7228.0
一个是	-7229.0
的方向	-7230.0
不答	-7231.0
封信	-7232.0
心酸	-7233.0
救了	-7234.0
新年	-7235.0
它在	-7236.0
待我	-7237.0
能源	-7238.0
诉讼	-7239.0
雨中	-7240.0
▁dif	-7241.0
我一个人	-7242.0
往上	-7243.0
要想	-7244.0
以往	-7245.0
先师	-7246.0
哭着	-7247.0
的几	-7248.0
时代的	-7249.0
▁ver	-7250.0
截至	-7251.0
耐烦	-7252.0
教室里	-7253.0
仪式	-7254.0
摩托	-7255.0
沙沙	-7256.0
铁手	-7257.0
春天的	-7258.0
生活在	-7259.0
全家	-7260.0
据说	-7261.0
暗自	-7262.0
柳树	-7263.0
配置	-7264.0
蓝色的	-7265.0
审理查明	-7266.0
的夜	-7267.0
线条	-7268.0
越王	-7269.0
💝💝	-7270.0
满满的	-7271.0
▁bus	-7272.0
回过头来	-7273.0
西南	-7274.0
转变	-7275.0
高声	-7276.0
在家里	-7277.0
黑色的	-7278.0
want	-7279.0
不受	-7280.0
从头	-7281.0
你把	-7282.0
巧妙	-7283.0
声声	-7284.0
残忍	-7285.0
▁你是我	-7286.0
算了	-7287.0
这边	-7288.0
oot	-7289.0
着我们	-7290.0
使出	-7291.0
启动	-7292.0
均有	-7293.0
征服	-7294.0
日前	-7295.0
最为	-7296.0
纵横	-7297.0
却不知	-7298.0
▁sub	-7299.0
▁真	-7300.0
会被	-7301.0
加拿大	-7302.0
▁问	-7303.0
一代	-7304.0
二哥	-7305.0
古典	-7306.0
皇后	-7307.0
石子	-7308.0
阁下	-7309.0
▁忽然	-7310.0
许许多	-7311.0
▁corre	-7312.0
诉说	-7313.0
迷糊	-7314.0
▁目前	-7315.0
弯弯	-7316.0
时许	-7317.0
演奏	-7318.0
铁棒	-7319.0
集体	-7320.0
飞扬	-7321.0
今天的	-7322.0
供应	-7323.0
很小	-7324.0
的电	-7325.0
等一	-7326.0
机器人	-7327.0
女友	-7328.0
arm	-7329.0
微笑着	-7330.0
这里的	-7331.0
▁留	-7332.0
单身	-7333.0
向左	-7334.0
检验	-7335.0
怎么能	-7336.0
的风景	-7337.0
大叫一声	-7338.0
有两	-7339.0
证券	-7340.0
跟在	-7341.0
但也	-7342.0
分的	-7343.0
螃蟹	-7344.0
有效的	-7345.0
▁评论表达	-7346.0
临时	-7347.0
干嘛	-7348.0
欺负	-7349.0
带我去	-7350.0
吓了一跳	-7351.0
▁large	-7352.0
七个	-7353.0
办事	-7354.0
必是	-7355.0
我该	-7356.0
浮现	-7357.0
热水	-7358.0
认知	-7359.0
院子	-7360.0
就这么	-7361.0
脑海里	-7362.0
笑得	-7363.0
补偿	-7364.0
西湖	-7365.0
误会	-7366.0
辅助	-7367.0
▁most	-7368.0
原唱	-7369.0
容貌	-7370.0
情势	-7371.0
母鸡	-7372.0
讲述	-7373.0
ines	-7374.0
袁承志道	-7375.0
。[	-7376.0
不甘	-7377.0
咬牙	-7378.0
楼上	-7379.0
理念	-7380.0
看完	-7381.0
了一次	-7382.0
几下	-7383.0
蚊子	-7384.0
透了	-7385.0
道士	-7386.0
黄河	-7387.0
还是很	-7388.0
ather	-7389.0
iving	-7390.0
▁under	-7391.0
ational	-7392.0
长刀	-7393.0
母亲的	-7394.0
多彩	-7395.0
容颜	-7396.0
时时	-7397.0
情不自禁	-7398.0
国民	-7399.0
多想	-7400.0
广大	-7401.0
几个月	-7402.0
引入	-7403.0
明朝	-7404.0
警告	-7405.0
这三	-7406.0
这家	-7407.0
强大的	-7408.0
我给你	-7409.0
的情景	-7410.0
by	-7411.0
▁太	-7412.0
憔悴	-7413.0
疑心	-7414.0
金钱	-7415.0
小溪	-7416.0
我将	-7417.0
打我	-7418.0
日月	-7419.0
痛快	-7420.0
美洲	-7421.0
追寻	-7422.0
飞去	-7423.0
有利于	-7424.0
ince	-7425.0
▁有一种	-7426.0
在我身边	-7427.0
永远不会	-7428.0
谁也	-7429.0
▁rem	-7430.0
▁small	-7431.0
%;	-7432.0
委会	-7433.0
和他的	-7434.0
的那种	-7435.0
许多人	-7436.0
发病	-7437.0
向北	-7438.0
告知	-7439.0
好想	-7440.0
左臂	-7441.0
盒子	-7442.0
翻唱	-7443.0
足以	-7444.0
金额	-7445.0
孙悟空	-7446.0
不留	-7447.0
城中	-7448.0
威尔	-7449.0
最早	-7450.0
笑了笑	-7451.0
一秒	-7452.0
伊斯兰	-7453.0
实现了	-7454.0
光阴	-7455.0
永久	-7456.0
白猿	-7457.0
采访	-7458.0
长乐	-7459.0
脸上的	-7460.0
向下	-7461.0
得过	-7462.0
拉斯	-7463.0
的雨	-7464.0
落花	-7465.0
江湖上有	-7466.0
胡说八道	-7467.0
▁children	-7468.0
危害	-7469.0
救我	-7470.0
night	-7471.0
吃惊	-7472.0
在手	-7473.0
怪我	-7474.0
指甲	-7475.0
每人	-7476.0
海石	-7477.0
的可	-7478.0
飞来	-7479.0
▁段誉	-7480.0
陶子安	-7481.0
乱跳	-7482.0
激光	-7483.0
相会	-7484.0
蘑菇	-7485.0
议会	-7486.0
有两个	-7487.0
急性	-7488.0
老是	-7489.0
鱼的	-7490.0
▁On	-7491.0
家里的	-7492.0
你听	-7493.0
峨嵋	-7494.0
摆脱	-7495.0
自称	-7496.0
田伯光	-7497.0
正自	-7498.0
这样一个	-7499.0
丢了	-7500.0
拉住	-7501.0
ters	-7502.0
单曲循环	-7503.0
▁only	-7504.0
操场	-7505.0
爆发	-7506.0
爱好	-7507.0
若非	-7508.0
服务员	-7509.0
不被	-7510.0
到大	-7511.0
忽听	-7512.0
阴阳	-7513.0
ames	-7514.0
吃着	-7515.0
我行	-7516.0
空的	-7517.0
有哪些	-7518.0
冷冷地道	-7519.0
▁then	-7520.0
▁林	-7521.0
气球	-7522.0
高温	-7523.0
也不过	-7524.0
People	-7525.0
地走	-7526.0
班级	-7527.0
视线	-7528.0
▁有一次	-7529.0
一部	-7530.0
听不	-7531.0
大喊	-7532.0
必有	-7533.0
痛得	-7534.0
发生在	-7535.0
记载	-7536.0
不是你	-7537.0
初心	-7538.0
地理	-7539.0
奴隶	-7540.0
百度	-7541.0
摇摇头	-7542.0
生命中	-7543.0
要么	-7544.0
▁rid	-7545.0
再多	-7546.0
着手	-7547.0
阿紫	-7548.0
单元	-7549.0
右掌	-7550.0
孔雀	-7551.0
山水	-7552.0
帐篷	-7553.0
很不	-7554.0
得一	-7555.0
小白兔	-7556.0
上门	-7557.0
缓慢	-7558.0
都想	-7559.0
懂得了	-7560.0
才好	-7561.0
树干	-7562.0
不在乎	-7563.0
的阳光	-7564.0
选择了	-7565.0
ex	-7566.0
人也	-7567.0
入睡	-7568.0
开车	-7569.0
总督	-7570.0
抽出	-7571.0
流量	-7572.0
观测	-7573.0
阿绣	-7574.0
good	-7575.0
基地	-7576.0
已在	-7577.0
情报	-7578.0
越大	-7579.0
驱动	-7580.0
。’”	-7581.0
本质	-7582.0
珠宝	-7583.0
长风	-7584.0
门户	-7585.0
gether	-7586.0
原是	-7587.0
友情	-7588.0
成年	-7589.0
皇家	-7590.0
▁act	-7591.0
固醇	-7592.0
混凝	-7593.0
蜂蜜	-7594.0
决不能	-7595.0
yeah	-7596.0
吵架	-7597.0
明年	-7598.0
世界上最	-7599.0
cm	-7600.0
他用	-7601.0
四肢	-7602.0
因而	-7603.0
是自己	-7604.0
▁经审理查明	-7605.0
公民	-7606.0
吆喝	-7607.0
很想	-7608.0
无线	-7609.0
ght	-7610.0
爱上了	-7611.0
不放	-7612.0
体重	-7613.0
依稀	-7614.0
相守	-7615.0
▁回忆	-7616.0
了上去	-7617.0
产生了	-7618.0
黄蓉道	-7619.0
turn	-7620.0
传授	-7621.0
修复	-7622.0
感叹	-7623.0
无助	-7624.0
是小	-7625.0
荷兰	-7626.0
经历过	-7627.0
可爱的小	-7628.0
化妆	-7629.0
合并	-7630.0
很高	-7631.0
自治	-7632.0
若有	-7633.0
雪地	-7634.0
的眼神	-7635.0
非常的	-7636.0
body	-7637.0
这几句话	-7638.0
五人	-7639.0
便已	-7640.0
商人	-7641.0
境界	-7642.0
期限	-7643.0
”,“	-7644.0
帮我把	-7645.0
iP	-7646.0
出处	-7647.0
放着	-7648.0
村里	-7649.0
洞口	-7650.0
见我	-7651.0
每个人的	-7652.0
玩家	-7653.0
设法	-7654.0
做过	-7655.0
共产	-7656.0
处的	-7657.0
多大	-7658.0
擒拿	-7659.0
格格	-7660.0
透露	-7661.0
里斯	-7662.0
造成的	-7663.0
虚拟	-7664.0
那便	-7665.0
▁那个	-7666.0
的一生	-7667.0
什么地方	-7668.0
▁system	-7669.0
元鹤	-7670.0
典型	-7671.0
却没	-7672.0
松树	-7673.0
比你	-7674.0
的黑	-7675.0
我感觉	-7676.0
▁being	-7677.0
正中	-7678.0
被害人	-7679.0
贝海石	-7680.0
自言自语	-7681.0
亲眼	-7682.0
只盼	-7683.0
太大	-7684.0
我问	-7685.0
接口	-7686.0
空调	-7687.0
饭菜	-7688.0
马蹄	-7689.0
子弹	-7690.0
山峰	-7691.0
开启	-7692.0
之道	-7693.0
制定	-7694.0
天生	-7695.0
笔记	-7696.0
门下	-7697.0
▁或许	-7698.0
啪的一声	-7699.0
重要的是	-7700.0
乙方	-7701.0
在旁	-7702.0
小河	-7703.0
干脆	-7704.0
有一点	-7705.0
olog	-7706.0
刀剑	-7707.0
动人	-7708.0
号令	-7709.0
打听	-7710.0
股份	-7711.0
还得	-7712.0
▁Qu	-7713.0
以致	-7714.0
初时	-7715.0
惩罚	-7716.0
立体	-7717.0
ta	-7718.0
为谁	-7719.0
了去	-7720.0
回想	-7721.0
慢性	-7722.0
草丛	-7723.0
长久	-7724.0
▁有人	-7725.0
周杰伦	-7726.0
大量的	-7727.0
一项	-7728.0
判决	-7729.0
功率	-7730.0
未曾	-7731.0
站立	-7732.0
就是我	-7733.0
不满	-7734.0
也想	-7735.0
军的	-7736.0
寒风	-7737.0
眨眼	-7738.0
访问	-7739.0
半空	-7740.0
的内	-7741.0
长城	-7742.0
天上的	-7743.0
▁亲爱的	-7744.0
一层	-7745.0
之势	-7746.0
大街	-7747.0
大雪	-7748.0
当做	-7749.0
是她	-7750.0
真有	-7751.0
确保	-7752.0
跪下	-7753.0
ash	-7754.0
da	-7755.0
倔强	-7756.0
在心	-7757.0
更高	-7758.0
碰撞	-7759.0
自知	-7760.0
笑嘻嘻	-7761.0
外人	-7762.0
大喝	-7763.0
恶人	-7764.0
爱人	-7765.0
历史上	-7766.0
争议	-7767.0
从没	-7768.0
灰尘	-7769.0
看似	-7770.0
chool	-7771.0
回收	-7772.0
引导	-7773.0
忽见	-7774.0
ps	-7775.0
等于	-7776.0
不起来	-7777.0
有一位	-7778.0
的城市	-7779.0
看着我	-7780.0
保健	-7781.0
克服	-7782.0
话题	-7783.0
▁correct	-7784.0
▁过	-7785.0
园林	-7786.0
宫中	-7787.0
掌声	-7788.0
无能	-7789.0
▁想要	-7790.0
上身	-7791.0
圣诞	-7792.0
干的	-7793.0
湿了	-7794.0
🎉🎉	-7795.0
盖一鸣道	-7796.0
倒在	-7797.0
厅上	-7798.0
无私	-7799.0
爱心	-7800.0
绳索	-7801.0
足迹	-7802.0
铁链	-7803.0
▁这样	-7804.0
这一点	-7805.0
颤声道	-7806.0
化成	-7807.0
气象	-7808.0
出租	-7809.0
小男孩	-7810.0
他将	-7811.0
城镇	-7812.0
天黑	-7813.0
尘埃	-7814.0
茶叶	-7815.0
动人的	-7816.0
音乐的	-7817.0
飞快地	-7818.0
▁dec	-7819.0
像我	-7820.0
宁可	-7821.0
帅气	-7822.0
报纸	-7823.0
粗糙	-7824.0
着你的	-7825.0
come	-7826.0
▁air	-7827.0
不适	-7828.0
料到	-7829.0
牛仔	-7830.0
王某	-7831.0
当时的	-7832.0
▁food	-7833.0
PP	-7834.0
表哥	-7835.0
重量	-7836.0
阿朱	-7837.0
了一句	-7838.0
了上来	-7839.0
打了个	-7840.0
之计	-7841.0
剧痛	-7842.0
往后	-7843.0
情节	-7844.0
狂风	-7845.0
行李	-7846.0
通信	-7847.0
▁第一	-7848.0
▁青春	-7849.0
少林派	-7850.0
身边的	-7851.0
▁望	-7852.0
举手	-7853.0
爱是	-7854.0
黎明	-7855.0
狠狠地	-7856.0
ooks	-7857.0
▁high	-7858.0
决策	-7859.0
快去	-7860.0
认可	-7861.0
永远的	-7862.0
江湖上有言道	-7863.0
▁[	-7864.0
一共	-7865.0
诱惑	-7866.0
▁老师	-7867.0
▁store	-7868.0
导演	-7869.0
星空	-7870.0
走得	-7871.0
放弃了	-7872.0
▁mil	-7873.0
分割	-7874.0
嘱咐	-7875.0
得以	-7876.0
忽略	-7877.0
打扫	-7878.0
教你	-7879.0
睡着	-7880.0
缺陷	-7881.0
财主	-7882.0
下车	-7883.0
半分	-7884.0
姿势	-7885.0
战役	-7886.0
波斯	-7887.0
照射	-7888.0
的中	-7889.0
西哥	-7890.0
▁sup	-7891.0
之路	-7892.0
坎坷	-7893.0
左边	-7894.0
忽地	-7895.0
沉醉	-7896.0
监管	-7897.0
语嫣	-7898.0
违法	-7899.0
领土	-7900.0
高峰	-7901.0
了半天	-7902.0
omething	-7903.0
一处	-7904.0
好事	-7905.0
村庄	-7906.0
毛病	-7907.0
预报	-7908.0
的基本	-7909.0
rist	-7910.0
望了一眼	-7911.0
书籍	-7912.0
便将	-7913.0
决赛	-7914.0
当先	-7915.0
的下	-7916.0
一个叫	-7917.0
使用的	-7918.0
便在此时	-7919.0
变换	-7920.0
奔向	-7921.0
身法	-7922.0
东部	-7923.0
你先	-7924.0
小鸡	-7925.0
进口	-7926.0
▁秋天	-7927.0
消费者	-7928.0
的笑容	-7929.0
▁claim	-7930.0
▁minutes	-7931.0
心神	-7932.0
生育	-7933.0
英里	-7934.0
中的一	-7935.0
给你的	-7936.0
不由自主	-7937.0
剧情	-7938.0
吃掉	-7939.0
损害	-7940.0
画画	-7941.0
跃出	-7942.0
▁给我	-7943.0
以前的	-7944.0
增加了	-7945.0
干净净	-7946.0
给大家	-7947.0
减轻	-7948.0
当代	-7949.0
流传	-7950.0
眼色	-7951.0
赞美	-7952.0
镇上	-7953.0
郭靖道	-7954.0
aper	-7955.0
迷人	-7956.0
这一天	-7957.0
▁char	-7958.0
一幅	-7959.0
选用	-7960.0
胡斐道	-7961.0
伤人	-7962.0
打工	-7963.0
改编	-7964.0
杯酒	-7965.0
风光	-7966.0
🍃🍃	-7967.0
▁第二	-7968.0
多样	-7969.0
实是	-7970.0
思路	-7971.0
想了	-7972.0
新歌	-7973.0
联手	-7974.0
队的	-7975.0
▁cons	-7976.0
是什么时候	-7977.0
▁every	-7978.0
:<	-7979.0
三尺	-7980.0
氨基	-7981.0
演讲	-7982.0
年轻的	-7983.0
MS	-7984.0
有大	-7985.0
本是	-7986.0
不停的	-7987.0
师兄弟	-7988.0
冷汗	-7989.0
密码	-7990.0
干活	-7991.0
光滑	-7992.0
后期	-7993.0
从来不	-7994.0
很快就	-7995.0
▁question	-7996.0
▁.	-7997.0
三千	-7998.0
授权	-7999.0
水流	-8000.0
礼貌	-8001.0
蔓延	-8002.0
里去	-8003.0
天空中	-8004.0
众位	-8005.0
做梦	-8006.0
按摩	-8007.0
收费	-8008.0
骑着	-8009.0
三个月	-8010.0
:《	-8011.0
冲动	-8012.0
棒棒	-8013.0
次的	-8014.0
看清	-8015.0
▁有些	-8016.0
常见的	-8017.0
还是要	-8018.0
放声	-8019.0
甲方	-8020.0
但它	-8021.0
拳脚	-8022.0
注视	-8023.0
疑问	-8024.0
uck	-8025.0
希望你	-8026.0
哑巴	-8027.0
拿去	-8028.0
日起	-8029.0
段正	-8030.0
▁em	-8031.0
▁本文	-8032.0
怎样的	-8033.0
是中国	-8034.0
光彩	-8035.0
变幻	-8036.0
向东	-8037.0
扩张	-8038.0
残酷	-8039.0
海角	-8040.0
谈论	-8041.0
▁今年	-8042.0
了一份	-8043.0
合金	-8044.0
张某	-8045.0
▁每次	-8046.0
▁连	-8047.0
如意	-8048.0
害羞	-8049.0
静静的	-8050.0
师姊	-8051.0
荣耀	-8052.0
是一片	-8053.0
勤劳	-8054.0
胸前	-8055.0
▁--	-8056.0
院子里	-8057.0
▁perform	-8058.0
吃得	-8059.0
大理	-8060.0
深度	-8061.0
满天	-8062.0
风流	-8063.0
不相信	-8064.0
我只好	-8065.0
那汉子	-8066.0
ular	-8067.0
各种各样的	-8068.0
其后	-8069.0
爬上	-8070.0
版的	-8071.0
▁那么	-8072.0
学校的	-8073.0
小伙子	-8074.0
就知道	-8075.0
ener	-8076.0
▁coun	-8077.0
仆人	-8078.0
四位	-8079.0
学了	-8080.0
报答	-8081.0
改造	-8082.0
融入	-8083.0
转动	-8084.0
▁即使	-8085.0
的过程	-8086.0
在我心里	-8087.0
宽容	-8088.0
挂着	-8089.0
新生	-8090.0
王府	-8091.0
眼角	-8092.0
诸葛	-8093.0
铁鞭	-8094.0
马春花	-8095.0
几分	-8096.0
拼搏	-8097.0
斗争	-8098.0
楼梯	-8099.0
表妹	-8100.0
轻盈	-8101.0
降临	-8102.0
颈中	-8103.0
睡不着	-8104.0
进入了	-8105.0
他老人家	-8106.0
抓获	-8107.0
明了	-8108.0
说的是	-8109.0
一碗	-8110.0
大力	-8111.0
学着	-8112.0
小事	-8113.0
小组	-8114.0
祖父	-8115.0
这也	-8116.0
伴随着	-8117.0
干干净净	-8118.0
血刀老祖	-8119.0
两声	-8120.0
先进	-8121.0
幼稚	-8122.0
打破	-8123.0
看时	-8124.0
能否	-8125.0
▁Br	-8126.0
▁che	-8127.0
三步	-8128.0
情意	-8129.0
铁盒	-8130.0
ote	-8131.0
支持你	-8132.0
是真的	-8133.0
swer	-8134.0
令狐冲道	-8135.0
予以	-8136.0
公孙	-8137.0
几时	-8138.0
四方	-8139.0
最新	-8140.0
期盼	-8141.0
法官	-8142.0
精心	-8143.0
肩上	-8144.0
这件	-8145.0
刀子	-8146.0
用意	-8147.0
美观	-8148.0
舍得	-8149.0
▁ap	-8150.0
天依	-8151.0
拉拉	-8152.0
了一块	-8153.0
跟你说	-8154.0
长乐帮	-8155.0
▁cal	-8156.0
研究发现	-8157.0
停车	-8158.0
写字	-8159.0
留恋	-8160.0
真人	-8161.0
纯粹	-8162.0
退开	-8163.0
重来	-8164.0
哪一个	-8165.0
成长的	-8166.0
观赏	-8167.0
部长	-8168.0
隐藏	-8169.0
这是一个	-8170.0
均想	-8171.0
睡了	-8172.0
细雨	-8173.0
▁你要	-8174.0
▁可以	-8175.0
▁当我	-8176.0
混凝土	-8177.0
ures	-8178.0
不负	-8179.0
交集	-8180.0
减肥	-8181.0
大于	-8182.0
草莓	-8183.0
路线	-8184.0
its	-8185.0
父母的	-8186.0
地质	-8187.0
挡住	-8188.0
美景	-8189.0
房间里	-8190.0
七人	-8191.0
占据	-8192.0
喊着	-8193.0
录音	-8194.0
早点	-8195.0
沉浸	-8196.0
你是否	-8197.0
回来的	-8198.0
走过来	-8199.0
az	-8200.0
取了	-8201.0
庆祝	-8202.0
油的	-8203.0
▁ind	-8204.0
口味	-8205.0
名称	-8206.0
岁时	-8207.0
正当	-8208.0
注射	-8209.0
那你	-8210.0
根手指	-8211.0
糖尿病	-8212.0
reat	-8213.0
▁赵	-8214.0
住宅	-8215.0
冰雪	-8216.0
流逝	-8217.0
源于	-8218.0
端的	-8219.0
董事	-8220.0
紧紧地	-8221.0
DS	-8222.0
寻觅	-8223.0
导弹	-8224.0
拉开	-8225.0
日在	-8226.0
检察	-8227.0
竟会	-8228.0
花了	-8229.0
许可	-8230.0
面子	-8231.0
不断地	-8232.0
陪着你	-8233.0
刑事	-8234.0
响了	-8235.0
有缘	-8236.0
求你	-8237.0
他妈的	-8238.0
▁西	-8239.0
你那	-8240.0
头一	-8241.0
小猴	-8242.0
摄影	-8243.0
新浪	-8244.0
了一张	-8245.0
消失了	-8246.0
的不是	-8247.0
▁One	-8248.0
又会	-8249.0
同情	-8250.0
霎时	-8251.0
不相同	-8252.0
慕容复	-8253.0
本门	-8254.0
赢了	-8255.0
真是太	-8256.0
第六	-8257.0
是正向	-8258.0
▁如果你	-8259.0
英雄好汉	-8260.0
还是负向	-8261.0
是正向还是负向	-8262.0
不为	-8263.0
保暖	-8264.0
在线	-8265.0
当今	-8266.0
灭了	-8267.0
💔💔	-8268.0
see	-8269.0
▁jump	-8270.0
▁hours	-8271.0
▁holding	-8272.0
人马	-8273.0
尽是	-8274.0
枝头	-8275.0
车子	-8276.0
Premise	-8277.0
停了	-8278.0
品尝	-8279.0
肠道	-8280.0
过我	-8281.0
enc	-8282.0
恨不得	-8283.0
也曾	-8284.0
大叔	-8285.0
天津	-8286.0
小红	-8287.0
档案	-8288.0
苍蝇	-8289.0
越远	-8290.0
也未必	-8291.0
是一场	-8292.0
▁古	-8293.0
以便	-8294.0
但却	-8295.0
少爷	-8296.0
无踪	-8297.0
试着	-8298.0
输出	-8299.0
orn	-8300.0
▁在我	-8301.0
▁总是	-8302.0
▁朋友	-8303.0
ives	-8304.0
还是负面	-8305.0
侧身	-8306.0
序列	-8307.0
纪录	-8308.0
而成	-8309.0
虽是	-8310.0
还原	-8311.0
▁不想	-8312.0
放不下	-8313.0
默默的	-8314.0
面还是负面	-8315.0
反射	-8316.0
解毒	-8317.0
零食	-8318.0
我以为	-8319.0
的妈妈	-8320.0
的衣服	-8321.0
的颜色	-8322.0
变色	-8323.0
若不	-8324.0
▁co	-8325.0
▁这天	-8326.0
ject	-8327.0
世人	-8328.0
到老	-8329.0
地叫	-8330.0
大军	-8331.0
山下	-8332.0
苦涩	-8333.0
适量	-8334.0
店里	-8335.0
律师	-8336.0
再一次	-8337.0
老爷子	-8338.0
什么样的	-8339.0
事务	-8340.0
忙着	-8341.0
洞中	-8342.0
自幼	-8343.0
到后来	-8344.0
提出的	-8345.0
aving	-8346.0
八九	-8347.0
喇嘛	-8348.0
新型	-8349.0
无一	-8350.0
自己是	-8351.0
▁cost	-8352.0
冤枉	-8353.0
快来	-8354.0
津津	-8355.0
瞧去	-8356.0
把我的	-8357.0
▁手	-8358.0
又去	-8359.0
昆仑	-8360.0
杀害	-8361.0
犯了	-8362.0
等他	-8363.0
胆固醇	-8364.0
风吹过	-8365.0
免得	-8366.0
拔剑	-8367.0
无异	-8368.0
笑的	-8369.0
要有	-8370.0
▁你们	-8371.0
安好	-8372.0
延长	-8373.0
酒精	-8374.0
之类的	-8375.0
ient	-8376.0
vent	-8377.0
▁little	-8378.0
UN	-8379.0
却见	-8380.0
合唱	-8381.0
局长	-8382.0
工商	-8383.0
意志	-8384.0
沸腾	-8385.0
监控	-8386.0
眉毛	-8387.0
论文	-8388.0
land	-8389.0
▁fri	-8390.0
早早	-8391.0
福建	-8392.0
返回	-8393.0
▁感谢	-8394.0
ween	-8395.0
▁fin	-8396.0
再也没有	-8397.0
never	-8398.0
au	-8399.0
前去	-8400.0
千秋	-8401.0
同志	-8402.0
打量	-8403.0
短信	-8404.0
色列	-8405.0
防治	-8406.0
▁my	-8407.0
往前走	-8408.0
我开始	-8409.0
的位置	-8410.0
但觉	-8411.0
抱歉	-8412.0
此生	-8413.0
意识到	-8414.0
又惊又喜	-8415.0
命的	-8416.0
四大	-8417.0
岂不	-8418.0
想的	-8419.0
立法	-8420.0
采集	-8421.0
▁韦小宝道	-8422.0
一出	-8423.0
乐观	-8424.0
性子	-8425.0
曲折	-8426.0
比喻	-8427.0
错过了	-8428.0
不回	-8429.0
为例	-8430.0
应对	-8431.0
挖掘	-8432.0
明珠	-8433.0
火的	-8434.0
男友	-8435.0
一点也不	-8436.0
我一定要	-8437.0
万千	-8438.0
四面	-8439.0
扶起	-8440.0
水分	-8441.0
著作	-8442.0
都知道	-8443.0
金色的	-8444.0
冷静	-8445.0
外套	-8446.0
多多	-8447.0
股票	-8448.0
轨道	-8449.0
阻挡	-8450.0
首都	-8451.0
了进去	-8452.0
你师父	-8453.0
▁rel	-8454.0
之言	-8455.0
成人	-8456.0
笑语	-8457.0
素的	-8458.0
高山	-8459.0
▁时光	-8460.0
他二人	-8461.0
墨西哥	-8462.0
▁game	-8463.0
他为	-8464.0
空白	-8465.0
了一把	-8466.0
的行为	-8467.0
迷人的	-8468.0
泡泡	-8469.0
球员	-8470.0
男的	-8471.0
良心	-8472.0
辣椒	-8473.0
上官	-8474.0
几声	-8475.0
司马	-8476.0
失眠	-8477.0
扫描	-8478.0
无影	-8479.0
肾脏	-8480.0
食指	-8481.0
▁爱的	-8482.0
外面的	-8483.0
▁like	-8484.0
▁sing	-8485.0
▁human	-8486.0
以外	-8487.0
寨主	-8488.0
总能	-8489.0
荡荡	-8490.0
阿里	-8491.0
的效果	-8492.0
的特点	-8493.0
等方面	-8494.0
放在心上	-8495.0
▁these	-8496.0
嬉戏	-8497.0
而后	-8498.0
que	-8499.0
拿着一	-8500.0
ying	-8501.0
▁verif	-8502.0
可我	-8503.0
空心	-8504.0
较低	-8505.0
▁bel	-8506.0
一套	-8507.0
妇人	-8508.0
握着	-8509.0
贵族	-8510.0
马路	-8511.0
得到的	-8512.0
高高的	-8513.0
哼了一声	-8514.0
▁相	-8515.0
嘟嘟	-8516.0
方位	-8517.0
激情	-8518.0
看待	-8519.0
线索	-8520.0
编辑	-8521.0
组成的	-8522.0
吸附	-8523.0
四年	-8524.0
小了	-8525.0
惆怅	-8526.0
找寻	-8527.0
水晶	-8528.0
该市	-8529.0
con	-8530.0
有可能	-8531.0
的一次	-8532.0
的身体	-8533.0
▁莫	-8534.0
事的	-8535.0
古风	-8536.0
她就	-8537.0
投票	-8538.0
海上	-8539.0
落后	-8540.0
装修	-8541.0
ohn	-8542.0
▁gu	-8543.0
从怀中	-8544.0
相关的	-8545.0
▁dress	-8546.0
▁苏	-8547.0
具备	-8548.0
容量	-8549.0
察觉	-8550.0
也没什么	-8551.0
wn	-8552.0
委托	-8553.0
婚礼	-8554.0
电流	-8555.0
痴心	-8556.0
段正淳	-8557.0
的歌手	-8558.0
他那	-8559.0
向那	-8560.0
尽快	-8561.0
已成	-8562.0
飞奔	-8563.0
飞过	-8564.0
僧人	-8565.0
心愿	-8566.0
指引	-8567.0
摩擦	-8568.0
清理	-8569.0
苍白	-8570.0
要他	-8571.0
▁att	-8572.0
▁pol	-8573.0
大悟	-8574.0
太子	-8575.0
妖怪	-8576.0
已久	-8577.0
风雪	-8578.0
但听得	-8579.0
欧阳克	-8580.0
子女	-8581.0
畏惧	-8582.0
的道	-8583.0
进门	-8584.0
先生的	-8585.0
appy	-8586.0
两组	-8587.0
实行	-8588.0
师娘	-8589.0
考验	-8590.0
落到	-8591.0
他心中	-8592.0
觉得很	-8593.0
同年	-8594.0
威风	-8595.0
火箭	-8596.0
越好	-8597.0
模一样	-8598.0
▁looking	-8599.0
sp	-8600.0
分散	-8601.0
挣脱	-8602.0
木头	-8603.0
某种	-8604.0
气温	-8605.0
琵琶	-8606.0
我们去	-8607.0
不一样的	-8608.0
公务	-8609.0
其妙	-8610.0
已知	-8611.0
无知	-8612.0
要把	-8613.0
颗心	-8614.0
我们会	-8615.0
的父亲	-8616.0
恰好	-8617.0
救人	-8618.0
本地	-8619.0
脑子	-8620.0
赢得	-8621.0
达尔	-8622.0
▁美国	-8623.0
岂不是	-8624.0
总镖头	-8625.0
客观	-8626.0
甘愿	-8627.0
百万	-8628.0
遍了	-8629.0
桌子上	-8630.0
▁put	-8631.0
晚饭	-8632.0
还不是	-8633.0
ever	-8634.0
不利	-8635.0
之余	-8636.0
却被	-8637.0
消耗	-8638.0
的上	-8639.0
魔教	-8640.0
了一步	-8641.0
以上的	-8642.0
离不开	-8643.0
▁house	-8644.0
孙仲	-8645.0
无怨	-8646.0
极大	-8647.0
沮丧	-8648.0
我也是	-8649.0
▁around	-8650.0
唱出	-8651.0
我为	-8652.0
换来	-8653.0
茫然	-8654.0
那一天	-8655.0
ling	-8656.0
并将	-8657.0
病情	-8658.0
起初	-8659.0
还说	-8660.0
💓💓	-8661.0
ays	-8662.0
▁song	-8663.0
pH	-8664.0
十万	-8665.0
双儿	-8666.0
奔去	-8667.0
平日	-8668.0
时空	-8669.0
短刀	-8670.0
铅笔	-8671.0
ier	-8672.0
丁不三	-8673.0
和妈妈	-8674.0
的一首歌	-8675.0
入口	-8676.0
复习	-8677.0
已经被	-8678.0
我怕	-8679.0
扩展	-8680.0
积雪	-8681.0
箱子	-8682.0
踏步	-8683.0
▁我愿	-8684.0
▁看到	-8685.0
我一定	-8686.0
程度上	-8687.0
云朵	-8688.0
日至	-8689.0
白头	-8690.0
种类	-8691.0
的风险	-8692.0
▁use	-8693.0
佛教	-8694.0
初恋	-8695.0
还想	-8696.0
ane	-8697.0
▁让你	-8698.0
如果是	-8699.0
认真的	-8700.0
呻吟	-8701.0
奔驰	-8702.0
尊敬	-8703.0
活了	-8704.0
自觉	-8705.0
逐步	-8706.0
▁这次	-8707.0
▁除了	-8708.0
的姑娘	-8709.0
书法	-8710.0
探出	-8711.0
质疑	-8712.0
▁mg	-8713.0
最爱的	-8714.0
的自己	-8715.0
给出了	-8716.0
亮了	-8717.0
体质	-8718.0
你既	-8719.0
依依	-8720.0
公式	-8721.0
弄得	-8722.0
旁观	-8723.0
有味	-8724.0
椅上	-8725.0
要杀	-8726.0
马克	-8727.0
个不停	-8728.0
尔兰	-8729.0
欣喜	-8730.0
重逢	-8731.0
▁第三	-8732.0
的女孩	-8733.0
▁Con	-8734.0
伯特	-8735.0
素素	-8736.0
诡计	-8737.0
跌倒	-8738.0
高明	-8739.0
非同小可	-8740.0
▁抽取出上文中的关键词	-8741.0
一早	-8742.0
丰收	-8743.0
修饰	-8744.0
墙壁	-8745.0
就走	-8746.0
来历	-8747.0
极是	-8748.0
纯洁	-8749.0
▁安	-8750.0
彷徨	-8751.0
打在	-8752.0
枯萎	-8753.0
的字	-8754.0
和一个	-8755.0
看不	-8756.0
进而	-8757.0
顺序	-8758.0
▁sl	-8759.0
我心想	-8760.0
right	-8761.0
也得	-8762.0
伤势	-8763.0
落下来	-8764.0
从我	-8765.0
停下	-8766.0
又把	-8767.0
开着	-8768.0
衣襟	-8769.0
我是个	-8770.0
陌生的	-8771.0
▁hel	-8772.0
使他	-8773.0
委实	-8774.0
小腹	-8775.0
岁了	-8776.0
战场	-8777.0
漆黑	-8778.0
胳膊	-8779.0
他们都	-8780.0
前列	-8781.0
年度	-8782.0
有如	-8783.0
碎片	-8784.0
讯息	-8785.0
鞭炮	-8786.0
▁找出上文中的关键词	-8787.0
义务	-8788.0
双双	-8789.0
见这	-8790.0
高效	-8791.0
来得及	-8792.0
爱你的	-8793.0
▁不知道	-8794.0
三哥	-8795.0
克拉	-8796.0
惊艳	-8797.0
海水	-8798.0
满怀	-8799.0
的门	-8800.0
闪耀	-8801.0
颜六	-8802.0
▁识别出上文中的关键词	-8803.0
Al	-8804.0
书房	-8805.0
折断	-8806.0
拳头	-8807.0
挽留	-8808.0
收购	-8809.0
涉嫌	-8810.0
迷惘	-8811.0
▁采用	-8812.0
ways	-8813.0
你是我的	-8814.0
三字	-8815.0
不打	-8816.0
匹配	-8817.0
地久	-8818.0
当成	-8819.0
问天	-8820.0
老师说	-8821.0
争取	-8822.0
婉清	-8823.0
无尘	-8824.0
极其	-8825.0
穿梭	-8826.0
胆小	-8827.0
讲话	-8828.0
路径	-8829.0
逼得	-8830.0
▁他的	-8831.0
不弃	-8832.0
报名	-8833.0
机理	-8834.0
石中	-8835.0
过了一会	-8836.0
瀑布	-8837.0
钻进	-8838.0
▁不能	-8839.0
了一点	-8840.0
他们说	-8841.0
这首歌的	-8842.0
▁take	-8843.0
传输	-8844.0
压缩	-8845.0
后果	-8846.0
不应该	-8847.0
不知所	-8848.0
你永远	-8849.0
凶徒	-8850.0
徒儿	-8851.0
等级	-8852.0
过多	-8853.0
cle	-8854.0
▁快乐	-8855.0
形成了	-8856.0
▁cont	-8857.0
不作	-8858.0
不发	-8859.0
光的	-8860.0
梅超	-8861.0
真经	-8862.0
罗刹	-8863.0
芳香	-8864.0
我只能	-8865.0
离开我	-8866.0
▁For	-8867.0
▁fam	-8868.0
小心翼翼地	-8869.0
▁哪	-8870.0
两边	-8871.0
剧毒	-8872.0
尚有	-8873.0
▁是谁	-8874.0
▁通过	-8875.0
▁mod	-8876.0
ought	-8877.0
▁啦啦啦啦	-8878.0
伏在	-8879.0
关闭	-8880.0
又大	-8881.0
崇拜	-8882.0
手执	-8883.0
敬佩	-8884.0
积累	-8885.0
结实	-8886.0
选手	-8887.0
我认为	-8888.0
喜道	-8889.0
当事	-8890.0
扑通	-8891.0
灰色	-8892.0
der	-8893.0
老百姓	-8894.0
▁你可以帮我把	-8895.0
TV	-8896.0
抑郁	-8897.0
石油	-8898.0
纵声	-8899.0
营业	-8900.0
送你	-8901.0
但还是	-8902.0
附近的	-8903.0
这句话翻译成中文吗	-8904.0
▁你可以帮我把这句话翻译成中文吗	-8905.0
三四	-8906.0
从他	-8907.0
日期	-8908.0
要你	-8909.0
四下里	-8910.0
▁exp	-8911.0
heart	-8912.0
▁女	-8913.0
买卖	-8914.0
宽松	-8915.0
担忧	-8916.0
泉水	-8917.0
讲究	-8918.0
赚钱	-8919.0
▁由于	-8920.0
在其	-8921.0
巧克	-8922.0
承包	-8923.0
陪着	-8924.0
但见他	-8925.0
大丈夫	-8926.0
是多少	-8927.0
▁made	-8928.0
景观	-8929.0
正义	-8930.0
河北	-8931.0
洒脱	-8932.0
焦虑	-8933.0
荡漾	-8934.0
要不	-8935.0
迷失	-8936.0
▁寂寞	-8937.0
的历史	-8938.0
一周	-8939.0
宪法	-8940.0
寻求	-8941.0
携手	-8942.0
沉淀	-8943.0
甜美	-8944.0
yes	-8945.0
招架	-8946.0
痴情	-8947.0
的有	-8948.0
镇恶	-8949.0
eng	-8950.0
事实上	-8951.0
听见了	-8952.0
,(	-8953.0
”!	-8954.0
一挥	-8955.0
一是	-8956.0
不容	-8957.0
围着	-8958.0
无边	-8959.0
脱身	-8960.0
问候	-8961.0
▁尽管	-8962.0
木婉清	-8963.0
万年	-8964.0
瞎了	-8965.0
不住了	-8966.0
二十年	-8967.0
相应的	-8968.0
葡萄牙	-8969.0
▁near	-8970.0
商议	-8971.0
就如	-8972.0
幽默	-8973.0
楚王	-8974.0
不仅仅	-8975.0
五颜六	-8976.0
被认为是	-8977.0
叫什么名字	-8978.0
事先	-8979.0
属下	-8980.0
死于	-8981.0
这不	-8982.0
一家人	-8983.0
小船	-8984.0
春雨	-8985.0
暴力	-8986.0
月经	-8987.0
老三	-8988.0
该当	-8989.0
身受	-8990.0
了一件	-8991.0
拿出来	-8992.0
躺在床上	-8993.0
之类	-8994.0
开水	-8995.0
无疑	-8996.0
很简单	-8997.0
采用了	-8998.0
ident	-8999.0
velop	-9000.0
▁building	-9001.0
不分	-9002.0
志愿	-9003.0
疲倦	-9004.0
眼珠	-9005.0
时不时	-9006.0
的气息	-9007.0
转过身来	-9008.0
城的	-9009.0
好玩	-9010.0
庆幸	-9011.0
我瞧	-9012.0
效益	-9013.0
▁gl	-9014.0
▁ke	-9015.0
我总是	-9016.0
只有一个	-9017.0
把自己的	-9018.0
余人	-9019.0
全班	-9020.0
朵朵	-9021.0
溶液	-9022.0
痛哭	-9023.0
gan	-9024.0
好像是	-9025.0
形成的	-9026.0
范帮主	-9027.0
实体识别	-9028.0
莫名其妙	-9029.0
后心	-9030.0
声色	-9031.0
染色	-9032.0
样品	-9033.0
长度	-9034.0
▁真的	-9035.0
▁经过	-9036.0
开心的	-9037.0
我就会	-9038.0
▁between	-9039.0
弯腰	-9040.0
执法	-9041.0
过你	-9042.0
这套	-9043.0
郎中	-9044.0
停下来	-9045.0
店小二	-9046.0
非常喜欢	-9047.0
▁next	-9048.0
关联	-9049.0
往日	-9050.0
暗想	-9051.0
那段	-9052.0
难度	-9053.0
是一条	-9054.0
不合	-9055.0
不妙	-9056.0
不小	-9057.0
凶险	-9058.0
爬到	-9059.0
生姜	-9060.0
职务	-9061.0
跳跃	-9062.0
▁Al	-9063.0
的心灵	-9064.0
这样做	-9065.0
我们可以	-9066.0
▁side	-9067.0
事物	-9068.0
发烧	-9069.0
奴才	-9070.0
懂了	-9071.0
最有	-9072.0
激烈	-9073.0
CP	-9074.0
大火	-9075.0
抱拳	-9076.0
深厚	-9077.0
小兔子	-9078.0
一向	-9079.0
版权	-9080.0
▁所有	-9081.0
一阵阵	-9082.0
ision	-9083.0
TA	-9084.0
力学	-9085.0
大石	-9086.0
天鹅	-9087.0
对话	-9088.0
已给	-9089.0
爱护	-9090.0
▁戚芳	-9091.0
以为是	-9092.0
何铁手	-9093.0
告诉他	-9094.0
特别的	-9095.0
班主任	-9096.0
一段时间	-9097.0
在我心中	-9098.0
LA	-9099.0
丁丁	-9100.0
倾诉	-9101.0
忍住	-9102.0
横扫	-9103.0
毫米	-9104.0
烟火	-9105.0
热带	-9106.0
算什么	-9107.0
挂念	-9108.0
查看	-9109.0
武装	-9110.0
直播	-9111.0
银杏	-9112.0
可是他	-9113.0
怎么也	-9114.0
适用于	-9115.0
girl	-9116.0
宛儿	-9117.0
揭开	-9118.0
毛毛	-9119.0
片的	-9120.0
知府	-9121.0
已经是	-9122.0
把我们	-9123.0
▁云	-9124.0
假设	-9125.0
汪汪	-9126.0
聆听	-9127.0
柯镇恶	-9128.0
从容	-9129.0
但愿	-9130.0
痛的	-9131.0
穆斯	-9132.0
轻声	-9133.0
爸爸的	-9134.0
▁spe	-9135.0
了呢	-9136.0
外交	-9137.0
盟主	-9138.0
五岳	-9139.0
日记	-9140.0
ted	-9141.0
▁Fr	-9142.0
▁是不是	-9143.0
抬起头来	-9144.0
仰望	-9145.0
答道	-9146.0
莲花	-9147.0
真是个	-9148.0
仇人	-9149.0
参观	-9150.0
惊慌	-9151.0
李某	-9152.0
流血	-9153.0
琢磨	-9154.0
留着	-9155.0
盘旋	-9156.0
镜头	-9157.0
ful	-9158.0
▁如何	-9159.0
这孩子	-9160.0
▁add	-9161.0
中秋	-9162.0
右边	-9163.0
喝水	-9164.0
将在	-9165.0
线路	-9166.0
装作	-9167.0
较好	-9168.0
这类	-9169.0
▁石清	-9170.0
地望着	-9171.0
😭😭😭😭	-9172.0
作响	-9173.0
响声	-9174.0
笑笑	-9175.0
约会	-9176.0
编曲	-9177.0
防备	-9178.0
高昌	-9179.0
的感情	-9180.0
分成	-9181.0
唱得	-9182.0
现金	-9183.0
逃离	-9184.0
乐器	-9185.0
们都	-9186.0
保佑	-9187.0
它就	-9188.0
活的	-9189.0
相随	-9190.0
而立	-9191.0
公交车	-9192.0
白公公	-9193.0
提出了一种	-9194.0
空虚	-9195.0
繁荣	-9196.0
走远	-9197.0
对我们	-9198.0
心爱的	-9199.0
使的	-9200.0
制品	-9201.0
老妈	-9202.0
个小时	-9203.0
发生的	-9204.0
自己也	-9205.0
ml	-9206.0
万一	-9207.0
任性	-9208.0
家园	-9209.0
插入	-9210.0
有益	-9211.0
本科	-9212.0
番茄	-9213.0
要用	-9214.0
实在太	-9215.0
击中	-9216.0
定会	-9217.0
速率	-9218.0
饿了	-9219.0
▁感觉	-9220.0
他们是	-9221.0
凤天南	-9222.0
负责人	-9223.0
赛总管	-9224.0
▁清	-9225.0
岸边	-9226.0
年在	-9227.0
开朗	-9228.0
无可奈何	-9229.0
又将	-9230.0
发热	-9231.0
复古	-9232.0
有点儿	-9233.0
之所	-9234.0
之术	-9235.0
对应	-9236.0
新娘	-9237.0
治愈	-9238.0
▁心里	-9239.0
成了一	-9240.0
交代	-9241.0
冲出	-9242.0
流程	-9243.0
你是谁	-9244.0
对你的	-9245.0
梅超风	-9246.0
社会的	-9247.0
起来的	-9248.0
嗤的一声	-9249.0
如果没有	-9250.0
交叉	-9251.0
地跑	-9252.0
契丹	-9253.0
宫殿	-9254.0
密密	-9255.0
并没	-9256.0
无辜	-9257.0
纠结	-9258.0
不败	-9259.0
乐园	-9260.0
充电	-9261.0
号码	-9262.0
地去	-9263.0
彰显	-9264.0
白了	-9265.0
了我们	-9266.0
普通的	-9267.0
动弹不得	-9268.0
▁rest	-9269.0
三种	-9270.0
复兴	-9271.0
踉跄	-9272.0
开玩笑	-9273.0
老前辈	-9274.0
indows	-9275.0
荣誉	-9276.0
动力学	-9277.0
的时光	-9278.0
▁par	-9279.0
▁good	-9280.0
▁head	-9281.0
St	-9282.0
做得	-9283.0
等的	-9284.0
绝技	-9285.0
脱离	-9286.0
陆续	-9287.0
顾客	-9288.0
我不要	-9289.0
There	-9290.0
▁team	-9291.0
体制	-9292.0
双剑	-9293.0
大骂	-9294.0
念念	-9295.0
汉字	-9296.0
账户	-9297.0
以色列	-9298.0
board	-9299.0
IP	-9300.0
▁同	-9301.0
产权	-9302.0
周边	-9303.0
爪子	-9304.0
联合国	-9305.0
kg	-9306.0
外表	-9307.0
日益	-9308.0
此剑	-9309.0
相机	-9310.0
胜海	-9311.0
诠释	-9312.0
身为	-9313.0
遵守	-9314.0
那句	-9315.0
常长风	-9316.0
着自己的	-9317.0
例外	-9318.0
合力	-9319.0
器官	-9320.0
退休	-9321.0
bye	-9322.0
❤❤❤❤	-9323.0
不走	-9324.0
他有	-9325.0
兰花	-9326.0
四字	-9327.0
多元	-9328.0
弥陀	-9329.0
瑞士	-9330.0
在外面	-9331.0
知道我	-9332.0
两侧	-9333.0
刘某	-9334.0
流下	-9335.0
他了	-9336.0
叽叽	-9337.0
差距	-9338.0
累得	-9339.0
虫子	-9340.0
认同	-9341.0
▁生活	-9342.0
大灰狼	-9343.0
ific	-9344.0
more	-9345.0
侠客	-9346.0
八人	-9347.0
外出	-9348.0
小米	-9349.0
数日	-9350.0
了几个	-9351.0
草原上	-9352.0
▁soc	-9353.0
两名青衣剑士	-9354.0
左肩	-9355.0
弟兄	-9356.0
木桑	-9357.0
溃疡	-9358.0
秋冬	-9359.0
货币	-9360.0
金刚	-9361.0
▁during	-9362.0
恶僧	-9363.0
次数	-9364.0
这片	-9365.0
▁ob	-9366.0
伸出手	-9367.0
有你的	-9368.0
转眼间	-9369.0
▁train	-9370.0
事后	-9371.0
写道	-9372.0
大蒜	-9373.0
延伸	-9374.0
教导	-9375.0
曹操	-9376.0
王朝	-9377.0
首的	-9378.0
只见她	-9379.0
房地产	-9380.0
CE	-9381.0
两者	-9382.0
存储	-9383.0
我正	-9384.0
杀手	-9385.0
满地	-9386.0
精选	-9387.0
这项	-9388.0
主要的	-9389.0
喜欢我	-9390.0
▁青	-9391.0
命名	-9392.0
回人	-9393.0
大厦	-9394.0
斯科	-9395.0
枕头	-9396.0
饮用	-9397.0
▁My	-9398.0
朗声说道	-9399.0
就业	-9400.0
胜过	-9401.0
诺言	-9402.0
隔壁	-9403.0
伤心的	-9404.0
我的小	-9405.0
DA	-9406.0
倾向	-9407.0
唱功	-9408.0
果子	-9409.0
波罗	-9410.0
红柿	-9411.0
蛤蟆	-9412.0
▁已经	-9413.0
▁翻译	-9414.0
一步步	-9415.0
IN	-9416.0
宫里	-9417.0
晃动	-9418.0
自已	-9419.0
谁来	-9420.0
一颗心	-9421.0
有效地	-9422.0
的作品	-9423.0
▁mar	-9424.0
你都	-9425.0
平生	-9426.0
摄入	-9427.0
求解	-9428.0
活在	-9429.0
物事	-9430.0
红枣	-9431.0
身躯	-9432.0
首领	-9433.0
boy	-9434.0
▁city	-9435.0
不高	-9436.0
衰老	-9437.0
趴在	-9438.0
的有效	-9439.0
住院	-9440.0
喉咙	-9441.0
眼帘	-9442.0
稍微	-9443.0
不管是	-9444.0
殷素素	-9445.0
艺术家	-9446.0
▁set	-9447.0
下面句子	-9448.0
▁read	-9449.0
▁方	-9450.0
察看	-9451.0
慷慨	-9452.0
旅途	-9453.0
枫叶	-9454.0
欢声	-9455.0
逃跑	-9456.0
有一定	-9457.0
爸爸说	-9458.0
个小	-9459.0
力道	-9460.0
又怕	-9461.0
戴上	-9462.0
扑鼻	-9463.0
环节	-9464.0
购物	-9465.0
龙头	-9466.0
在心中	-9467.0
太多了	-9468.0
▁week	-9469.0
失恋	-9470.0
尽皆	-9471.0
眷恋	-9472.0
▁已	-9473.0
个赞	-9474.0
按钮	-9475.0
既有	-9476.0
钓鱼	-9477.0
ubl	-9478.0
一起来	-9479.0
▁home	-9480.0
他去	-9481.0
吃到	-9482.0
场所	-9483.0
威力	-9484.0
服侍	-9485.0
神的	-9486.0
科研	-9487.0
You	-9488.0
▁这一	-9489.0
上前去	-9490.0
如果有	-9491.0
李自成	-9492.0
BC	-9493.0
沉思	-9494.0
热气	-9495.0
down	-9496.0
为什么不	-9497.0
▁green	-9498.0
共计	-9499.0
强化	-9500.0
摸摸	-9501.0
概率	-9502.0
同时也	-9503.0
巧克力	-9504.0
穆斯林	-9505.0
▁喔	-9506.0
一跃	-9507.0
今夜	-9508.0
头晕	-9509.0
气愤	-9510.0
赋予	-9511.0
踪迹	-9512.0
进化	-9513.0
的回忆	-9514.0
的少年	-9515.0
说出来	-9516.0
山中	-9517.0
数丈	-9518.0
百搭	-9519.0
苦难	-9520.0
为之	-9521.0
乎乎	-9522.0
传感	-9523.0
傻傻	-9524.0
口感	-9525.0
吉思	-9526.0
宫女	-9527.0
有我	-9528.0
背叛	-9529.0
腰带	-9530.0
鳄鱼	-9531.0
好吃的	-9532.0
感兴趣	-9533.0
所说的	-9534.0
是这样	-9535.0
的要求	-9536.0
▁吴	-9537.0
代理	-9538.0
尔德	-9539.0
往他	-9540.0
斯拉	-9541.0
本想	-9542.0
顶上	-9543.0
出现的	-9544.0
我的人	-9545.0
个大	-9546.0
借鉴	-9547.0
健身	-9548.0
她又	-9549.0
孙子	-9550.0
市长	-9551.0
排骨	-9552.0
断裂	-9553.0
有事	-9554.0
海岸	-9555.0
课堂	-9556.0
跳跳	-9557.0
有一股	-9558.0
洪胜海	-9559.0
给你们	-9560.0
▁X	-9561.0
剑刃	-9562.0
樱桃	-9563.0
灾难	-9564.0
面相	-9565.0
鸽子	-9566.0
▁心中	-9567.0
杨过道	-9568.0
结构的	-9569.0
中的实体	-9570.0
▁pres	-9571.0
▁家	-9572.0
他便	-9573.0
会使	-9574.0
你怎	-9575.0
呼叫	-9576.0
急了	-9577.0
流的	-9578.0
秀才	-9579.0
▁Be	-9580.0
最后一个	-9581.0
砰的一声	-9582.0
结果显示	-9583.0
▁谢	-9584.0
一线	-9585.0
乔治	-9586.0
爱着	-9587.0
边上	-9588.0
飞的	-9589.0
吉思汗	-9590.0
yn	-9591.0
▁更	-9592.0
勇士	-9593.0
向右	-9594.0
好在	-9595.0
形势	-9596.0
童姥	-9597.0
野兽	-9598.0
金光	-9599.0
最后一次	-9600.0
▁school	-9601.0
之为	-9602.0
此言	-9603.0
▁相信	-9604.0
基督教	-9605.0
着一只	-9606.0
▁先	-9607.0
利润	-9608.0
司令	-9609.0
优美的	-9610.0
这辈子	-9611.0
哈哈一笑	-9612.0
点点滴滴	-9613.0
两旁	-9614.0
很美	-9615.0
很长	-9616.0
忧愁	-9617.0
来去	-9618.0
▁km	-9619.0
▁太阳	-9620.0
ellow	-9621.0
▁将下面句子	-9622.0
▁龙	-9623.0
伴着	-9624.0
看去	-9625.0
节课	-9626.0
见的	-9627.0
沉重的	-9628.0
leep	-9629.0
▁another	-9630.0
▁statement	-9631.0
ty	-9632.0
你和	-9633.0
好啦	-9634.0
巨人	-9635.0
悲欢	-9636.0
电压	-9637.0
蒙蒙	-9638.0
要在	-9639.0
走过去	-9640.0
我在这里	-9641.0
利息	-9642.0
压抑	-9643.0
掩饰	-9644.0
此次	-9645.0
画的	-9646.0
的钱	-9647.0
进程	-9648.0
鲤鱼	-9649.0
的可能	-9650.0
ED	-9651.0
’。	-9652.0
▁回	-9653.0
南山	-9654.0
罗汉	-9655.0
最高的	-9656.0
正确的	-9657.0
的歌词	-9658.0
陶百岁	-9659.0
对抗	-9660.0
拉丁	-9661.0
鼓掌	-9662.0
▁假如	-9663.0
习惯了	-9664.0
厚厚的	-9665.0
我当时	-9666.0
有一条	-9667.0
我和妈妈	-9668.0
▁without	-9669.0
吃饱	-9670.0
含义	-9671.0
气喘	-9672.0
窝里	-9673.0
防御	-9674.0
不敢再	-9675.0
也许是	-9676.0
他的歌	-9677.0
那么的	-9678.0
away	-9679.0
▁忽听得	-9680.0
▁回答这个问题	-9681.0
▁早	-9682.0
她也	-9683.0
酒吧	-9684.0
你已经	-9685.0
决不会	-9686.0
努力的	-9687.0
▁All	-9688.0
▁bas	-9689.0
▁用中文怎么说	-9690.0
产量	-9691.0
任命	-9692.0
写完	-9693.0
空手	-9694.0
简称	-9695.0
要害	-9696.0
躲避	-9697.0
ium	-9698.0
不一定	-9699.0
然后再	-9700.0
特别喜欢	-9701.0
▁这句话用	-9702.0
含着	-9703.0
善于	-9704.0
男士	-9705.0
雨伞	-9706.0
你给我	-9707.0
还是会	-9708.0
研究表明	-9709.0
惊道	-9710.0
秩序	-9711.0
这点	-9712.0
告诉我们	-9713.0
▁这句话用中文怎么说	-9714.0
住房	-9715.0
噪声	-9716.0
失踪	-9717.0
抗议	-9718.0
收益	-9719.0
晚了	-9720.0
死人	-9721.0
湖北	-9722.0
要多	-9723.0
▁那是	-9724.0
ility	-9725.0
”;	-9726.0
▁哎	-9727.0
可笑	-9728.0
快走	-9729.0
目不	-9730.0
维多	-9731.0
的人群	-9732.0
自然是	-9733.0
表现出	-9734.0
加重	-9735.0
汉语	-9736.0
解脱	-9737.0
饱满	-9738.0
了进来	-9739.0
手帕	-9740.0
着地	-9741.0
苦恼	-9742.0
视角	-9743.0
▁As	-9744.0
其实是	-9745.0
的关键	-9746.0
的社会	-9747.0
ny	-9748.0
穿了	-9749.0
聚会	-9750.0
世界里	-9751.0
抬起头	-9752.0
的剑法	-9753.0
那少年	-9754.0
▁inv	-9755.0
翩翩起舞	-9756.0
▁打	-9757.0
世俗	-9758.0
你已	-9759.0
冲虚	-9760.0
庄稼	-9761.0
无常	-9762.0
海边	-9763.0
舅舅	-9764.0
对他说	-9765.0
▁亲	-9766.0
专心	-9767.0
忙问	-9768.0
洋葱	-9769.0
相隔	-9770.0
要说	-9771.0
你一定	-9772.0
将自己	-9773.0
▁def	-9774.0
一再	-9775.0
子孙	-9776.0
旅程	-9777.0
火堆	-9778.0
玛丽	-9779.0
越过	-9780.0
▁思念	-9781.0
成一团	-9782.0
遇上了	-9783.0
▁mov	-9784.0
▁Baby	-9785.0
▁这个问题的答案是	-9786.0
一举	-9787.0
侠义	-9788.0
延续	-9789.0
才知	-9790.0
无际	-9791.0
湖水	-9792.0
老夫	-9793.0
的风格	-9794.0
陆无双	-9795.0
交往	-9796.0
几百	-9797.0
呛啷	-9798.0
在天	-9799.0
广阔	-9800.0
德里	-9801.0
恶贼	-9802.0
我到	-9803.0
扮演	-9804.0
未经	-9805.0
猜测	-9806.0
高达	-9807.0
鬼子	-9808.0
▁哪怕	-9809.0
**	-9810.0
之法	-9811.0
坚守	-9812.0
的女	-9813.0
这块	-9814.0
爱尔兰	-9815.0
累累	-9816.0
aut	-9817.0
像一只	-9818.0
在你身边	-9819.0
最喜欢的	-9820.0
▁美	-9821.0
急得	-9822.0
步行	-9823.0
漂泊	-9824.0
社交	-9825.0
可不能	-9826.0
如此的	-9827.0
发现自己	-9828.0
号称	-9829.0
来过	-9830.0
粽子	-9831.0
起点	-9832.0
▁Ar	-9833.0
后面的	-9834.0
▁times	-9835.0
▁朱	-9836.0
一圈	-9837.0
一字	-9838.0
扬州	-9839.0
空军	-9840.0
自来	-9841.0
还可	-9842.0
陕西	-9843.0
▁针对	-9844.0
你爹爹	-9845.0
睁开眼	-9846.0
那老者	-9847.0
▁请回答问题	-9848.0
上网	-9849.0
乒乓	-9850.0
停在	-9851.0
宝象	-9852.0
感触	-9853.0
我所	-9854.0
提交	-9855.0
林任	-9856.0
筋斗	-9857.0
又不是	-9858.0
的女儿	-9859.0
▁form	-9860.0
▁running	-9861.0
你用	-9862.0
刻骨	-9863.0
哪种	-9864.0
荧光	-9865.0
长长	-9866.0
一件事	-9867.0
🌹🌹🌹	-9868.0
他从	-9869.0
别离	-9870.0
刺出	-9871.0
叫化	-9872.0
合法	-9873.0
来吧	-9874.0
江西	-9875.0
翻了	-9876.0
那片	-9877.0
▁中英	-9878.0
另一人	-9879.0
向问天	-9880.0
在阳光	-9881.0
多少钱	-9882.0
▁刚	-9883.0
之士	-9884.0
便向	-9885.0
十里	-9886.0
带你	-9887.0
杀的	-9888.0
粉碎	-9889.0
▁Le	-9890.0
你这个	-9891.0
希望能	-9892.0
▁Just	-9893.0
时机	-9894.0
▁此时	-9895.0
弥陀佛	-9896.0
体积	-9897.0
又被	-9898.0
淀粉	-9899.0
现今	-9900.0
算得	-9901.0
轿车	-9902.0
▁在这	-9903.0
三个人	-9904.0
另一种	-9905.0
那女子	-9906.0
▁should	-9907.0
之名	-9908.0
扶着	-9909.0
束缚	-9910.0
杨康	-9911.0
轻柔	-9912.0
▁想起	-9913.0
任何人	-9914.0
看电视	-9915.0
▁reg	-9916.0
aj	-9917.0
▁阮	-9918.0
你如	-9919.0
便去	-9920.0
坏事	-9921.0
编织	-9922.0
是一名	-9923.0
恍然大悟	-9924.0
RA	-9925.0
tp	-9926.0
与之	-9927.0
作了	-9928.0
尔的	-9929.0
慈祥	-9930.0
描绘	-9931.0
漫漫	-9932.0
前列腺	-9933.0
较好的	-9934.0
reak	-9935.0
▁中英翻译	-9936.0
学期	-9937.0
层层	-9938.0
属性	-9939.0
泄漏	-9940.0
点击	-9941.0
爱她	-9942.0
素来	-9943.0
绿叶	-9944.0
马里	-9945.0
也不必	-9946.0
仿佛在	-9947.0
夏天的	-9948.0
他见	-9949.0
尼姑	-9950.0
洗净	-9951.0
其他人	-9952.0
怪不得	-9953.0
this	-9954.0
PA	-9955.0
▁众	-9956.0
一连	-9957.0
南瓜	-9958.0
取胜	-9959.0
土耳	-9960.0
▁这款	-9961.0
石中玉	-9962.0
迷迷糊	-9963.0
几只	-9964.0
到得	-9965.0
所未	-9966.0
本已	-9967.0
波浪	-9968.0
自私	-9969.0
重建	-9970.0
▁当你	-9971.0
小主人	-9972.0
着眼睛	-9973.0
传承	-9974.0
又来	-9975.0
只在	-9976.0
商店	-9977.0
弱的	-9978.0
挥刀	-9979.0
气氛	-9980.0
第七	-9981.0
陷阱	-9982.0
雷达	-9983.0
▁eff	-9984.0
every	-9985.0
一回	-9986.0
一笔	-9987.0
伤的	-9988.0
厚度	-9989.0
宛如	-9990.0
意境	-9991.0
照着	-9992.0
蜻蜓	-9993.0
了一位	-9994.0
▁art	-9995.0
研究人员	-9996.0
的答案是什么	-9997.0
二来	-9998.0
扩散	-9999.0
找我	-10000.0
波兰	-10001.0
闻名	-10002.0
DNA	-10003.0
▁Question	-10004.0
一堆	-10005.0
杰哥	-10006.0
玩意	-10007.0
瘦子	-10008.0
百花	-10009.0
营销	-10010.0
pro	-10011.0
土耳其	-10012.0
小老鼠	-10013.0
迷迷糊糊	-10014.0
一间	-10015.0
头去	-10016.0
晴天	-10017.0
老汉	-10018.0
越多	-10019.0
应用于	-10020.0
沙发上	-10021.0
的一片	-10022.0
▁sign	-10023.0
▁把这句话翻译成中文	-10024.0
▁流	-10025.0
一去	-10026.0
咱俩	-10027.0
重阳	-10028.0
青城	-10029.0
outh	-10030.0
这是什么	-10031.0
▁Answer	-10032.0
▁这个问题的答案是什么	-10033.0
午后	-10034.0
妙极	-10035.0
宝物	-10036.0
弯曲	-10037.0
招手	-10038.0
空空	-10039.0
麻木	-10040.0
的学生	-10041.0
好不容易	-10042.0
哭声	-10043.0
微一	-10044.0
朝着	-10045.0
花落	-10046.0
衬衫	-10047.0
隐瞒	-10048.0
▁路	-10049.0
是为	-10050.0
大师哥	-10051.0
side	-10052.0
维多利亚	-10053.0
产物	-10054.0
戴着	-10055.0
把那	-10056.0
李三	-10057.0
一个字	-10058.0
不相识	-10059.0
身份证	-10060.0
▁world	-10061.0
af	-10062.0
加热	-10063.0
学到	-10064.0
武侠	-10065.0
瞧他	-10066.0
贫困	-10067.0
跳动	-10068.0
阿四	-10069.0
▁岁月	-10070.0
的我们	-10071.0
人民法院	-10072.0
张无忌道	-10073.0
ution	-10074.0
▁将下面句子翻译成中文	-10075.0
▁Z	-10076.0
出售	-10077.0
实时	-10078.0
提问	-10079.0
违反	-10080.0
受不了	-10081.0
就已经	-10082.0
一呆	-10083.0
偷袭	-10084.0
变迁	-10085.0
回荡	-10086.0
在上	-10087.0
审查	-10088.0
惊叫	-10089.0
泡沫	-10090.0
隔着	-10091.0
▁今夜	-10092.0
▁four	-10093.0
不懈	-10094.0
打的	-10095.0
拜访	-10096.0
琴声	-10097.0
糖果	-10098.0
飞起	-10099.0
总觉得	-10100.0
In	-10101.0
你真	-10102.0
地址	-10103.0
地将	-10104.0
性别	-10105.0
越听	-10106.0
问她	-10107.0
一生的	-10108.0
你现在	-10109.0
一如	-10110.0
几位	-10111.0
开头	-10112.0
拚命	-10113.0
饱和	-10114.0
ott	-10115.0
▁sun	-10116.0
▁watch	-10117.0
为爱	-10118.0
忧郁	-10119.0
恼怒	-10120.0
我俩	-10121.0
可以用	-10122.0
看到的	-10123.0
陪着我	-10124.0
高血压	-10125.0
一摸	-10126.0
他已	-10127.0
剑柄	-10128.0
在内	-10129.0
怦怦	-10130.0
暴露	-10131.0
😊😊	-10132.0
是没有	-10133.0
的生命	-10134.0
have	-10135.0
心肠	-10136.0
大学生	-10137.0
小兄弟	-10138.0
的游戏	-10139.0
计爷爷	-10140.0
那不是	-10141.0
义气	-10142.0
传出	-10143.0
伦理	-10144.0
反手	-10145.0
挑选	-10146.0
更无	-10147.0
腐败	-10148.0
还真	-10149.0
参加了	-10150.0
夫妻刀法	-10151.0
闭上眼睛	-10152.0
世事	-10153.0
二百	-10154.0
会计	-10155.0
数招	-10156.0
越高	-10157.0
饭店	-10158.0
恒山派	-10159.0
不透	-10160.0
个体	-10161.0
仰天	-10162.0
即便	-10163.0
叫她	-10164.0
后者	-10165.0
咕噜	-10166.0
圆形	-10167.0
埋怨	-10168.0
改正	-10169.0
曾在	-10170.0
有力	-10171.0
看他	-10172.0
积分	-10173.0
阴谋	-10174.0
颤动	-10175.0
为基础	-10176.0
摩托车	-10177.0
公安机关	-10178.0
thing	-10179.0
八个	-10180.0
几名	-10181.0
民国	-10182.0
漫天	-10183.0
编码	-10184.0
当我们	-10185.0
走进了	-10186.0
▁Don	-10187.0
坚决	-10188.0
情怀	-10189.0
鹿晗	-10190.0
我们也	-10191.0
的一位	-10192.0
大声叫道	-10193.0
两国	-10194.0
党的	-10195.0
功劳	-10196.0
可别	-10197.0
无路	-10198.0
电路	-10199.0
els	-10200.0
▁都是	-10201.0
的功效	-10202.0
冰凉	-10203.0
惊醒	-10204.0
戒指	-10205.0
高低	-10206.0
▁op	-10207.0
▁只想	-10208.0
女人的	-10209.0
下楼	-10210.0
拿破	-10211.0
更大	-10212.0
祖师	-10213.0
缘故	-10214.0
隐约	-10215.0
顽皮	-10216.0
我突然	-10217.0
改变了	-10218.0
的选择	-10219.0
ages	-10220.0
一跳	-10221.0
人不	-10222.0
再无	-10223.0
可谓	-10224.0
嗡嗡	-10225.0
一部分	-10226.0
地说道	-10227.0
这么多年	-10228.0
▁七	-10229.0
小声	-10230.0
心态	-10231.0
担保	-10232.0
泰山	-10233.0
湿润	-10234.0
珍宝	-10235.0
细心	-10236.0
阶级	-10237.0
▁两个	-10238.0
喜欢他	-10239.0
在身上	-10240.0
EM	-10241.0
▁怕	-10242.0
三维	-10243.0
伪装	-10244.0
凌厉	-10245.0
反抗	-10246.0
可比	-10247.0
捧着	-10248.0
杀他	-10249.0
毒性	-10250.0
温方	-10251.0
赞叹	-10252.0
我不敢	-10253.0
的内容	-10254.0
跟他们	-10255.0
迫不及待地	-10256.0
姆斯	-10257.0
方能	-10258.0
李白	-10259.0
满身	-10260.0
笼罩	-10261.0
等了	-10262.0
艰辛	-10263.0
裙子	-10264.0
不断的	-10265.0
姑娘的	-10266.0
iness	-10267.0
临死	-10268.0
口子	-10269.0
越快	-10270.0
递给	-10271.0
勇敢的	-10272.0
要不要	-10273.0
何方	-10274.0
冰箱	-10275.0
凉爽	-10276.0
反击	-10277.0
惊恐	-10278.0
淘汰	-10279.0
盆地	-10280.0
要做	-10281.0
▁阳光	-10282.0
古老的	-10283.0
拿破仑	-10284.0
▁酒	-10285.0
他虽	-10286.0
再好	-10287.0
十个	-10288.0
多年的	-10289.0
技术的	-10290.0
人性	-10291.0
悲剧	-10292.0
殷吉	-10293.0
清爽	-10294.0
花钱	-10295.0
锅里	-10296.0
可以说	-10297.0
较高的	-10298.0
▁equ	-10299.0
▁萧中慧	-10300.0
▁based	-10301.0
,‘	-10302.0
无耻	-10303.0
活跃	-10304.0
痛楚	-10305.0
绕着	-10306.0
翻开	-10307.0
迷惑	-10308.0
难当	-10309.0
很高兴	-10310.0
有人在	-10311.0
的消息	-10312.0
的记忆	-10313.0
西红柿	-10314.0
▁回答答案	-10315.0
▁month	-10316.0
上车	-10317.0
冷禅	-10318.0
官府	-10319.0
恩师	-10320.0
悄然	-10321.0
悠扬	-10322.0
野生	-10323.0
陈某	-10324.0
高三	-10325.0
的环境	-10326.0
这世界	-10327.0
就是一个	-10328.0
▁Where	-10329.0
城区	-10330.0
定居	-10331.0
就用	-10332.0
正经	-10333.0
高等	-10334.0
你喜欢	-10335.0
告诉了	-10336.0
表现为	-10337.0
▁loc	-10338.0
怎么回事	-10339.0
▁park	-10340.0
▁very	-10341.0
▁field	-10342.0
伴随	-10343.0
发酵	-10344.0
呼啸	-10345.0
孤寂	-10346.0
左足	-10347.0
我刚	-10348.0
▁苏普	-10349.0
到了一	-10350.0
秋天的	-10351.0
▁Let	-10352.0
不准	-10353.0
东风	-10354.0
千古	-10355.0
团圆	-10356.0
师徒	-10357.0
高了	-10358.0
成为一个	-10359.0
▁哈	-10360.0
受损	-10361.0
就来	-10362.0
所需	-10363.0
护送	-10364.0
无需	-10365.0
照料	-10366.0
相差	-10367.0
又何必	-10368.0
ferent	-10369.0
▁American	-10370.0
台下	-10371.0
听话	-10372.0
惊人	-10373.0
拳法	-10374.0
接收	-10375.0
比之	-10376.0
西洋	-10377.0
财务	-10378.0
那次	-10379.0
不了的	-10380.0
几个人	-10381.0
发动机	-10382.0
孤独的	-10383.0
的能力	-10384.0
▁show	-10385.0
地来	-10386.0
威廉	-10387.0
家属	-10388.0
我得	-10389.0
按住	-10390.0
的精	-10391.0
到底是	-10392.0
十分钟	-10393.0
这也是	-10394.0
iver	-10395.0
▁United	-10396.0
可否	-10397.0
啸风	-10398.0
年底	-10399.0
快了	-10400.0
私人	-10401.0
▁De	-10402.0
同一个	-10403.0
听起来	-10404.0
统计学	-10405.0
两块	-10406.0
写下	-10407.0
胡乱	-10408.0
鸠摩	-10409.0
默契	-10410.0
▁等待	-10411.0
▁记者	-10412.0
他知道	-10413.0
hone	-10414.0
▁Mar	-10415.0
▁said	-10416.0
公斤	-10417.0
去见	-10418.0
又再	-10419.0
理性	-10420.0
的亲	-10421.0
过敏	-10422.0
在学校	-10423.0
男人的	-10424.0
都不是	-10425.0
爷爷奶奶	-10426.0
争夺	-10427.0
崩溃	-10428.0
帮手	-10429.0
拍拍	-10430.0
耐磨	-10431.0
hod	-10432.0
了你的	-10433.0
的态度	-10434.0
进行分析	-10435.0
凶手	-10436.0
招式	-10437.0
零零	-10438.0
▁就让	-10439.0
有几个	-10440.0
back	-10441.0
ions	-10442.0
▁film	-10443.0
▁snow	-10444.0
伙计	-10445.0
又叫	-10446.0
可就	-10447.0
可达	-10448.0
大山	-10449.0
小妹	-10450.0
当晚	-10451.0
虽说	-10452.0
袋子	-10453.0
身处	-10454.0
▁Every	-10455.0
之命	-10456.0
做成	-10457.0
六人	-10458.0
去买	-10459.0
待会	-10460.0
日出	-10461.0
泪珠	-10462.0
痴痴	-10463.0
结尾	-10464.0
也不想	-10465.0
只有你	-10466.0
左冷禅	-10467.0
为两	-10468.0
应道	-10469.0
生涯	-10470.0
神圣	-10471.0
中心的	-10472.0
月光下	-10473.0
甜甜的	-10474.0
遇见了	-10475.0
▁develop	-10476.0
之手	-10477.0
五百	-10478.0
图形	-10479.0
敲门	-10480.0
点心	-10481.0
相连	-10482.0
英寸	-10483.0
还算	-10484.0
骂我	-10485.0
高人	-10486.0
多少人	-10487.0
我一个	-10488.0
或者是	-10489.0
的一面	-10490.0
的速度	-10491.0
霎时间	-10492.0
▁Then	-10493.0
ES	-10494.0
的火	-10495.0
落了	-10496.0
言达	-10497.0
金花	-10498.0
▁Of	-10499.0
▁离开	-10500.0
这两人	-10501.0
年初	-10502.0
硬件	-10503.0
钻石	-10504.0
▁int	-10505.0
头部	-10506.0
感的	-10507.0
毛笔	-10508.0
注重	-10509.0
▁成语	-10510.0
一体	-10511.0
保守	-10512.0
杨逍	-10513.0
正面	-10514.0
竟没	-10515.0
我也会	-10516.0
自己在	-10517.0
▁cur	-10518.0
爱到	-10519.0
▁既然	-10520.0
受到了	-10521.0
二字	-10522.0
光谱	-10523.0
口臭	-10524.0
向南	-10525.0
围攻	-10526.0
声势	-10527.0
声明	-10528.0
怀着	-10529.0
怒火	-10530.0
恶的	-10531.0
而同	-10532.0
胖胖	-10533.0
追来	-10534.0
鼓起	-10535.0
一模一样	-10536.0
就是我的	-10537.0
▁trans	-10538.0
克里	-10539.0
再用	-10540.0
无名	-10541.0
樱花	-10542.0
清除	-10543.0
破裂	-10544.0
非凡	-10545.0
你不要	-10546.0
见到他	-10547.0
赢得了	-10548.0
也没有了	-10549.0
津津有味	-10550.0
发财	-10551.0
君主	-10552.0
大腿	-10553.0
天后	-10554.0
徐铮	-10555.0
挥舞	-10556.0
白白	-10557.0
英俊	-10558.0
金标	-10559.0
金鱼	-10560.0
提供的	-10561.0
跟着我	-10562.0
主体	-10563.0
保安	-10564.0
剑影	-10565.0
千金	-10566.0
大半	-10567.0
山西	-10568.0
岗位	-10569.0
星辰	-10570.0
这一刻	-10571.0
这个时候	-10572.0
一缕	-10573.0
地狱	-10574.0
极限	-10575.0
格式	-10576.0
疯子	-10577.0
那人道	-10578.0
▁just	-10579.0
▁难	-10580.0
丑陋	-10581.0
二的	-10582.0
处置	-10583.0
常用	-10584.0
意地	-10585.0
掌法	-10586.0
泡脚	-10587.0
石壁	-10588.0
语的	-10589.0
音符	-10590.0
大拇指	-10591.0
放下了	-10592.0
鸠摩智	-10593.0
make	-10594.0
ness	-10595.0
站了起来	-10596.0
mg	-10597.0
修正	-10598.0
多人	-10599.0
心知	-10600.0
情形	-10601.0
青竹	-10602.0
ata	-10603.0
▁我不	-10604.0
一直是	-10605.0
抗氧化	-10606.0
life	-10607.0
高速公路	-10608.0
一拳	-10609.0
六七	-10610.0
化了	-10611.0
总要	-10612.0
最小	-10613.0
绘画	-10614.0
踪影	-10615.0
▁En	-10616.0
▁萧峰	-10617.0
的人口	-10618.0
顾金标	-10619.0
体温	-10620.0
余下	-10621.0
减小	-10622.0
力和	-10623.0
只说	-10624.0
国务	-10625.0
祖先	-10626.0
窗前	-10627.0
绝不	-10628.0
适用	-10629.0
随之	-10630.0
▁好像	-10631.0
对方的	-10632.0
朗声道	-10633.0
▁cent	-10634.0
创建	-10635.0
卓越	-10636.0
发言	-10637.0
命中	-10638.0
如梦	-10639.0
将它	-10640.0
彼得	-10641.0
护理	-10642.0
胡闹	-10643.0
若干	-10644.0
我看着	-10645.0
男子汉	-10646.0
阿弥陀佛	-10647.0
▁They	-10648.0
▁place	-10649.0
▁return	-10650.0
两颗	-10651.0
刺客	-10652.0
同步	-10653.0
归于	-10654.0
掏出	-10655.0
热泪	-10656.0
▁我说	-10657.0
爱一个人	-10658.0
▁nons	-10659.0
五指	-10660.0
亲近	-10661.0
均为	-10662.0
奖励	-10663.0
实习	-10664.0
怔怔	-10665.0
无恙	-10666.0
毁了	-10667.0
海底	-10668.0
特洛	-10669.0
铸造	-10670.0
雪人	-10671.0
无尽的	-10672.0
▁”	-10673.0
伴侣	-10674.0
墙角	-10675.0
夏日	-10676.0
晚安	-10677.0
杯子	-10678.0
棒的	-10679.0
溪水	-10680.0
猛然	-10681.0
皱眉	-10682.0
直流	-10683.0
豹子	-10684.0
赞道	-10685.0
问了	-10686.0
但不	-10687.0
初始	-10688.0
听我	-10689.0
喳喳	-10690.0
堆积	-10691.0
大变	-10692.0
守住	-10693.0
挥出	-10694.0
沥青	-10695.0
洪水	-10696.0
真气	-10697.0
一次次	-10698.0
只可惜	-10699.0
走到了	-10700.0
乘坐	-10701.0
优于	-10702.0
放的	-10703.0
洋溢	-10704.0
短剑	-10705.0
羊肉	-10706.0
腾腾	-10707.0
ley	-10708.0
言达平	-10709.0
心念一动	-10710.0
ative	-10711.0
▁class	-10712.0
下班	-10713.0
和人	-10714.0
恋人	-10715.0
我那	-10716.0
更显	-10717.0
每月	-10718.0
浪花	-10719.0
耳中	-10720.0
讨好	-10721.0
是一件	-10722.0
眼前的	-10723.0
三月	-10724.0
下落	-10725.0
沉睡	-10726.0
的法	-10727.0
稻草	-10728.0
自当	-10729.0
受欢迎	-10730.0
因为她	-10731.0
树上的	-10732.0
走下去	-10733.0
越听越	-10734.0
什么都不	-10735.0
。)	-10736.0
便知	-10737.0
制成	-10738.0
在中	-10739.0
姑苏	-10740.0
应付	-10741.0
感知	-10742.0
气势	-10743.0
都给	-10744.0
面向	-10745.0
不会有	-10746.0
人类的	-10747.0
将下来	-10748.0
非常好	-10749.0
▁music	-10750.0
五月	-10751.0
完后	-10752.0
报了	-10753.0
抹去	-10754.0
款式	-10755.0
氛围	-10756.0
越是	-10757.0
高音	-10758.0
了几句	-10759.0
need	-10760.0
他能	-10761.0
势力	-10762.0
就很	-10763.0
布朗	-10764.0
强人	-10765.0
纯净	-10766.0
郎君	-10767.0
野猪	-10768.0
领教	-10769.0
erv	-10770.0
青少年	-10771.0
ya	-10772.0
▁笑	-10773.0
多情	-10774.0
排除	-10775.0
昔日	-10776.0
颜值	-10777.0
▁宝树	-10778.0
与其他	-10779.0
在北京	-10780.0
玩游戏	-10781.0
▁before	-10782.0
书本	-10783.0
困扰	-10784.0
汹涌	-10785.0
虚伪	-10786.0
馒头	-10787.0
▁从来	-10788.0
把它们	-10789.0
风吹来	-10790.0
万事	-10791.0
华丽	-10792.0
在新	-10793.0
指示	-10794.0
昆明	-10795.0
春华	-10796.0
比剑	-10797.0
滤波	-10798.0
脚上	-10799.0
都快	-10800.0
钦佩	-10801.0
铁木	-10802.0
▁当时	-10803.0
于天下	-10804.0
的夜晚	-10805.0
肚子里	-10806.0
表达了	-10807.0
石破天道	-10808.0
不复	-10809.0
京城	-10810.0
击败	-10811.0
化解	-10812.0
宠物	-10813.0
辣的	-10814.0
银河	-10815.0
感受到了	-10816.0
午夜	-10817.0
吴越	-10818.0
多说	-10819.0
尺度	-10820.0
承载	-10821.0
爱吃	-10822.0
贵州	-10823.0
酸的	-10824.0
黑了	-10825.0
一瞬间	-10826.0
安徽	-10827.0
安心	-10828.0
尔特	-10829.0
差别	-10830.0
细看	-10831.0
预备	-10832.0
alf	-10833.0
相当于	-10834.0
非线性	-10835.0
▁Com	-10836.0
▁mark	-10837.0
ensical	-10838.0
🌹🌹🌹🌹🌹🌹🌹🌹	-10839.0
▁nonsensical	-10840.0
出道	-10841.0
台风	-10842.0
它会	-10843.0
无虑	-10844.0
有天	-10845.0
爱他	-10846.0
老鹰	-10847.0
被他	-10848.0
造反	-10849.0
两个月	-10850.0
最初的	-10851.0
吃不	-10852.0
往外	-10853.0
有害	-10854.0
洛阳	-10855.0
观音	-10856.0
认输	-10857.0
连城	-10858.0
▁No	-10859.0
▁明	-10860.0
你走	-10861.0
便利	-10862.0
早知	-10863.0
没过	-10864.0
海中	-10865.0
烦躁	-10866.0
经书	-10867.0
丝毫不	-10868.0
该怎么	-10869.0
▁paper	-10870.0
内涵	-10871.0
杰克	-10872.0
油菜	-10873.0
流着	-10874.0
王后	-10875.0
称呼	-10876.0
设立	-10877.0
贫穷	-10878.0
高举	-10879.0
组织的	-10880.0
四海	-10881.0
复制	-10882.0
头痛	-10883.0
我曾	-10884.0
无心	-10885.0
柠檬	-10886.0
淘宝	-10887.0
熬夜	-10888.0
韵味	-10889.0
严重的	-10890.0
平方米	-10891.0
更大的	-10892.0
相同的	-10893.0
▁空	-10894.0
奸贼	-10895.0
小巷	-10896.0
干预	-10897.0
狭窄	-10898.0
王语嫣	-10899.0
举刀	-10900.0
令他	-10901.0
发誓	-10902.0
后退	-10903.0
手势	-10904.0
甘心	-10905.0
登上	-10906.0
软的	-10907.0
轻响	-10908.0
黑衣	-10909.0
大学的	-10910.0
这么久	-10911.0
霎时之间	-10912.0
于我	-10913.0
受人	-10914.0
山脉	-10915.0
查询	-10916.0
满洲	-10917.0
荆棘	-10918.0
骨折	-10919.0
黯然	-10920.0
▁mm	-10921.0
奥斯曼	-10922.0
的话语	-10923.0
老太太	-10924.0
cent	-10925.0
最重要的	-10926.0
Wh	-10927.0
▁六	-10928.0
到她	-10929.0
小雨	-10930.0
快递	-10931.0
授予	-10932.0
炫耀	-10933.0
却也不	-10934.0
一株	-10935.0
一款	-10936.0
变为	-10937.0
大剑	-10938.0
总部	-10939.0
的铁	-10940.0
领袖	-10941.0
▁晚上	-10942.0
手里的	-10943.0
的女人	-10944.0
▁contr	-10945.0
出言	-10946.0
抵御	-10947.0
早日	-10948.0
游坦	-10949.0
美术	-10950.0
证书	-10951.0
▁夏天	-10952.0
戚长发	-10953.0
怎么办呢	-10954.0
先行	-10955.0
大步	-10956.0
带的	-10957.0
远的	-10958.0
▁明明	-10959.0
学习的	-10960.0
治疗组	-10961.0
说不出话来	-10962.0
▁胡	-10963.0
学位	-10964.0
总理	-10965.0
成名	-10966.0
未知	-10967.0
趁着	-10968.0
汪啸风	-10969.0
▁spec	-10970.0
▁together	-10971.0
▁共	-10972.0
又怎	-10973.0
喇叭	-10974.0
国有	-10975.0
拖着	-10976.0
目的地	-10977.0
eter	-10978.0
表达了什么	-10979.0
一望	-10980.0
各类	-10981.0
后人	-10982.0
就跑	-10983.0
往常	-10984.0
棺材	-10985.0
毒品	-10986.0
阳台	-10987.0
刘元鹤	-10988.0
lect	-10989.0
哇哇	-10990.0
声称	-10991.0
淹没	-10992.0
长寿	-10993.0
orm	-10994.0
ten	-10995.0
喜欢的人	-10996.0
',	-10997.0
下水	-10998.0
去除	-10999.0
回身	-11000.0
头颈	-11001.0
屋中	-11002.0
远走	-11003.0
出版社	-11004.0
远远的	-11005.0
满脸通红	-11006.0
▁Love	-11007.0
▁appl	-11008.0
▁成语出处	-11009.0
像你	-11010.0
几何	-11011.0
咯咯	-11012.0
尘土	-11013.0
幅度	-11014.0
强迫	-11015.0
本兮	-11016.0
特意	-11017.0
练功	-11018.0
iew	-11019.0
之前的	-11020.0
完颜洪	-11021.0
日下午	-11022.0
武当派	-11023.0
空心菜	-11024.0
一万	-11025.0
上台	-11026.0
剂量	-11027.0
整合	-11028.0
爱了	-11029.0
肥胖	-11030.0
西域	-11031.0
问问	-11032.0
祖国的	-11033.0
裘千仞	-11034.0
在此基础上	-11035.0
东京	-11036.0
习俗	-11037.0
劲儿	-11038.0
左腿	-11039.0
悠闲	-11040.0
指尖	-11041.0
是想	-11042.0
眼的	-11043.0
退后	-11044.0
▁你会	-11045.0
还不错	-11046.0
右腿	-11047.0
同性	-11048.0
自如	-11049.0
领悟	-11050.0
黑龙	-11051.0
eah	-11052.0
▁人们	-11053.0
▁关于	-11054.0
▁这种	-11055.0
!“	-11056.0
慈悲	-11057.0
懵懂	-11058.0
纪委	-11059.0
英尺	-11060.0
许久	-11061.0
跃开	-11062.0
部属	-11063.0
▁回到	-11064.0
的美丽	-11065.0
相结合	-11066.0
这么大	-11067.0
▁end	-11068.0
一事	-11069.0
收敛	-11070.0
无事	-11071.0
白光	-11072.0
约为	-11073.0
维修	-11074.0
记着	-11075.0
还礼	-11076.0
邂逅	-11077.0
几分钟	-11078.0
小师妹	-11079.0
声线	-11080.0
抗拒	-11081.0
致的	-11082.0
酸盐	-11083.0
饥饿	-11084.0
最多的	-11085.0
正能量	-11086.0
的手机	-11087.0
研究的	-11088.0
转头向	-11089.0
千万不要	-11090.0
用自己的	-11091.0
▁yellow	-11092.0
分裂	-11093.0
哽咽	-11094.0
日晚	-11095.0
来做	-11096.0
耦合	-11097.0
ids	-11098.0
▁昨天	-11099.0
自然而	-11100.0
SO	-11101.0
两手	-11102.0
出身	-11103.0
唯独	-11104.0
少说	-11105.0
映入	-11106.0
繁殖	-11107.0
财物	-11108.0
部落	-11109.0
▁面对	-11110.0
▁fun	-11111.0
▁程灵素	-11112.0
▁第一次	-11113.0
ities	-11114.0
▁serv	-11115.0
▁评论表达的情感	-11116.0
乾坤	-11117.0
二娘	-11118.0
亲密	-11119.0
使其	-11120.0
再过	-11121.0
刺去	-11122.0
教徒	-11123.0
林子	-11124.0
的很	-11125.0
的诗	-11126.0
赞赞	-11127.0
越想	-11128.0
▁冬天	-11129.0
紧接着	-11130.0
LO	-11131.0
尊严	-11132.0
立在	-11133.0
致敬	-11134.0
讲解	-11135.0
▁有一	-11136.0
危难	-11137.0
找来	-11138.0
拯救	-11139.0
摇曳	-11140.0
死不	-11141.0
登陆	-11142.0
知了	-11143.0
砰砰	-11144.0
买了一	-11145.0
告诉她	-11146.0
在水里	-11147.0
导致了	-11148.0
中华民族	-11149.0
啊啊啊啊	-11150.0
ym	-11151.0
大衣	-11152.0
学过	-11153.0
时节	-11154.0
每周	-11155.0
甜甜	-11156.0
骏马	-11157.0
爱着你	-11158.0
的幸福	-11159.0
约而同	-11160.0
角落里	-11161.0
▁anim	-11162.0
也罢	-11163.0
五行	-11164.0
到天	-11165.0
太空	-11166.0
定量	-11167.0
棵树	-11168.0
汗珠	-11169.0
篮子	-11170.0
退缩	-11171.0
靠在	-11172.0
飘荡	-11173.0
ches	-11174.0
▁any	-11175.0
▁poin	-11176.0
▁same	-11177.0
属于自己的	-11178.0
一盏	-11179.0
专注	-11180.0
仙道	-11181.0
巴西	-11182.0
挽回	-11183.0
有理	-11184.0
母爱	-11185.0
海外	-11186.0
竟有	-11187.0
谈话	-11188.0
▁一次	-11189.0
▁今生	-11190.0
▁康熙	-11191.0
厉声道	-11192.0
就像是	-11193.0
文化的	-11194.0
更喜欢	-11195.0
▁money	-11196.0
Na	-11197.0
任意	-11198.0
情侣	-11199.0
接住	-11200.0
摔跤	-11201.0
渗透	-11202.0
熊猫	-11203.0
旁边的	-11204.0
▁嘿	-11205.0
学问	-11206.0
少的	-11207.0
张口	-11208.0
担当	-11209.0
掌心	-11210.0
果园	-11211.0
民众	-11212.0
洗衣	-11213.0
粤语	-11214.0
要将	-11215.0
顽强	-11216.0
▁你却	-11217.0
在路上	-11218.0
你的声音	-11219.0
▁i	-11220.0
一灯	-11221.0
发起	-11222.0
忍着	-11223.0
淘气	-11224.0
▁Re	-11225.0
下了头	-11226.0
的小孩	-11227.0
真实的	-11228.0
▁could	-11229.0
保罗	-11230.0
放过	-11231.0
沐浴	-11232.0
神话	-11233.0
por	-11234.0
世纪的	-11235.0
另一只	-11236.0
啦啦啦	-11237.0
开心地	-11238.0
👍👍👍	-11239.0
灭绝师太	-11240.0
ivers	-11241.0
三国	-11242.0
两岸	-11243.0
乘风	-11244.0
元钱	-11245.0
再加	-11246.0
创意	-11247.0
平面	-11248.0
擦肩	-11249.0
橡皮	-11250.0
比试	-11251.0
知名	-11252.0
谨慎	-11253.0
超声	-11254.0
酸麻	-11255.0
动物园	-11256.0
我听了	-11257.0
起身来	-11258.0
ience	-11259.0
▁series	-11260.0
武官	-11261.0
的要	-11262.0
音色	-11263.0
童年的	-11264.0
过来的	-11265.0
好好学习	-11266.0
不问	-11267.0
单一	-11268.0
成群	-11269.0
打中	-11270.0
排行	-11271.0
羊群	-11272.0
鞭子	-11273.0
每当我	-11274.0
现在我	-11275.0
不是因为	-11276.0
手中长剑	-11277.0
那是什么	-11278.0
你便	-11279.0
商务	-11280.0
疯了	-11281.0
的原	-11282.0
腹部	-11283.0
ret	-11284.0
复杂的	-11285.0
太好了	-11286.0
空气中	-11287.0
让我的	-11288.0
你到	-11289.0
忽视	-11290.0
捡起	-11291.0
是那	-11292.0
来接	-11293.0
案例	-11294.0
游玩	-11295.0
碧昂	-11296.0
闪过	-11297.0
黑影	-11298.0
▁那人	-11299.0
什么人	-11300.0
操场上	-11301.0
散发着	-11302.0
达到了	-11303.0
天下无敌	-11304.0
口服	-11305.0
回顾	-11306.0
大片	-11307.0
夹杂	-11308.0
气味	-11309.0
走廊	-11310.0
踏实	-11311.0
龙王	-11312.0
bers	-11313.0
▁苗若兰	-11314.0
▁pain	-11315.0
▁深	-11316.0
一转	-11317.0
不息	-11318.0
伤疤	-11319.0
垂直	-11320.0
拍了	-11321.0
挥动	-11322.0
来生	-11323.0
秋水	-11324.0
近期	-11325.0
▁New	-11326.0
acter	-11327.0
▁比	-11328.0
价钱	-11329.0
划过	-11330.0
去打	-11331.0
叫了	-11332.0
回疆	-11333.0
大作	-11334.0
提防	-11335.0
被迫	-11336.0
顽童	-11337.0
row	-11338.0
▁只能	-11339.0
▁生命	-11340.0
等待着	-11341.0
不动声色	-11342.0
在一起的	-11343.0
earch	-11344.0
▁left	-11345.0
;“	-11346.0
互动	-11347.0
剪刀	-11348.0
四哥	-11349.0
志敬	-11350.0
江水	-11351.0
温青	-11352.0
煎熬	-11353.0
眼花	-11354.0
菩提	-11355.0
闵子	-11356.0
当年的	-11357.0
数十年	-11358.0
等着你	-11359.0
▁pop	-11360.0
出了一个	-11361.0
知道自己	-11362.0
▁found	-11363.0
影片	-11364.0
海里	-11365.0
特定	-11366.0
示意	-11367.0
耐用	-11368.0
阿珂	-11369.0
😚😚	-11370.0
和社会	-11371.0
电视台	-11372.0
变得更加	-11373.0
因为他们	-11374.0
乘马	-11375.0
于他	-11376.0
卑鄙	-11377.0
叮嘱	-11378.0
台阶	-11379.0
四五	-11380.0
嫩的	-11381.0
户外	-11382.0
方的	-11383.0
千万别	-11384.0
和自己	-11385.0
朋友的	-11386.0
▁cap	-11387.0
世界大战	-11388.0
▁钟	-11389.0
卡尔	-11390.0
古墓	-11391.0
过渡	-11392.0
铃声	-11393.0
好听了	-11394.0
我最喜欢	-11395.0
和水	-11396.0
团体	-11397.0
日报	-11398.0
澎湃	-11399.0
经脉	-11400.0
阴影	-11401.0
▁谢谢	-11402.0
二人的	-11403.0
ember	-11404.0
主流	-11405.0
入鞘	-11406.0
如神	-11407.0
封闭	-11408.0
打去	-11409.0
烟雾	-11410.0
舞动	-11411.0
遭受	-11412.0
高楼	-11413.0
▁disc	-11414.0
夜深	-11415.0
对外	-11416.0
对小	-11417.0
权的	-11418.0
残留	-11419.0
气体	-11420.0
班长	-11421.0
用水	-11422.0
又一个	-11423.0
注意到	-11424.0
ides	-11425.0
▁苏鲁克	-11426.0
▁That	-11427.0
入心	-11428.0
叶片	-11429.0
多远	-11430.0
抽烟	-11431.0
油气	-11432.0
流畅	-11433.0
现有	-11434.0
红旗	-11435.0
过客	-11436.0
son	-11437.0
地上的	-11438.0
安静的	-11439.0
将出来	-11440.0
▁area	-11441.0
US	-11442.0
依偎	-11443.0
倾斜	-11444.0
八十	-11445.0
又像	-11446.0
就得	-11447.0
手工	-11448.0
足了	-11449.0
轮廓	-11450.0
选取	-11451.0
住了他	-11452.0
你真的	-11453.0
还是在	-11454.0
这一剑	-11455.0
那两个	-11456.0
夜间	-11457.0
拉扯	-11458.0
描写	-11459.0
电动	-11460.0
精妙	-11461.0
跃上	-11462.0
躺着	-11463.0
▁仍	-11464.0
一瞥	-11465.0
一雷	-11466.0
个儿	-11467.0
仗义	-11468.0
保定	-11469.0
关东	-11470.0
怪物	-11471.0
排放	-11472.0
签署	-11473.0
索性	-11474.0
红药	-11475.0
魁梧	-11476.0
几句话	-11477.0
的说法	-11478.0
一抹	-11479.0
充实	-11480.0
势必	-11481.0
召开	-11482.0
应变	-11483.0
捕捉	-11484.0
甲基	-11485.0
竭力	-11486.0
绿豆	-11487.0
ole	-11488.0
商老太	-11489.0
自由的	-11490.0
风胡子	-11491.0
那个时候	-11492.0
低调	-11493.0
共鸣	-11494.0
奔波	-11495.0
抚养	-11496.0
说罢	-11497.0
适宜	-11498.0
的表情	-11499.0
胡大爷	-11500.0
讲故事	-11501.0
IC	-11502.0
一亮	-11503.0
万某	-11504.0
储存	-11505.0
再到	-11506.0
垂头	-11507.0
如山	-11508.0
婉转	-11509.0
浓郁	-11510.0
烛光	-11511.0
西夏	-11512.0
跑得	-11513.0
随口	-11514.0
震惊	-11515.0
领先	-11516.0
鲨鱼	-11517.0
十多年	-11518.0
后来的	-11519.0
就是你	-11520.0
这东西	-11521.0
雪白的	-11522.0
面面相	-11523.0
闪闪发光	-11524.0
ature	-11525.0
▁students	-11526.0
▁时	-11527.0
不轻	-11528.0
举动	-11529.0
也必	-11530.0
乱了	-11531.0
冲到	-11532.0
匆忙	-11533.0
卑微	-11534.0
商宝	-11535.0
困境	-11536.0
手感	-11537.0
线上	-11538.0
贪婪	-11539.0
逃出	-11540.0
重心	-11541.0
铃鸟	-11542.0
却不能	-11543.0
柔声道	-11544.0
与众不同	-11545.0
:(	-11546.0
zh	-11547.0
▁行	-11548.0
可乐	-11549.0
拍照	-11550.0
旨在	-11551.0
是被	-11552.0
杆菌	-11553.0
违约	-11554.0
,,,	-11555.0
的脸上	-11556.0
经典的	-11557.0
▁different	-11558.0
从今	-11559.0
可说	-11560.0
多余	-11561.0
大楼	-11562.0
岸上	-11563.0
左脚	-11564.0
找他	-11565.0
火炬	-11566.0
白兔	-11567.0
高原	-11568.0
▁不会	-11569.0
不远处	-11570.0
协助	-11571.0
可知	-11572.0
我与	-11573.0
接待	-11574.0
有异	-11575.0
肺癌	-11576.0
达成	-11577.0
通讯	-11578.0
att	-11579.0
国内外	-11580.0
沉吟道	-11581.0
一粒	-11582.0
凌霄	-11583.0
商家	-11584.0
杂种	-11585.0
片片	-11586.0
猜想	-11587.0
竟不	-11588.0
郁郁	-11589.0
▁有时	-11590.0
地站在	-11591.0
如何能	-11592.0
就喜欢	-11593.0
我记得	-11594.0
三日	-11595.0
上风	-11596.0
不悔	-11597.0
又何	-11598.0
憧憬	-11599.0
打到	-11600.0
脾胃	-11601.0
非要	-11602.0
丁大哥	-11603.0
悄悄的	-11604.0
我愿意	-11605.0
探讨了	-11606.0
玫瑰花	-11607.0
give	-11608.0
rent	-11609.0
一动不动	-11610.0
三招	-11611.0
好意	-11612.0
守着	-11613.0
轻微	-11614.0
阻碍	-11615.0
商宝震	-11616.0
恢复了	-11617.0
拥有的	-11618.0
每一个人	-11619.0
面面相觑	-11620.0
三娘	-11621.0
也真	-11622.0
你只	-11623.0
分了	-11624.0
前景	-11625.0
医治	-11626.0
卡罗	-11627.0
在想	-11628.0
姥爷	-11629.0
婆娘	-11630.0
数的	-11631.0
火星	-11632.0
灵动	-11633.0
迷藏	-11634.0
鹦鹉	-11635.0
▁仿佛	-11636.0
的功夫	-11637.0
的国家	-11638.0
的影子	-11639.0
NO	-11640.0
之气	-11641.0
也只	-11642.0
事事	-11643.0
出行	-11644.0
加以	-11645.0
古人	-11646.0
唤醒	-11647.0
嫉妒	-11648.0
家务	-11649.0
尸首	-11650.0
山区	-11651.0
我给	-11652.0
民谣	-11653.0
闯进	-11654.0
ger	-11655.0
实验室	-11656.0
滕一雷	-11657.0
留下来	-11658.0
结束后	-11659.0
▁typ	-11660.0
你的时候	-11661.0
每个人都有	-11662.0
是正面还是负面	-11663.0
▁九	-11664.0
▁于	-11665.0
▁男	-11666.0
叫苦	-11667.0
忐忑	-11668.0
懂事	-11669.0
滋滋	-11670.0
留情	-11671.0
睡得	-11672.0
必须要	-11673.0
而且还	-11674.0
▁top	-11675.0
身体健康	-11676.0
▁want	-11677.0
两眼	-11678.0
发电	-11679.0
已无	-11680.0
悲痛	-11681.0
收回	-11682.0
认证	-11683.0
▁我的爱	-11684.0
只是一个	-11685.0
Three	-11686.0
两字	-11687.0
剧院	-11688.0
县城	-11689.0
喀喇	-11690.0
场面	-11691.0
用处	-11692.0
追随	-11693.0
ism	-11694.0
小狐狸	-11695.0
强烈的	-11696.0
有的是	-11697.0
的中国	-11698.0
▁rele	-11699.0
▁something	-11700.0
便走	-11701.0
冲冲	-11702.0
千百	-11703.0
却说	-11704.0
手续	-11705.0
方言	-11706.0
曲中	-11707.0
来个	-11708.0
消灭	-11709.0
火了	-11710.0
猪肉	-11711.0
瓶子	-11712.0
老衲	-11713.0
脸庞	-11714.0
较量	-11715.0
除此	-11716.0
难分	-11717.0
自然而然	-11718.0
还是消极	-11719.0
优惠	-11720.0
再把	-11721.0
多为	-11722.0
小明	-11723.0
旧的	-11724.0
毙命	-11725.0
熟练	-11726.0
相传	-11727.0
石上	-11728.0
章进	-11729.0
自古	-11730.0
这道	-11731.0
陈述	-11732.0
飞狐	-11733.0
gon	-11734.0
的功能	-11735.0
一说	-11736.0
亲情	-11737.0
各处	-11738.0
平等	-11739.0
迎着	-11740.0
遍地	-11741.0
金色	-11742.0
原来他	-11743.0
我这个	-11744.0
过来了	-11745.0
我是一个	-11746.0
一提	-11747.0
之辈	-11748.0
人影	-11749.0
占了	-11750.0
可他	-11751.0
吉祥	-11752.0
懒惰	-11753.0
是天	-11754.0
离家	-11755.0
窗子	-11756.0
第九	-11757.0
不是很	-11758.0
小蚂蚁	-11759.0
ping	-11760.0
积极还是消极	-11761.0
先把	-11762.0
到家	-11763.0
在雪	-11764.0
孔子	-11765.0
班的	-11766.0
职位	-11767.0
通行	-11768.0
逝世	-11769.0
飞身	-11770.0
马的	-11771.0
龙的	-11772.0
你没有	-11773.0
▁may	-11774.0
大开	-11775.0
府中	-11776.0
指控	-11777.0
收缩	-11778.0
斯和	-11779.0
有不	-11780.0
王剑	-11781.0
紫色	-11782.0
过着	-11783.0
问起	-11784.0
▁近日	-11785.0
小松鼠	-11786.0
诸葛亮	-11787.0
成吉思汗	-11788.0
▁both	-11789.0
▁)	-11790.0
亲吻	-11791.0
倒霉	-11792.0
桃子	-11793.0
神雕	-11794.0
秋季	-11795.0
越南	-11796.0
长叹	-11797.0
限于	-11798.0
▁青青	-11799.0
在里面	-11800.0
心里的	-11801.0
独一无	-11802.0
都不能	-11803.0
整个世界	-11804.0
也算	-11805.0
他被	-11806.0
公爵	-11807.0
冒着	-11808.0
合台	-11809.0
小型	-11810.0
急道	-11811.0
打仗	-11812.0
洁白	-11813.0
飞向	-11814.0
鱼类	-11815.0
▁分享	-11816.0
共产党	-11817.0
自由自在	-11818.0
▁该评论表达	-11819.0
▁该评论表达的情绪	-11820.0
图画	-11821.0
我打	-11822.0
新疆	-11823.0
纠错	-11824.0
萤火	-11825.0
那颗	-11826.0
研究所	-11827.0
哈萨克人	-11828.0
▁初	-11829.0
孕妇	-11830.0
就可	-11831.0
彼岸	-11832.0
滴答	-11833.0
醒转	-11834.0
量为	-11835.0
长着	-11836.0
长袍	-11837.0
不经意	-11838.0
但他们	-11839.0
带着一	-11840.0
走过的	-11841.0
▁给	-11842.0
关爱	-11843.0
十天	-11844.0
局面	-11845.0
崇祯	-11846.0
昏迷	-11847.0
说她	-11848.0
请他	-11849.0
通了	-11850.0
▁La	-11851.0
▁过去	-11852.0
不就是	-11853.0
冬天的	-11854.0
的那样	-11855.0
老人的	-11856.0
说实话	-11857.0
运动会	-11858.0
我喜欢你	-11859.0
还给	-11860.0
逃脱	-11861.0
队中	-11862.0
饼干	-11863.0
iet	-11864.0
▁谁能	-11865.0
袁相公	-11866.0
▁box	-11867.0
▁prov	-11868.0
一串	-11869.0
之谦	-11870.0
你家	-11871.0
侦查	-11872.0
各项	-11873.0
外观	-11874.0
大致	-11875.0
大鼠	-11876.0
小儿	-11877.0
有用	-11878.0
膝盖	-11879.0
不清楚	-11880.0
类型的	-11881.0
~~~~	-11882.0
▁acc	-11883.0
▁我不想	-11884.0
ountain	-11885.0
但想	-11886.0
只求	-11887.0
度和	-11888.0
梦境	-11889.0
直径	-11890.0
眼睁	-11891.0
胶囊	-11892.0
追究	-11893.0
▁但愿	-11894.0
半空中	-11895.0
▁States	-11896.0
▁未	-11897.0
三大	-11898.0
养生	-11899.0
到这	-11900.0
当了	-11901.0
简洁	-11902.0
股东	-11903.0
自卑	-11904.0
面具	-11905.0
凭什么	-11906.0
暖暖的	-11907.0
柔软的	-11908.0
%(	-11909.0
华盛	-11910.0
图雅	-11911.0
坚硬	-11912.0
她会	-11913.0
的病	-11914.0
硬化	-11915.0
精确	-11916.0
越走	-11917.0
踌躇	-11918.0
运劲	-11919.0
的形式	-11920.0
笑了起来	-11921.0
一寸	-11922.0
中等	-11923.0
友好	-11924.0
大呼	-11925.0
恶劣	-11926.0
手表	-11927.0
提议	-11928.0
斯顿	-11929.0
纠纷	-11930.0
绿化	-11931.0
解除	-11932.0
不好的	-11933.0
你不用	-11934.0
ices	-11935.0
self	-11936.0
这种情况	-11937.0
从怀中取出	-11938.0
一击	-11939.0
他俩	-11940.0
在人	-11941.0
奇特	-11942.0
学得	-11943.0
想把	-11944.0
此前	-11945.0
绿油	-11946.0
UNK	-11947.0
就是在	-11948.0
薛之谦	-11949.0
还有很多	-11950.0
world	-11951.0
▁求	-11952.0
如玉	-11953.0
小偷	-11954.0
机灵	-11955.0
米饭	-11956.0
脑中	-11957.0
装着	-11958.0
趁机	-11959.0
频繁	-11960.0
▁当然	-11961.0
原来的	-11962.0
的一项	-11963.0
红红的	-11964.0
所有的实体	-11965.0
▁抽取出文中	-11966.0
▁抽取出文中所有的实体	-11967.0
▁常	-11968.0
刺死	-11969.0
咕咕	-11970.0
型男	-11971.0
早饭	-11972.0
梁子	-11973.0
瓜子	-11974.0
神龙	-11975.0
地走了	-11976.0
程度的	-11977.0
躬身道	-11978.0
▁working	-11979.0
便欲	-11980.0
做完	-11981.0
名声	-11982.0
小路	-11983.0
惊得	-11984.0
报复	-11985.0
挥剑	-11986.0
排队	-11987.0
湖边	-11988.0
牛皮	-11989.0
送去	-11990.0
错的	-11991.0
好听的	-11992.0
想起来	-11993.0
模型的	-11994.0
的一条	-11995.0
▁还记得	-11996.0
?!	-11997.0
万岁	-11998.0
吸烟	-11999.0
围在	-12000.0
弓箭	-12001.0
戏剧	-12002.0
样本	-12003.0
遗产	-12004.0
姓大名	-12005.0
很开心	-12006.0
的女子	-12007.0
说的话	-12008.0
一点一点	-12009.0
▁满	-12010.0
东海	-12011.0
全神	-12012.0
凸显	-12013.0
拐杖	-12014.0
牛羊	-12015.0
界面	-12016.0
屋子里	-12017.0
很不错	-12018.0
是如何	-12019.0
的所有	-12020.0
的滋味	-12021.0
验证了	-12022.0
▁cou	-12023.0
struc	-12024.0
PE	-12025.0
两根	-12026.0
探测	-12027.0
柿子	-12028.0
烈日	-12029.0
稳稳	-12030.0
而前	-12031.0
莲舟	-12032.0
说谎	-12033.0
身心	-12034.0
软鞭	-12035.0
mas	-12036.0
▁cle	-12037.0
一行	-12038.0
一震	-12039.0
判处	-12040.0
又从	-12041.0
发呆	-12042.0
她那	-12043.0
弥补	-12044.0
当世	-12045.0
情急	-12046.0
示弱	-12047.0
也不怕	-12048.0
卫春华	-12049.0
恭恭敬	-12050.0
的男人	-12051.0
的知识	-12052.0
的角度	-12053.0
为什么会	-12054.0
▁点	-12055.0
再不	-12056.0
梳理	-12057.0
狡猾	-12058.0
生性	-12059.0
皇宫	-12060.0
紫棋	-12061.0
结了	-12062.0
较小	-12063.0
▁水笙	-12064.0
我们不	-12065.0
数据库	-12066.0
要注意	-12067.0
身体的	-12068.0
arty	-12069.0
cc	-12070.0
▁您	-12071.0
优先	-12072.0
广西	-12073.0
爹娘	-12074.0
瞧见	-12075.0
竹林	-12076.0
紧闭	-12077.0
终生	-12078.0
雨点	-12079.0
飞天	-12080.0
下去了	-12081.0
成一个	-12082.0
有机会	-12083.0
用什么	-12084.0
恭恭敬敬	-12085.0
印花	-12086.0
国防	-12087.0
恶心	-12088.0
抢着	-12089.0
摇摇	-12090.0
气血	-12091.0
没钱	-12092.0
灵感	-12093.0
用药	-12094.0
硬币	-12095.0
诚信	-12096.0
身去	-12097.0
部署	-12098.0
ists	-12099.0
何人	-12100.0
启示	-12101.0
怕你	-12102.0
所为	-12103.0
潇湘	-12104.0
留住	-12105.0
随身	-12106.0
icy	-12107.0
不舒服	-12108.0
▁丁	-12109.0
术后	-12110.0
来时	-12111.0
禅师	-12112.0
近了	-12113.0
配上	-12114.0
骑士	-12115.0
向我们	-12116.0
我身边	-12117.0
沉浸在	-12118.0
海老公	-12119.0
目的是	-12120.0
都是你	-12121.0
▁pur	-12122.0
唱这首歌	-12123.0
许许多多	-12124.0
ground	-12125.0
gy	-12126.0
剑锋	-12127.0
千山	-12128.0
在该	-12129.0
如风	-12130.0
宾馆	-12131.0
有此	-12132.0
条纹	-12133.0
正德	-12134.0
狂奔	-12135.0
诸多	-12136.0
▁昨日	-12137.0
典型的	-12138.0
成功了	-12139.0
我仿佛	-12140.0
play	-12141.0
任飞燕道	-12142.0
▁石	-12143.0
叮叮	-12144.0
太难	-12145.0
异性	-12146.0
拼接	-12147.0
数千	-12148.0
晚餐	-12149.0
竹子	-12150.0
第八	-12151.0
能让	-12152.0
辽阔	-12153.0
魔术	-12154.0
大规模	-12155.0
无意中	-12156.0
椅子上	-12157.0
都已经	-12158.0
▁win	-12159.0
▁well	-12160.0
两头	-12161.0
代码	-12162.0
同门	-12163.0
家家	-12164.0
强行	-12165.0
法规	-12166.0
浸泡	-12167.0
眯眯	-12168.0
红包	-12169.0
青草	-12170.0
鳌拜	-12171.0
了好久	-12172.0
夫人道	-12173.0
才明白	-12174.0
甘情愿	-12175.0
的冬天	-12176.0
其中包括	-12177.0
无影无踪	-12178.0
▁room	-12179.0
▁table	-12180.0
▁陆	-12181.0
兴高	-12182.0
异的	-12183.0
影像	-12184.0
拥挤	-12185.0
来人	-12186.0
正想	-12187.0
炎症	-12188.0
高僧	-12189.0
付出了	-12190.0
日上午	-12191.0
的存在	-12192.0
的美好	-12193.0
TF	-12194.0
幽幽	-12195.0
教皇	-12196.0
ize	-12197.0
不再是	-12198.0
主义的	-12199.0
想知道	-12200.0
舞台上	-12201.0
一派	-12202.0
哼哼	-12203.0
夸张	-12204.0
并于	-12205.0
敷衍	-12206.0
有情	-12207.0
步骤	-12208.0
符号	-12209.0
蓉儿	-12210.0
铭记	-12211.0
又开始	-12212.0
在上面	-12213.0
垃圾桶	-12214.0
平阿四	-12215.0
▁你是否	-12216.0
嘴边	-12217.0
待他	-12218.0
沿途	-12219.0
演的	-12220.0
粒子	-12221.0
集合	-12222.0
▁每个	-12223.0
我们家	-12224.0
我的心情	-12225.0
这样的人	-12226.0
▁main	-12227.0
三更	-12228.0
争论	-12229.0
侍剑	-12230.0
俊杰	-12231.0
冲进	-12232.0
加大	-12233.0
北斗	-12234.0
对联	-12235.0
小慧	-12236.0
小树	-12237.0
尖叫	-12238.0
怎生	-12239.0
撞击	-12240.0
栖息	-12241.0
玩儿	-12242.0
的首	-12243.0
耳光	-12244.0
连夜	-12245.0
学生的	-12246.0
掉下来	-12247.0
对自己的	-12248.0
▁life	-12249.0
,"	-12250.0
伊朗	-12251.0
否认	-12252.0
城外	-12253.0
如水	-12254.0
屋檐	-12255.0
很棒	-12256.0
抛开	-12257.0
易烊	-12258.0
星球	-12259.0
朝天	-12260.0
沿海	-12261.0
红豆	-12262.0
胜负	-12263.0
艰苦	-12264.0
不耐烦	-12265.0
政府的	-12266.0
ha	-12267.0
之旁	-12268.0
兄妹	-12269.0
克塽	-12270.0
单词	-12271.0
坐了	-12272.0
彩色	-12273.0
恩爱	-12274.0
想哭	-12275.0
标记	-12276.0
认出	-12277.0
风云	-12278.0
idd	-12279.0
传感器	-12280.0
已成为	-12281.0
就可以了	-12282.0
晕了过去	-12283.0
一推	-12284.0
不求	-12285.0
兴致	-12286.0
嫁给	-12287.0
嫌弃	-12288.0
所作	-12289.0
朝阳	-12290.0
清明	-12291.0
羊儿	-12292.0
跑来	-12293.0
这副	-12294.0
这门	-12295.0
长辈	-12296.0
▁期待	-12297.0
岁年纪	-12298.0
!"	-12299.0
月至	-12300.0
死者	-12301.0
狠辣	-12302.0
触摸	-12303.0
小伙伴	-12304.0
易烊千玺	-12305.0
过不多时	-12306.0
举报	-12307.0
事发	-12308.0
后再	-12309.0
床头	-12310.0
杨柳	-12311.0
标签	-12312.0
种的	-12313.0
襄阳	-12314.0
调味	-12315.0
轨迹	-12316.0
owd	-12317.0
从哪里	-12318.0
加入了	-12319.0
我跟你	-12320.0
所在地	-12321.0
有限元	-12322.0
还有的	-12323.0
”?	-12324.0
删除	-12325.0
去爱	-12326.0
又向	-12327.0
形貌	-12328.0
望了	-12329.0
理智	-12330.0
诚实	-12331.0
quo	-12332.0
▁天空	-12333.0
了一道	-12334.0
的理由	-12335.0
的背影	-12336.0
市公安局	-12337.0
到底是什么	-12338.0
▁了	-12339.0
一度	-12340.0
侵犯	-12341.0
六年	-12342.0
左侧	-12343.0
心来	-12344.0
我吧	-12345.0
相知	-12346.0
知觉	-12347.0
而退	-12348.0
辗转	-12349.0
华盛顿	-12350.0
的母亲	-12351.0
的小姑娘	-12352.0
▁such	-12353.0
ID	-12354.0
一级	-12355.0
仙子	-12356.0
出自	-12357.0
司徒	-12358.0
埋伏	-12359.0
大便	-12360.0
数次	-12361.0
深沉	-12362.0
知晓	-12363.0
结交	-12364.0
论坛	-12365.0
▁tw	-12366.0
俞莲舟	-12367.0
前面的	-12368.0
朋友圈	-12369.0
氨基酸	-12370.0
的身份	-12371.0
要知道	-12372.0
远远地	-12373.0
rest	-12374.0
严密	-12375.0
你做	-12376.0
你爱	-12377.0
叫作	-12378.0
守在	-12379.0
掩盖	-12380.0
更换	-12381.0
江边	-12382.0
能把	-12383.0
郡主	-12384.0
一片片	-12385.0
是可以	-12386.0
而是在	-12387.0
▁med	-12388.0
告诉自己	-12389.0
和你一起	-12390.0
就在这时	-12391.0
▁season	-12392.0
一篇	-12393.0
但又	-12394.0
剩余	-12395.0
岛屿	-12396.0
急奔	-12397.0
手来	-12398.0
抢到	-12399.0
昨夜	-12400.0
有毒	-12401.0
歧视	-12402.0
的泪	-12403.0
老二	-12404.0
职工	-12405.0
血流	-12406.0
飘落	-12407.0
rop	-12408.0
▁ve	-12409.0
▁在你	-12410.0
的事实	-12411.0
这番话	-12412.0
铁木真	-12413.0
可以说是	-12414.0
的过程中	-12415.0
还是没有	-12416.0
GA	-12417.0
倒地	-12418.0
屠龙	-12419.0
巍巍	-12420.0
用品	-12421.0
绝情	-12422.0
草坪	-12423.0
落泪	-12424.0
记起	-12425.0
败坏	-12426.0
▁不必	-12427.0
了半晌	-12428.0
张专辑	-12429.0
整个人	-12430.0
特殊的	-12431.0
▁using	-12432.0
孙女	-12433.0
感悟	-12434.0
打动	-12435.0
本派	-12436.0
格的	-12437.0
跳到	-12438.0
陛下	-12439.0
▁下面	-12440.0
▁何必	-12441.0
▁国王	-12442.0
▁留下	-12443.0
是不会	-12444.0
洁白的	-12445.0
目不转	-12446.0
长大后	-12447.0
对我来说	-12448.0
无忧无虑	-12449.0
👏👏👏👏👏👏👏👏	-12450.0
一两	-12451.0
一词	-12452.0
书写	-12453.0
其事	-12454.0
它那	-12455.0
想吃	-12456.0
放大	-12457.0
朵花	-12458.0
权威	-12459.0
留给	-12460.0
着眼	-12461.0
翡翠	-12462.0
货车	-12463.0
门上	-12464.0
一定的	-12465.0
如果不	-12466.0
就行了	-12467.0
完颜洪烈	-12468.0
light	-12469.0
BO	-12470.0
三世	-12471.0
亲王	-12472.0
想像	-12473.0
抛下	-12474.0
日落	-12475.0
木材	-12476.0
桥梁	-12477.0
梦幻	-12478.0
秋山	-12479.0
虚弱	-12480.0
视野	-12481.0
诗词	-12482.0
跳着	-12483.0
轻纱	-12484.0
预算	-12485.0
ann	-12486.0
主人的	-12487.0
口袋里	-12488.0
▁......	-12489.0
................	-12490.0
余地	-12491.0
你对	-12492.0
双笙	-12493.0
可用	-12494.0
大发	-12495.0
对该	-12496.0
年幼	-12497.0
抢救	-12498.0
紧了	-12499.0
融资	-12500.0
轰轰	-12501.0
这回	-12502.0
黑人	-12503.0
优秀的	-12504.0
我的话	-12505.0
研究生	-12506.0
神奇的	-12507.0
▁Now	-12508.0
▁sell	-12509.0
La	-12510.0
co	-12511.0
▁随	-12512.0
亲兵	-12513.0
仍旧	-12514.0
厉声	-12515.0
对的	-12516.0
小刀	-12517.0
改为	-12518.0
海域	-12519.0
生于	-12520.0
上一个	-12521.0
了一片	-12522.0
消失在	-12523.0
等问题	-12524.0
瞧了一眼	-12525.0
where	-12526.0
SS	-12527.0
假期	-12528.0
利落	-12529.0
寒气	-12530.0
平原	-12531.0
束手	-12532.0
男神	-12533.0
痛了	-12534.0
的石	-12535.0
翻来	-12536.0
薄的	-12537.0
▁次日	-12538.0
见不到	-12539.0
▁book	-12540.0
▁dogs	-12541.0
▁道	-12542.0
众生	-12543.0
作词	-12544.0
再生	-12545.0
却要	-12546.0
呼喝	-12547.0
和那	-12548.0
大功	-12549.0
开去	-12550.0
难看	-12551.0
他就是	-12552.0
兄弟们	-12553.0
兴高采	-12554.0
是美国	-12555.0
郑克塽	-12556.0
dream	-12557.0
Cl	-12558.0
世代	-12559.0
奕迅	-12560.0
师的	-12561.0
引人	-12562.0
我愿	-12563.0
收起	-12564.0
曾听	-12565.0
有神	-12566.0
水泥	-12567.0
甚多	-12568.0
荔枝	-12569.0
驴子	-12570.0
捉迷藏	-12571.0
看清楚	-12572.0
老英雄	-12573.0
青春的	-12574.0
ects	-12575.0
另一方面	-12576.0
%～	-12577.0
一枝	-12578.0
半月	-12579.0
右足	-12580.0
喊声	-12581.0
好说	-12582.0
排出	-12583.0
船头	-12584.0
血清	-12585.0
赠送	-12586.0
era	-12587.0
▁北京	-12588.0
▁可惜	-12589.0
半夜里	-12590.0
在身边	-12591.0
我妈妈	-12592.0
我想要	-12593.0
的表现	-12594.0
很久很久	-12595.0
ounds	-12596.0
▁shop	-12597.0
犯罪嫌疑人	-12598.0
一晚	-12599.0
你呢	-12600.0
商场	-12601.0
定期	-12602.0
播出	-12603.0
正规	-12604.0
港口	-12605.0
祈求	-12606.0
笔直	-12607.0
舒畅	-12608.0
行空	-12609.0
转弯	-12610.0
通用	-12611.0
鸟类	-12612.0
enn	-12613.0
ues	-12614.0
上面的	-12615.0
为了你	-12616.0
太阳能	-12617.0
称之为	-12618.0
▁China	-12619.0
▁crowd	-12620.0
一响	-12621.0
今世	-12622.0
伴我	-12623.0
再听	-12624.0
发性	-12625.0
夜色	-12626.0
张杰	-12627.0
恶斗	-12628.0
过他	-12629.0
▁明天	-12630.0
年以来	-12631.0
你在哪里	-12632.0
".	-12633.0
▁喝	-12634.0
丢失	-12635.0
体贴	-12636.0
前世	-12637.0
城墙	-12638.0
完毕	-12639.0
幸亏	-12640.0
忠诚	-12641.0
文物	-12642.0
既往	-12643.0
用途	-12644.0
赶忙	-12645.0
▁这么	-12646.0
浓浓的	-12647.0
还不如	-12648.0
ieve	-12649.0
IT	-12650.0
▁宋	-12651.0
亚马	-12652.0
北风	-12653.0
县令	-12654.0
哗哗	-12655.0
她却	-12656.0
学武	-12657.0
热烈	-12658.0
电台	-12659.0
电音	-12660.0
疾驰	-12661.0
难怪	-12662.0
的发生	-12663.0
顾不得	-12664.0
room	-12665.0
▁last	-12666.0
▁泪	-12667.0
人情	-12668.0
发票	-12669.0
名单	-12670.0
就别	-12671.0
死刑	-12672.0
潮湿	-12673.0
秒钟	-12674.0
而非	-12675.0
裁判	-12676.0
▁因此	-12677.0
去看看	-12678.0
的花朵	-12679.0
walk	-12680.0
▁now	-12681.0
▁小时候	-12682.0
充足	-12683.0
先是	-12684.0
出其	-12685.0
均衡	-12686.0
抽屉	-12687.0
指责	-12688.0
排列	-12689.0
擅长	-12690.0
果真	-12691.0
谁会	-12692.0
黄花	-12693.0
关系的	-12694.0
这个词	-12695.0
我一定会	-12696.0
得手	-12697.0
真理	-12698.0
不到的	-12699.0
会导致	-12700.0
我不再	-12701.0
类似的	-12702.0
自身的	-12703.0
那以后	-12704.0
都是在	-12705.0
====	-12706.0
低下了头	-12707.0
▁brown	-12708.0
万丈	-12709.0
之恩	-12710.0
凝聚	-12711.0
切成	-12712.0
围住	-12713.0
寄托	-12714.0
巴掌	-12715.0
电源	-12716.0
神态	-12717.0
谷中	-12718.0
风波	-12719.0
▁别再	-12720.0
高大的	-12721.0
▁sim	-12722.0
一不小心	-12723.0
九阴	-12724.0
卷子	-12725.0
哥儿	-12726.0
暗算	-12727.0
欣慰	-12728.0
璀璨	-12729.0
离我	-12730.0
练得	-12731.0
脸蛋	-12732.0
腹泻	-12733.0
讽刺	-12734.0
逼近	-12735.0
了几分	-12736.0
低着头	-12737.0
你不能	-12738.0
这声音	-12739.0
▁所有的	-12740.0
▁family	-12741.0
)<	-12742.0
三下	-12743.0
中山	-12744.0
五毒	-12745.0
倒入	-12746.0
写得	-12747.0
大将	-12748.0
小巧	-12749.0
差的	-12750.0
强制	-12751.0
微波	-12752.0
成语	-12753.0
扫地	-12754.0
生动	-12755.0
走走	-12756.0
赶路	-12757.0
轰炸	-12758.0
魔力	-12759.0
发出的	-12760.0
得罪了	-12761.0
极大的	-12762.0
顷刻间	-12763.0
不约而同	-12764.0
五颜六色的	-12765.0
主导	-12766.0
剧烈	-12767.0
喉头	-12768.0
壮汉	-12769.0
外界	-12770.0
威名	-12771.0
慌张	-12772.0
换上	-12773.0
放置	-12774.0
着迷	-12775.0
▁狐狸	-12776.0
拿出一	-12777.0
更容易	-12778.0
生气了	-12779.0
▁Hey	-12780.0
▁cre	-12781.0
▁十	-12782.0
上乘	-12783.0
又没	-12784.0
头皮	-12785.0
有三	-12786.0
熟了	-12787.0
狼群	-12788.0
美梦	-12789.0
辟邪	-12790.0
陶瓷	-12791.0
高压	-12792.0
余沧海	-12793.0
忘记你	-12794.0
我赶紧	-12795.0
的时刻	-12796.0
眼睁睁	-12797.0
想到这里	-12798.0
人民共和国	-12799.0
体力	-12800.0
克的	-12801.0
坟墓	-12802.0
普鲁	-12803.0
矩阵	-12804.0
评分	-12805.0
送上	-12806.0
▁多么	-12807.0
▁自己	-12808.0
想要的	-12809.0
时期的	-12810.0
之子	-12811.0
二是	-12812.0
外衣	-12813.0
多端	-12814.0
威武	-12815.0
安置	-12816.0
暧昧	-12817.0
望见	-12818.0
红颜	-12819.0
补肾	-12820.0
驱逐	-12821.0
▁作为	-12822.0
▁忘了	-12823.0
他没有	-12824.0
较大的	-12825.0
▁web	-12826.0
▁冷	-12827.0
一轮	-12828.0
争先	-12829.0
于此	-12830.0
人清	-12831.0
们在	-12832.0
便想	-12833.0
出具	-12834.0
印刷	-12835.0
历经	-12836.0
古老	-12837.0
增多	-12838.0
山里	-12839.0
性感	-12840.0
摩天	-12841.0
液体	-12842.0
的苦	-12843.0
鞋底	-12844.0
公务员	-12845.0
的空气	-12846.0
▁beh	-12847.0
▁tre	-12848.0
的那一刻	-12849.0
入耳	-12850.0
却有	-12851.0
叹气	-12852.0
归还	-12853.0
律宾	-12854.0
的词	-12855.0
站住	-12856.0
答主	-12857.0
裂缝	-12858.0
郑重	-12859.0
长沙	-12860.0
震得	-12861.0
’。”	-12862.0
到一个	-12863.0
就觉得	-12864.0
摇摇晃	-12865.0
最重要	-12866.0
一生一世	-12867.0
摇摇晃晃	-12868.0
ublic	-12869.0
▁plays	-12870.0
争执	-12871.0
冶子	-12872.0
心急	-12873.0
浏览	-12874.0
灵敏	-12875.0
爱恋	-12876.0
监狱	-12877.0
盗窃	-12878.0
离合	-12879.0
膨胀	-12880.0
花草	-12881.0
▁无法	-12882.0
▁自从	-12883.0
二十余	-12884.0
他已经	-12885.0
也是一种	-12886.0
骑自行车	-12887.0
▁wait	-12888.0
▁start	-12889.0
侥幸	-12890.0
怒放	-12891.0
眼皮	-12892.0
置身	-12893.0
表扬	-12894.0
面试	-12895.0
fer	-12896.0
众弟子	-12897.0
文大夫	-12898.0
菲律宾	-12899.0
igin	-12900.0
when	-12901.0
▁该评论	-12902.0
▁band	-12903.0
▁该评论是正向还是负向	-12904.0
又称	-12905.0
和中	-12906.0
尝尝	-12907.0
岛的	-12908.0
微弱	-12909.0
每每	-12910.0
深渊	-12911.0
直奔	-12912.0
稀奇	-12913.0
荆州	-12914.0
这群	-12915.0
合理的	-12916.0
和他们	-12917.0
天下午	-12918.0
开始的	-12919.0
美国人	-12920.0
▁includ	-12921.0
之王	-12922.0
交情	-12923.0
元璋	-12924.0
国人	-12925.0
地毯	-12926.0
如雨	-12927.0
急速	-12928.0
早晚	-12929.0
热量	-12930.0
药王	-12931.0
近南	-12932.0
迷恋	-12933.0
闭目	-12934.0
主题曲	-12935.0
把他们	-12936.0
▁miles	-12937.0
▁罗	-12938.0
不敌	-12939.0
光辉	-12940.0
哀求	-12941.0
嗤嗤	-12942.0
挺拔	-12943.0
插在	-12944.0
文具	-12945.0
既已	-12946.0
梧桐	-12947.0
珊瑚	-12948.0
预期	-12949.0
▁故事	-12950.0
也只有	-12951.0
人家的	-12952.0
你不会	-12953.0
在风中	-12954.0
当事人	-12955.0
我感到	-12956.0
欧冶子	-12957.0
ears	-12958.0
内息	-12959.0
凶猛	-12960.0
就让	-12961.0
无语	-12962.0
西游	-12963.0
路旁	-12964.0
马车	-12965.0
chn	-12966.0
爷爷的	-12967.0
精致的	-12968.0
老天爷	-12969.0
自然的	-12970.0
▁dire	-12971.0
alking	-12972.0
ee	-12973.0
ky	-12974.0
台北	-12975.0
收了	-12976.0
早在	-12977.0
纷飞	-12978.0
营造	-12979.0
衣裙	-12980.0
麦克	-12981.0
▁一路	-12982.0
▁站在	-12983.0
做好了	-12984.0
就好像	-12985.0
殖民地	-12986.0
的心理	-12987.0
face	-12988.0
你不知道	-12989.0
▁似	-12990.0
▁神	-12991.0
二位	-12992.0
大国	-12993.0
好歹	-12994.0
存款	-12995.0
搅拌	-12996.0
模块	-12997.0
流转	-12998.0
渠道	-12999.0
演化	-13000.0
麦当	-13001.0
广泛的	-13002.0
有一颗	-13003.0
背上的	-13004.0
这三个	-13005.0
一死	-13006.0
催促	-13007.0
冲天	-13008.0
复仇	-13009.0
服了	-13010.0
羞愧	-13011.0
肖邦	-13012.0
闹钟	-13013.0
青光	-13014.0
另一名	-13015.0
就不能	-13016.0
材料的	-13017.0
特洛伊	-13018.0
跳了起来	-13019.0
▁pict	-13020.0
不提	-13021.0
与她	-13022.0
他很	-13023.0
区区	-13024.0
对人	-13025.0
日光	-13026.0
活得	-13027.0
炸弹	-13028.0
爱国	-13029.0
祖宗	-13030.0
耶稣	-13031.0
补贴	-13032.0
长出	-13033.0
队友	-13034.0
鱼肠	-13035.0
厉害的	-13036.0
只是我	-13037.0
正常的	-13038.0
沙尼亚	-13039.0
美国的	-13040.0
肯定会	-13041.0
▁see	-13042.0
再也不会	-13043.0
可以通过	-13044.0
▁突然之间	-13045.0
养老	-13046.0
忘怀	-13047.0
拂过	-13048.0
火山	-13049.0
▁接着	-13050.0
却发现	-13051.0
头也不	-13052.0
无敌于天下	-13053.0
一拉	-13054.0
不应	-13055.0
个好	-13056.0
养的	-13057.0
凶狠	-13058.0
听你	-13059.0
和气	-13060.0
地想	-13061.0
多月	-13062.0
扇子	-13063.0
死心	-13064.0
洗手	-13065.0
笑我	-13066.0
血糖	-13067.0
通的	-13068.0
飞刀	-13069.0
黑文	-13070.0
如果我	-13071.0
无限的	-13072.0
笑眯眯	-13073.0
这一掌	-13074.0
那少妇	-13075.0
ones	-13076.0
▁ass	-13077.0
▁bike	-13078.0
▁method	-13079.0
▁riding	-13080.0
一味	-13081.0
亚美	-13082.0
交响	-13083.0
商标	-13084.0
塞尔	-13085.0
微量	-13086.0
心声	-13087.0
摸了	-13088.0
有好	-13089.0
毒素	-13090.0
理工	-13091.0
游坦之	-13092.0
男孩子	-13093.0
的一年	-13094.0
和我一起	-13095.0
()	-13096.0
亲热	-13097.0
堂堂	-13098.0
未见	-13099.0
榜样	-13100.0
每晚	-13101.0
真想	-13102.0
缘份	-13103.0
要走	-13104.0
货物	-13105.0
骗子	-13106.0
ene	-13107.0
你以为	-13108.0
出去了	-13109.0
地回答	-13110.0
患者的	-13111.0
是非常	-13112.0
和你在一起	-13113.0
两家	-13114.0
内外	-13115.0
判官	-13116.0
找你	-13117.0
空隙	-13118.0
脱下	-13119.0
这批	-13120.0
酸甜	-13121.0
镖队	-13122.0
不动了	-13123.0
偷偷地	-13124.0
我曾经	-13125.0
第一名	-13126.0
说自己	-13127.0
▁袁冠南	-13128.0
zy	-13129.0
不稳	-13130.0
会员	-13131.0
刻意	-13132.0
奢侈	-13133.0
心口	-13134.0
打他	-13135.0
波动	-13136.0
猎物	-13137.0
纳赛	-13138.0
骑兵	-13139.0
了解到	-13140.0
引起了	-13141.0
报记者	-13142.0
爬起来	-13143.0
珍贵的	-13144.0
的信息	-13145.0
▁half	-13146.0
%)	-13147.0
两下	-13148.0
修习	-13149.0
分局	-13150.0
核桃	-13151.0
橡胶	-13152.0
欢快	-13153.0
涟漪	-13154.0
翱翔	-13155.0
肚皮	-13156.0
血迹	-13157.0
会出现	-13158.0
做朋友	-13159.0
变得更	-13160.0
抓住他	-13161.0
▁计老人	-13162.0
IV	-13163.0
全民	-13164.0
士顿	-13165.0
如花	-13166.0
挡格	-13167.0
来往	-13168.0
蚯蚓	-13169.0
风儿	-13170.0
che	-13171.0
▁那老	-13172.0
回去吧	-13173.0
有这么	-13174.0
我的妈妈	-13175.0
是这样的	-13176.0
ction	-13177.0
AR	-13178.0
ER	-13179.0
书店	-13180.0
春夏	-13181.0
竞技	-13182.0
精细	-13183.0
but	-13184.0
▁带着	-13185.0
儿子的	-13186.0
在水中	-13187.0
害死了	-13188.0
的价格	-13189.0
的小草	-13190.0
的数据	-13191.0
证明了	-13192.0
▁eat	-13193.0
我们应该	-13194.0
▁cell	-13195.0
▁walk	-13196.0
▁remain	-13197.0
We	-13198.0
佛山	-13199.0
净化	-13200.0
前途	-13201.0
大帅	-13202.0
开关	-13203.0
想必	-13204.0
探头	-13205.0
比起	-13206.0
▁感情	-13207.0
受了伤	-13208.0
垂头丧	-13209.0
岁月的	-13210.0
的一下	-13211.0
你是不是	-13212.0
人事	-13213.0
但若	-13214.0
可怖	-13215.0
大妈	-13216.0
守卫	-13217.0
揭示	-13218.0
斑斓	-13219.0
沉迷	-13220.0
赶着	-13221.0
蹄声	-13222.0
进屋	-13223.0
主义者	-13224.0
了一根	-13225.0
工程师	-13226.0
得多了	-13227.0
我正在	-13228.0
永远是	-13229.0
的道理	-13230.0
瞧不起	-13231.0
▁有时候	-13232.0
▁John	-13233.0
▁beach	-13234.0
去过	-13235.0
圣火	-13236.0
心砚	-13237.0
愉悦	-13238.0
扑面	-13239.0
抗菌	-13240.0
铜牌	-13241.0
几十年	-13242.0
在他们	-13243.0
忘了我	-13244.0
讨论了	-13245.0
好好珍惜	-13246.0
▁known	-13247.0
▁amount	-13248.0
▁出	-13249.0
不散	-13250.0
两枚	-13251.0
吵闹	-13252.0
哈尔	-13253.0
如其	-13254.0
成亲	-13255.0
牵引	-13256.0
特里	-13257.0
高歌	-13258.0
▁我已	-13259.0
▁轻轻	-13260.0
圆圆的	-13261.0
笑起来	-13262.0
闵子华	-13263.0
脚步声响	-13264.0
一二	-13265.0
单是	-13266.0
咆哮	-13267.0
喜怒	-13268.0
墓碑	-13269.0
布满	-13270.0
当头	-13271.0
断肠	-13272.0
满清	-13273.0
燃料	-13274.0
狗的	-13275.0
胸中	-13276.0
属于我	-13277.0
▁hair	-13278.0
亦是	-13279.0
内存	-13280.0
哗啦	-13281.0
场合	-13282.0
安安	-13283.0
工夫	-13284.0
已极	-13285.0
帮他	-13286.0
惊异	-13287.0
抖动	-13288.0
田里	-13289.0
考了	-13290.0
避过	-13291.0
▁我只	-13292.0
帝国的	-13293.0
比赛中	-13294.0
在江湖上	-13295.0
希望大家	-13296.0
▁light	-13297.0
▁:	-13298.0
伴奏	-13299.0
军人	-13300.0
占有	-13301.0
想是	-13302.0
漂流	-13303.0
缅甸	-13304.0
连环	-13305.0
送我	-13306.0
预警	-13307.0
香甜	-13308.0
▁At	-13309.0
和我们	-13310.0
的一点	-13311.0
的旋律	-13312.0
的部分	-13313.0
跟我们	-13314.0
____	-13315.0
徐天宏道	-13316.0
使命	-13317.0
半边	-13318.0
回合	-13319.0
回眸	-13320.0
射出	-13321.0
小于	-13322.0
栽培	-13323.0
的呢	-13324.0
的树	-13325.0
较多	-13326.0
长颈	-13327.0
风和	-13328.0
黄沙	-13329.0
好奇心	-13330.0
对他的	-13331.0
有的在	-13332.0
老年人	-13333.0
不知所措	-13334.0
亚美尼亚	-13335.0
▁加	-13336.0
利率	-13337.0
北极	-13338.0
失色	-13339.0
害我	-13340.0
将于	-13341.0
并与	-13342.0
收纳	-13343.0
秘书	-13344.0
苏州	-13345.0
▁开始	-13346.0
也是我	-13347.0
好好地	-13348.0
是一对	-13349.0
交通事故	-13350.0
下巴	-13351.0
不改	-13352.0
华语	-13353.0
徒刑	-13354.0
指向	-13355.0
结核	-13356.0
船只	-13357.0
茅屋	-13358.0
频道	-13359.0
颠倒	-13360.0
万美元	-13361.0
看到你	-13362.0
除此之外	-13363.0
不愧	-13364.0
临近	-13365.0
俘虏	-13366.0
决意	-13367.0
懒得	-13368.0
拜见	-13369.0
暖和	-13370.0
桃谷	-13371.0
目瞪	-13372.0
马拉	-13373.0
崔秋山	-13374.0
火车站	-13375.0
碧昂丝	-13376.0
▁你是我的	-13377.0
回家的路上	-13378.0
为其	-13379.0
困惑	-13380.0
国会	-13381.0
恶意	-13382.0
抢夺	-13383.0
火花	-13384.0
王源	-13385.0
的口	-13386.0
贝贝	-13387.0
踏着	-13388.0
长廊	-13389.0
风霜	-13390.0
ope	-13391.0
▁以后	-13392.0
存在着	-13393.0
的目标	-13394.0
第三个	-13395.0
赵志敬	-13396.0
毫不犹豫	-13397.0
公告	-13398.0
医师	-13399.0
可得	-13400.0
小昭	-13401.0
悦耳	-13402.0
眼望	-13403.0
闪着	-13404.0
院的	-13405.0
oon	-13406.0
狄云道	-13407.0
睡梦中	-13408.0
陡然间	-13409.0
oose	-13410.0
聚在一起	-13411.0
走着走着	-13412.0
▁因	-13413.0
一问	-13414.0
义兄	-13415.0
二剑	-13416.0
传染	-13417.0
俊凯	-13418.0
带回	-13419.0
找了	-13420.0
故人	-13421.0
湖泊	-13422.0
点评	-13423.0
环绕	-13424.0
神气	-13425.0
诸般	-13426.0
was	-13427.0
下起了	-13428.0
你身边	-13429.0
树林里	-13430.0
相关性	-13431.0
都不敢	-13432.0
哭了起来	-13433.0
▁lead	-13434.0
修斯	-13435.0
关上	-13436.0
和蔼	-13437.0
思议	-13438.0
潜在	-13439.0
炎热	-13440.0
片段	-13441.0
看守	-13442.0
维亚	-13443.0
艺兴	-13444.0
谁说	-13445.0
送来	-13446.0
▁最近	-13447.0
尽全力	-13448.0
有那么	-13449.0
纽黑文	-13450.0
▁Yes	-13451.0
▁Come	-13452.0
AT	-13453.0
▁东	-13454.0
▁分	-13455.0
不当	-13456.0
再度	-13457.0
半身	-13458.0
坠落	-13459.0
埋在	-13460.0
好不	-13461.0
对头	-13462.0
性情	-13463.0
消毒	-13464.0
绕过	-13465.0
钢铁	-13466.0
门派	-13467.0
顺便	-13468.0
和阿曼	-13469.0
果然是	-13470.0
请大家	-13471.0
▁fish	-13472.0
▁girls	-13473.0
他只	-13474.0
光荣	-13475.0
多名	-13476.0
抵达	-13477.0
提琴	-13478.0
脚边	-13479.0
集成	-13480.0
听不厌	-13481.0
小猴子	-13482.0
现在是	-13483.0
了自己的	-13484.0
▁anal	-13485.0
▁wall	-13486.0
▁年	-13487.0
夜空	-13488.0
她不	-13489.0
将近	-13490.0
百余	-13491.0
蓝蓝	-13492.0
逃命	-13493.0
青菜	-13494.0
默然	-13495.0
原因是	-13496.0
很重要	-13497.0
独立的	-13498.0
知道的	-13499.0
这个小	-13500.0
▁bar	-13501.0
五彩缤纷	-13502.0
少数民族	-13503.0
▁open	-13504.0
▁gener	-13505.0
;(	-13506.0
决于	-13507.0
刺入	-13508.0
医药	-13509.0
受益	-13510.0
室中	-13511.0
带给	-13512.0
欧盟	-13513.0
画家	-13514.0
节约	-13515.0
虚假	-13516.0
身亡	-13517.0
近来	-13518.0
风暴	-13519.0
马儿	-13520.0
～～	-13521.0
天铃鸟	-13522.0
打招呼	-13523.0
挣扎着	-13524.0
肯定是	-13525.0
🙏🙏🙏	-13526.0
▁dep	-13527.0
叫了起来	-13528.0
嘴上	-13529.0
立足	-13530.0
米的	-13531.0
自拔	-13532.0
贤弟	-13533.0
这句	-13534.0
这把	-13535.0
▁愿你	-13536.0
▁眼泪	-13537.0
一定能	-13538.0
一本书	-13539.0
了一半	-13540.0
▁bag	-13541.0
▁resp	-13542.0
主管	-13543.0
人称	-13544.0
城门	-13545.0
得你	-13546.0
氧气	-13547.0
袅袅	-13548.0
触动	-13549.0
new	-13550.0
也跟着	-13551.0
的所在	-13552.0
萤火虫	-13553.0
times	-13554.0
化石	-13555.0
多姿	-13556.0
怕他	-13557.0
打猎	-13558.0
毁灭	-13559.0
立的	-13560.0
薄膜	-13561.0
除去	-13562.0
隆隆	-13563.0
▁爱上	-13564.0
付出的	-13565.0
又大又	-13566.0
石庄主	-13567.0
茅十八	-13568.0
说出口	-13569.0
ards	-13570.0
欢声笑语	-13571.0
▁foot	-13572.0
▁record	-13573.0
MV	-13574.0
不长	-13575.0
债务	-13576.0
内地	-13577.0
天子	-13578.0
字母	-13579.0
抢劫	-13580.0
玲珑	-13581.0
男儿	-13582.0
的正	-13583.0
谁是	-13584.0
防护	-13585.0
可怕的	-13586.0
吃东西	-13587.0
哪里还	-13588.0
需要的	-13589.0
也越来越	-13590.0
ments	-13591.0
du	-13592.0
ma	-13593.0
一排	-13594.0
他才	-13595.0
使个	-13596.0
加害	-13597.0
忘却	-13598.0
料理	-13599.0
无用	-13600.0
最优	-13601.0
电信	-13602.0
织物	-13603.0
考生	-13604.0
落实	-13605.0
看着你	-13606.0
该如何	-13607.0
ired	-13608.0
▁ter	-13609.0
你说什么	-13610.0
生活中的	-13611.0
cr	-13612.0
两行	-13613.0
借着	-13614.0
在石	-13615.0
毛衣	-13616.0
路程	-13617.0
钱的	-13618.0
阎基	-13619.0
▁文种	-13620.0
没有你	-13621.0
邓紫棋	-13622.0
生日快乐	-13623.0
的大部分	-13624.0
统计学意义	-13625.0
不意	-13626.0
入门	-13627.0
巫婆	-13628.0
毒蛇	-13629.0
注入	-13630.0
派遣	-13631.0
这姓	-13632.0
分别是	-13633.0
我是谁	-13634.0
那凶徒	-13635.0
也就是说	-13636.0
满头大汗	-13637.0
代的	-13638.0
位的	-13639.0
受过	-13640.0
壮的	-13641.0
大都	-13642.0
得胜	-13643.0
晴朗	-13644.0
期末	-13645.0
极少	-13646.0
桥上	-13647.0
流过	-13648.0
试探	-13649.0
迟迟	-13650.0
闹着	-13651.0
▁我就	-13652.0
的一样	-13653.0
看到我	-13654.0
▁rep	-13655.0
意料之外	-13656.0
ST	-13657.0
▁吹	-13658.0
低沉	-13659.0
反驳	-13660.0
可行	-13661.0
境内	-13662.0
姊妹	-13663.0
引进	-13664.0
梨花	-13665.0
灾害	-13666.0
爱不	-13667.0
的总	-13668.0
静脉	-13669.0
▁我却	-13670.0
只觉得	-13671.0
在眼里	-13672.0
▁goes	-13673.0
不失	-13674.0
乐坛	-13675.0
傻子	-13676.0
屋外	-13677.0
我倒	-13678.0
我大	-13679.0
摧毁	-13680.0
暂且	-13681.0
的鱼	-13682.0
节点	-13683.0
茉莉	-13684.0
警惕	-13685.0
贝壳	-13686.0
▁丁珰	-13687.0
▁来到	-13688.0
什么叫	-13689.0
你的脸	-13690.0
发现的	-13691.0
怎么做	-13692.0
我每天	-13693.0
的分析	-13694.0
让我来	-13695.0
那么大	-13696.0
▁美丽的	-13697.0
得干干净净	-13698.0
与此	-13699.0
于心	-13700.0
召集	-13701.0
奇了	-13702.0
心生	-13703.0
我总	-13704.0
所用	-13705.0
眼界	-13706.0
美了	-13707.0
苦头	-13708.0
通往	-13709.0
世纪初	-13710.0
人群中	-13711.0
就不要	-13712.0
还不够	-13713.0
这几天	-13714.0
那少女道	-13715.0
▁mult	-13716.0
▁便在此时	-13717.0
之徒	-13718.0
停步	-13719.0
划分	-13720.0
单车	-13721.0
吃亏	-13722.0
培育	-13723.0
感人	-13724.0
成全	-13725.0
拘留	-13726.0
放假	-13727.0
有气	-13728.0
起义	-13729.0
任我行	-13730.0
多少次	-13731.0
很奇怪	-13732.0
念念不忘	-13733.0
verage	-13734.0
hy	-13735.0
力度	-13736.0
周年	-13737.0
康复	-13738.0
心怀	-13739.0
纸条	-13740.0
耽误	-13741.0
马匹	-13742.0
lev	-13743.0
▁窗外	-13744.0
可怜的	-13745.0
在手中	-13746.0
call	-13747.0
tell	-13748.0
到了一个	-13749.0
越国剑士	-13750.0
xxxxxxxx	-13751.0
Zn	-13752.0
gs	-13753.0
▁恨	-13754.0
勤奋	-13755.0
吁吁	-13756.0
吞吞	-13757.0
屋内	-13758.0
应声	-13759.0
悠然	-13760.0
施主	-13761.0
暗恋	-13762.0
比他	-13763.0
治病	-13764.0
爱得	-13765.0
迷路	-13766.0
▁这里	-13767.0
也不再	-13768.0
更好地	-13769.0
▁突然间	-13770.0
之旅	-13771.0
固执	-13772.0
患有	-13773.0
我早	-13774.0
更能	-13775.0
李四	-13776.0
毛巾	-13777.0
泰国	-13778.0
海拔	-13779.0
要素	-13780.0
解救	-13781.0
软弱	-13782.0
金黄	-13783.0
键盘	-13784.0
▁可能	-13785.0
不存在	-13786.0
似乎在	-13787.0
准备好	-13788.0
听不到	-13789.0
渐渐的	-13790.0
好像在说	-13791.0
之美	-13792.0
低音	-13793.0
冷却	-13794.0
地板	-13795.0
研发	-13796.0
神来	-13797.0
若要	-13798.0
iam	-13799.0
他武功	-13800.0
体会到	-13801.0
年开始	-13802.0
方法的	-13803.0
普鲁士	-13804.0
有意思	-13805.0
期徒刑	-13806.0
的尸体	-13807.0
的快乐	-13808.0
老头子	-13809.0
hold	-13810.0
▁pat	-13811.0
的一句话	-13812.0
还有一些	-13813.0
▁生	-13814.0
▁重	-13815.0
五星	-13816.0
作物	-13817.0
做工	-13818.0
处分	-13819.0
我吗	-13820.0
极端	-13821.0
百合	-13822.0
aur	-13823.0
▁到底	-13824.0
大踏步	-13825.0
波士顿	-13826.0
的神情	-13827.0
该公司	-13828.0
▁我觉得	-13829.0
没有一个	-13830.0
不给	-13831.0
乱的	-13832.0
公证	-13833.0
刻着	-13834.0
子宫	-13835.0
演技	-13836.0
点半	-13837.0
畜生	-13838.0
自愿	-13839.0
▁另外	-13840.0
▁每一	-13841.0
老太婆	-13842.0
遥远的	-13843.0
黑芝麻	-13844.0
▁own	-13845.0
爱你的人	-13846.0
▁雪	-13847.0
喝茶	-13848.0
天才	-13849.0
子弟	-13850.0
尼斯	-13851.0
打印	-13852.0
教众	-13853.0
林的	-13854.0
水上	-13855.0
石块	-13856.0
绝无	-13857.0
芦苇	-13858.0
长相	-13859.0
成一片	-13860.0
打不过	-13861.0
的经历	-13862.0
跳起来	-13863.0
lectr	-13864.0
会说	-13865.0
六十	-13866.0
内劲	-13867.0
只需	-13868.0
怪异	-13869.0
扭曲	-13870.0
斯尔	-13871.0
曲调	-13872.0
烧饼	-13873.0
用作	-13874.0
缩短	-13875.0
又如何	-13876.0
市中心	-13877.0
并通过	-13878.0
清新的	-13879.0
uper	-13880.0
▁val	-13881.0
▁岳不群	-13882.0
stand	-13883.0
中华人民共和国	-13884.0
一战	-13885.0
保卫	-13886.0
声息	-13887.0
大娘	-13888.0
干系	-13889.0
无效	-13890.0
梦乡	-13891.0
避让	-13892.0
都好	-13893.0
链接	-13894.0
隔离	-13895.0
马来	-13896.0
oor	-13897.0
举行的	-13898.0
了一番	-13899.0
吃完了	-13900.0
惊呆了	-13901.0
现代化	-13902.0
第三次	-13903.0
▁log	-13904.0
ない	-13905.0
一吹	-13906.0
不讲	-13907.0
了口	-13908.0
事儿	-13909.0
可在	-13910.0
坚信	-13911.0
心裂	-13912.0
来世	-13913.0
瑛姑	-13914.0
的酒	-13915.0
那里的	-13916.0
放声大哭	-13917.0
gonna	-13918.0
▁process	-13919.0
上路	-13920.0
冲着	-13921.0
念慈	-13922.0
暴躁	-13923.0
追上	-13924.0
那块	-13925.0
邻近	-13926.0
就到了	-13927.0
挡住了	-13928.0
听到这里	-13929.0
进行了分析	-13930.0
▁search	-13931.0
▁后	-13932.0
他与	-13933.0
光亮	-13934.0
出招	-13935.0
圣圣	-13936.0
小腿	-13937.0
履行	-13938.0
巡逻	-13939.0
期刊	-13940.0
破口	-13941.0
ush	-13942.0
心脏病	-13943.0
意思是	-13944.0
祝福你	-13945.0
而来的	-13946.0
自己去	-13947.0
各国	-13948.0
多好	-13949.0
她把	-13950.0
年到	-13951.0
恶魔	-13952.0
清热	-13953.0
灿灿	-13954.0
的遗	-13955.0
荒凉	-13956.0
被打	-13957.0
▁她的	-13958.0
记忆中	-13959.0
陈奕迅	-13960.0
是怎么回事	-13961.0
illion	-13962.0
一辈	-13963.0
住的	-13964.0
冰冰	-13965.0
埋葬	-13966.0
小鹿	-13967.0
就到	-13968.0
挡在	-13969.0
救你	-13970.0
祖母	-13971.0
蹦蹦	-13972.0
追到	-13973.0
高贵	-13974.0
▁一只	-13975.0
▁无奈	-13976.0
你就会	-13977.0
你觉得	-13978.0
是怎样	-13979.0
的画面	-13980.0
的营养	-13981.0
要是我	-13982.0
风师哥	-13983.0
▁Ind	-13984.0
▁Pro	-13985.0
兴高采烈	-13986.0
▁feet	-13987.0
▁rock	-13988.0
人能	-13989.0
疲力	-13990.0
级别	-13991.0
追问	-13992.0
阿秀	-13993.0
ips	-13994.0
▁丁典	-13995.0
▁不用	-13996.0
▁姑娘	-13997.0
你应该	-13998.0
▁takes	-13999.0
CC	-14000.0
却给	-14001.0
叫好	-14002.0
心如	-14003.0
惬意	-14004.0
曲风	-14005.0
点亮	-14006.0
真挚	-14007.0
福利	-14008.0
缝隙	-14009.0
耿耿	-14010.0
服务的	-14011.0
树枝上	-14012.0
路上的	-14013.0
逃走了	-14014.0
ital	-14015.0
新浪微博	-14016.0
▁going	-14017.0
ng	-14018.0
五千	-14019.0
使剑	-14020.0
告辞	-14021.0
家驹	-14022.0
心血	-14023.0
是何	-14024.0
最深	-14025.0
每到	-14026.0
诈骗	-14027.0
穆念慈	-14028.0
我的朋友	-14029.0
之间的关系	-14030.0
▁player	-14031.0
ET	-14032.0
一扬	-14033.0
一试	-14034.0
不乐	-14035.0
书上	-14036.0
交错	-14037.0
入手	-14038.0
八月	-14039.0
初期	-14040.0
对策	-14041.0
就更	-14042.0
往来	-14043.0
快捷	-14044.0
打滚	-14045.0
钟情	-14046.0
▁Tr	-14047.0
存在哪些	-14048.0
生机勃勃	-14049.0
乘着	-14050.0
在江	-14051.0
暗示	-14052.0
珍藏	-14053.0
的双	-14054.0
胜于	-14055.0
苍苍	-14056.0
追踪	-14057.0
▁每当	-14058.0
不在意	-14059.0
也不肯	-14060.0
在她的	-14061.0
天地会	-14062.0
天龙门	-14063.0
心裂肺	-14064.0
fall	-14065.0
▁周威信	-14066.0
东方不败	-14067.0
Given	-14068.0
不假	-14069.0
人世	-14070.0
你为	-14071.0
发放	-14072.0
吱吱	-14073.0
年和	-14074.0
有爱	-14075.0
森森	-14076.0
看透	-14077.0
知是	-14078.0
紫外	-14079.0
高飞	-14080.0
▁我用	-14081.0
了回来	-14082.0
到我的	-14083.0
半小时	-14084.0
牛仔裤	-14085.0
的花瓣	-14086.0
长大的	-14087.0
work	-14088.0
以防	-14089.0
墨尔	-14090.0
大漠	-14091.0
所见	-14092.0
流连	-14093.0
渺小	-14094.0
熄灭	-14095.0
美美	-14096.0
脑后	-14097.0
ves	-14098.0
两个字	-14099.0
即使是	-14100.0
原来这	-14101.0
天主教	-14102.0
舒适的	-14103.0
文中的实体	-14104.0
入内	-14105.0
可没	-14106.0
她和	-14107.0
娘娘	-14108.0
店铺	-14109.0
撒娇	-14110.0
殿下	-14111.0
通天	-14112.0
闺蜜	-14113.0
以至于	-14114.0
投资者	-14115.0
的大门	-14116.0
结婚了	-14117.0
金黄的	-14118.0
总有一天	-14119.0
汉人强盗	-14120.0
别怕	-14121.0
夹着	-14122.0
建模	-14123.0
汤沛	-14124.0
表征	-14125.0
面部	-14126.0
不说话	-14127.0
也只是	-14128.0
这位姑娘	-14129.0
▁exper	-14130.0
但要	-14131.0
兵马	-14132.0
去吃	-14133.0
呼喊	-14134.0
地利	-14135.0
所致	-14136.0
援助	-14137.0
数步	-14138.0
案发	-14139.0
走后	-14140.0
迎来	-14141.0
这路	-14142.0
不得已	-14143.0
名卫士	-14144.0
妈妈就	-14145.0
心中却	-14146.0
检察院	-14147.0
漫长的	-14148.0
的老人	-14149.0
脑子里	-14150.0
▁body	-14151.0
▁实体识别	-14152.0
HA	-14153.0
一拥	-14154.0
借助	-14155.0
喜鹊	-14156.0
感应	-14157.0
抄袭	-14158.0
敏捷	-14159.0
满腔	-14160.0
缓步	-14161.0
起码	-14162.0
中含有	-14163.0
信用卡	-14164.0
挺好的	-14165.0
敌人的	-14166.0
there	-14167.0
便似	-14168.0
促使	-14169.0
她还	-14170.0
恍惚	-14171.0
愚蠢	-14172.0
法庭	-14173.0
王八	-14174.0
端起	-14175.0
翻滚	-14176.0
送礼	-14177.0
▁等到	-14178.0
无能为	-14179.0
转过了	-14180.0
▁这首歌	-14181.0
组成部分	-14182.0
不由自主地	-14183.0
▁inter	-14184.0
▁巴	-14185.0
不妥	-14186.0
不屈	-14187.0
关切	-14188.0
养成	-14189.0
叙述	-14190.0
可有	-14191.0
平稳	-14192.0
河中	-14193.0
浅浅	-14194.0
烟雨	-14195.0
计策	-14196.0
说有	-14197.0
财宝	-14198.0
质的	-14199.0
起诉	-14200.0
连绵	-14201.0
▁ev	-14202.0
两人的	-14203.0
前几天	-14204.0
在手里	-14205.0
时间为	-14206.0
的神色	-14207.0
辛苦了	-14208.0
上了一层	-14209.0
存在哪些实体	-14210.0
SP	-14211.0
▁飘	-14212.0
东边	-14213.0
两三	-14214.0
但那	-14215.0
做着	-14216.0
和阿	-14217.0
天线	-14218.0
床边	-14219.0
本就	-14220.0
码头	-14221.0
程英	-14222.0
虔诚	-14223.0
辫子	-14224.0
龙虾	-14225.0
oes	-14226.0
一想到	-14227.0
当然是	-14228.0
日本人	-14229.0
的梦想	-14230.0
▁div	-14231.0
Fe	-14232.0
lo	-14233.0
▁伊	-14234.0
便了	-14235.0
大赛	-14236.0
相恋	-14237.0
而入	-14238.0
苦练	-14239.0
oft	-14240.0
www	-14241.0
在不同	-14242.0
无声息	-14243.0
是否有	-14244.0
着一条	-14245.0
跑过去	-14246.0
进行的	-14247.0
ults	-14248.0
就像一个	-14249.0
第一次听	-14250.0
▁rece	-14251.0
今朝	-14252.0
位移	-14253.0
儿时	-14254.0
刀砍	-14255.0
半生	-14256.0
对称	-14257.0
就行	-14258.0
考研	-14259.0
霍都	-14260.0
了一座	-14261.0
健康的	-14262.0
经济学	-14263.0
都觉得	-14264.0
坐了下来	-14265.0
撕心裂肺	-14266.0
▁compet	-14267.0
不中	-14268.0
他来	-14269.0
作案	-14270.0
侮辱	-14271.0
刀光	-14272.0
同声	-14273.0
开学	-14274.0
绚丽	-14275.0
绝顶	-14276.0
苍老	-14277.0
英镑	-14278.0
身畔	-14279.0
零售	-14280.0
不适合	-14281.0
出声来	-14282.0
十二年	-14283.0
微生物	-14284.0
拒绝了	-14285.0
是不能	-14286.0
领导人	-14287.0
▁小龙女	-14288.0
的好朋友	-14289.0
!!!!!!!!	-14290.0
DP	-14291.0
任由	-14292.0
全新	-14293.0
即刻	-14294.0
又见	-14295.0
坏的	-14296.0
少量	-14297.0
左首	-14298.0
惊叹	-14299.0
满心	-14300.0
记号	-14301.0
▁那时	-14302.0
三十六	-14303.0
在这一	-14304.0
沉沉的	-14305.0
的最佳	-14306.0
看了一眼	-14307.0
▁taking	-14308.0
几条	-14309.0
发颤	-14310.0
在本	-14311.0
小丐	-14312.0
恰恰	-14313.0
排毒	-14314.0
月下	-14315.0
等地	-14316.0
郁闷	-14317.0
闺女	-14318.0
key	-14319.0
uct	-14320.0
但由于	-14321.0
我应该	-14322.0
朱元璋	-14323.0
▁means	-14324.0
``	-14325.0
▁叶	-14326.0
二级	-14327.0
小黑	-14328.0
层面	-14329.0
扑去	-14330.0
捧起	-14331.0
电力	-14332.0
秋千	-14333.0
脚趾	-14334.0
运作	-14335.0
题记	-14336.0
lay	-14337.0
大眼睛	-14338.0
痛苦的	-14339.0
的情形	-14340.0
穆人清	-14341.0
▁只要你	-14342.0
我的世界	-14343.0
前提	-14344.0
她了	-14345.0
恨恨	-14346.0
断剑	-14347.0
残疾	-14348.0
滔滔	-14349.0
潜艇	-14350.0
灵机	-14351.0
航天	-14352.0
萌萌	-14353.0
要到	-14354.0
闲事	-14355.0
▁慢慢	-14356.0
不同意	-14357.0
出租车	-14358.0
就走了	-14359.0
知识的	-14360.0
越想越	-14361.0
只不过是	-14362.0
不快	-14363.0
但你	-14364.0
偿还	-14365.0
军中	-14366.0
初见	-14367.0
单调	-14368.0
山河	-14369.0
愕然	-14370.0
我太	-14371.0
把头	-14372.0
拆了	-14373.0
盘算	-14374.0
真假	-14375.0
称号	-14376.0
绿萼	-14377.0
色泽	-14378.0
芙蓉	-14379.0
蝌蚪	-14380.0
雅典	-14381.0
龙门	-14382.0
ode	-14383.0
▁不愿	-14384.0
▁未来	-14385.0
你到底	-14386.0
裘千尺	-14387.0
送给你	-14388.0
▁hat	-14389.0
iPhone	-14390.0
YS	-14391.0
值为	-14392.0
参赛	-14393.0
唱了	-14394.0
守望	-14395.0
家具	-14396.0
挡架	-14397.0
摘下	-14398.0
星宿	-14399.0
氨酸	-14400.0
洗礼	-14401.0
狩猎	-14402.0
答话	-14403.0
透着	-14404.0
靠着	-14405.0
面条	-14406.0
驾车	-14407.0
uff	-14408.0
他不是	-14409.0
呈现出	-14410.0
国务院	-14411.0
在后面	-14412.0
打死了	-14413.0
白自在	-14414.0
的小花	-14415.0
禁不住	-14416.0
英格兰	-14417.0
osed	-14418.0
我看到了	-14419.0
血管疾病	-14420.0
!<	-14421.0
土著	-14422.0
大明	-14423.0
晃晃	-14424.0
来愈	-14425.0
烈火	-14426.0
现身	-14427.0
睡前	-14428.0
破烂	-14429.0
穷人	-14430.0
虽有	-14431.0
课上	-14432.0
谈判	-14433.0
转型	-14434.0
顺势	-14435.0
了几声	-14436.0
杀死了	-14437.0
的叫声	-14438.0
认识你	-14439.0
陪伴我	-14440.0
▁sleep	-14441.0
不闻	-14442.0
变量	-14443.0
呱呱	-14444.0
地形	-14445.0
奶茶	-14446.0
干旱	-14447.0
异地	-14448.0
忙脚	-14449.0
是给	-14450.0
稍有	-14451.0
衬托	-14452.0
过分	-14453.0
那头	-14454.0
野花	-14455.0
食欲	-14456.0
我也要	-14457.0
查尔斯	-14458.0
脂肪酸	-14459.0
iable	-14460.0
上涨	-14461.0
坚固	-14462.0
封面	-14463.0
已死	-14464.0
强劲	-14465.0
我自	-14466.0
房产	-14467.0
相亲	-14468.0
相拥	-14469.0
翻着	-14470.0
▁你我	-14471.0
不要脸	-14472.0
为一个	-14473.0
了两个	-14474.0
喜欢上	-14475.0
就算是	-14476.0
找一个	-14477.0
短暂的	-14478.0
第一位	-14479.0
ared	-14480.0
你的名字	-14481.0
气喘吁吁	-14482.0
ology	-14483.0
我也不知道	-14484.0
一匹	-14485.0
处女	-14486.0
成千	-14487.0
护士	-14488.0
抵押	-14489.0
是无	-14490.0
海的	-14491.0
渔夫	-14492.0
牌子	-14493.0
约莫	-14494.0
背负	-14495.0
胸怀	-14496.0
麻麻	-14497.0
不高兴	-14498.0
价值观	-14499.0
但我们	-14500.0
张三丰	-14501.0
想起你	-14502.0
的技术	-14503.0
老头儿	-14504.0
脸上一红	-14505.0
亨利	-14506.0
和新	-14507.0
场地	-14508.0
大爱	-14509.0
太宗	-14510.0
头鹰	-14511.0
孤身	-14512.0
暗叫	-14513.0
游来	-14514.0
练成	-14515.0
路段	-14516.0
遥遥	-14517.0
ury	-14518.0
▁哪个	-14519.0
分手了	-14520.0
有趣的	-14521.0
平方公里	-14522.0
▁With	-14523.0
依言	-14524.0
可口	-14525.0
呀呀	-14526.0
底的	-14527.0
棒了	-14528.0
气管	-14529.0
汤姆	-14530.0
脱口	-14531.0
袖子	-14532.0
许嵩	-14533.0
逝去	-14534.0
???	-14535.0
将过去	-14536.0
的努力	-14537.0
的回答	-14538.0
▁sol	-14539.0
」,	-14540.0
分量	-14541.0
发音	-14542.0
吟吟	-14543.0
外边	-14544.0
威震	-14545.0
建成	-14546.0
拖雷	-14547.0
牲口	-14548.0
王菲	-14549.0
的他	-14550.0
联络	-14551.0
诱导	-14552.0
跨越	-14553.0
辛勤	-14554.0
迁移	-14555.0
镇定	-14556.0
int	-14557.0
奥运会	-14558.0
女性的	-14559.0
▁就让我	-14560.0
百听不厌	-14561.0
▁love	-14562.0
▁卡	-14563.0
▁曲	-14564.0
上当	-14565.0
回不	-14566.0
夹击	-14567.0
宽阔	-14568.0
底部	-14569.0
族人	-14570.0
流出	-14571.0
玩得	-14572.0
环球	-14573.0
笑意	-14574.0
而为	-14575.0
转化	-14576.0
铮铮	-14577.0
带走了	-14578.0
心想这	-14579.0
是一首	-14580.0
谁都不	-14581.0
ases	-14582.0
ator	-14583.0
from	-14584.0
到哪里去	-14585.0
叽叽喳喳	-14586.0
都不知道	-14587.0
▁不知不觉	-14588.0
inking	-14589.0
▁见	-14590.0
从窗	-14591.0
仰慕	-14592.0
协同	-14593.0
大字	-14594.0
始于	-14595.0
存心	-14596.0
寒假	-14597.0
怪你	-14598.0
洞穴	-14599.0
清朝	-14600.0
灌木	-14601.0
点子	-14602.0
物体	-14603.0
物流	-14604.0
直线	-14605.0
舆论	-14606.0
请您	-14607.0
香的	-14608.0
俗话说	-14609.0
在网上	-14610.0
我坐在	-14611.0
ands	-14612.0
▁needs	-14613.0
▁right	-14614.0
做声	-14615.0
原子	-14616.0
发亮	-14617.0
如画	-14618.0
耳畔	-14619.0
螺旋	-14620.0
▁ed	-14621.0
▁以前	-14622.0
▁我把	-14623.0
不开心	-14624.0
传来了	-14625.0
道路上	-14626.0
iful	-14627.0
越来越好	-14628.0
▁origin	-14629.0
▁知	-14630.0
大批	-14631.0
大桥	-14632.0
政党	-14633.0
旅客	-14634.0
梅剑	-14635.0
相约	-14636.0
肝癌	-14637.0
铁匠	-14638.0
雨天	-14639.0
▁Pr	-14640.0
北京市	-14641.0
多了一	-14642.0
我马上	-14643.0
要不然	-14644.0
请不要	-14645.0
这么好	-14646.0
里面有	-14647.0
难忘的	-14648.0
数值模拟	-14649.0
▁road	-14650.0
▁终	-14651.0
上岸	-14652.0
口呆	-14653.0
吐露	-14654.0
整洁	-14655.0
言之	-14656.0
餐桌	-14657.0
▁很多	-14658.0
取决于	-14659.0
合适的	-14660.0
是一座	-14661.0
洗干净	-14662.0
▁我没有	-14663.0
每一首歌	-14664.0
SD	-14665.0
▁写	-14666.0
▁怎	-14667.0
不老	-14668.0
且慢	-14669.0
你最	-14670.0
外部	-14671.0
导航	-14672.0
殿上	-14673.0
混元	-14674.0
渐远	-14675.0
称是	-14676.0
要来	-14677.0
面粉	-14678.0
▁想你	-14679.0
个人的	-14680.0
斯拉夫	-14681.0
深刻的	-14682.0
的汉子	-14683.0
见到你	-14684.0
▁fore	-14685.0
?"	-14686.0
不屑	-14687.0
光临	-14688.0
冷了	-14689.0
外地	-14690.0
大神	-14691.0
嫦娥	-14692.0
惕守	-14693.0
敢于	-14694.0
枝叶	-14695.0
没来	-14696.0
羊毛	-14697.0
议员	-14698.0
阻尼	-14699.0
▁如此	-14700.0
创造了	-14701.0
林俊杰	-14702.0
泪流满面	-14703.0
这个名字	-14704.0
下雪	-14705.0
会稽	-14706.0
你才	-14707.0
思量	-14708.0
惊惶	-14709.0
桂子	-14710.0
还手	-14711.0
释怀	-14712.0
arr	-14713.0
了一圈	-14714.0
愈来愈	-14715.0
看不清	-14716.0
领域的	-14717.0
ived	-14718.0
▁jack	-14719.0
▁吃	-14720.0
乌兰	-14721.0
交织	-14722.0
亲生	-14723.0
局的	-14724.0
架上	-14725.0
目睹	-14726.0
诚恳	-14727.0
降雨	-14728.0
fri	-14729.0
出去玩	-14730.0
到自己	-14731.0
▁our	-14732.0
▁这样的	-14733.0
▁requ	-14734.0
▁character	-14735.0
一门	-14736.0
包子	-14737.0
只顾	-14738.0
天山	-14739.0
太好	-14740.0
我如	-14741.0
拦住	-14742.0
文的	-14743.0
最难	-14744.0
淋巴	-14745.0
游去	-14746.0
ica	-14747.0
大概是	-14748.0
犹太人	-14749.0
的弟子	-14750.0
莫名的	-14751.0
颜色的	-14752.0
▁var	-14753.0
一切都是	-14754.0
根本没有	-14755.0
的小朋友	-14756.0
Windows	-14757.0
▁孙	-14758.0
出鞘	-14759.0
半岛	-14760.0
国产	-14761.0
忽道	-14762.0
惯了	-14763.0
无伦	-14764.0
祝愿	-14765.0
立场	-14766.0
繁星	-14767.0
老弟	-14768.0
谢了	-14769.0
辞职	-14770.0
一方面	-14771.0
亚马逊	-14772.0
原谅我	-14773.0
就成了	-14774.0
翻来覆	-14775.0
超过了	-14776.0
露出一	-14777.0
▁张翠山	-14778.0
小朋友们	-14779.0
上人	-14780.0
下着	-14781.0
右侧	-14782.0
呕吐	-14783.0
大盗	-14784.0
实证	-14785.0
富裕	-14786.0
幅画	-14787.0
慌乱	-14788.0
扬起	-14789.0
的伤	-14790.0
美酒	-14791.0
蜈蚣	-14792.0
装的	-14793.0
那马	-14794.0
香水	-14795.0
黄瓜	-14796.0
▁cm	-14797.0
▁你在	-14798.0
他还是	-14799.0
分辨率	-14800.0
剑入鞘	-14801.0
可以让	-14802.0
可持续	-14803.0
周围的	-14804.0
笑吟吟	-14805.0
被认为	-14806.0
sing	-14807.0
▁swim	-14808.0
)(	-14809.0
三生	-14810.0
交出	-14811.0
他叫	-14812.0
受害	-14813.0
哲理	-14814.0
奥林	-14815.0
文武	-14816.0
母子	-14817.0
犹似	-14818.0
▁赵敏	-14819.0
七八糟	-14820.0
专业的	-14821.0
小刺猬	-14822.0
明明是	-14823.0
焦宛儿	-14824.0
的使用	-14825.0
马克思	-14826.0
http	-14827.0
take	-14828.0
太好听了	-14829.0
我很喜欢	-14830.0
▁friends	-14831.0
............	-14832.0
▁换	-14833.0
专用	-14834.0
你心	-14835.0
倏地	-14836.0
响亮	-14837.0
因其	-14838.0
娇艳	-14839.0
宝贵	-14840.0
市区	-14841.0
并用	-14842.0
当面	-14843.0
招待	-14844.0
的药	-14845.0
美容	-14846.0
也很好	-14847.0
又怎样	-14848.0
墨尔本	-14849.0
摸了摸	-14850.0
片刻间	-14851.0
的概念	-14852.0
经济发展	-14853.0
给人一种	-14854.0
▁dist	-14855.0
依次	-14856.0
加班	-14857.0
即是	-14858.0
后脑	-14859.0
圆性	-14860.0
均是	-14861.0
斜身	-14862.0
更改	-14863.0
深受	-14864.0
童子	-14865.0
芯片	-14866.0
豆浆	-14867.0
露珠	-14868.0
▁我还	-14869.0
你放心	-14870.0
向前走	-14871.0
唱的歌	-14872.0
忘不掉	-14873.0
的道路	-14874.0
离开你	-14875.0
▁speed	-14876.0
▁管	-14877.0
一女	-14878.0
中被	-14879.0
之感	-14880.0
公英	-14881.0
加坡	-14882.0
听来	-14883.0
吸毒	-14884.0
圆满	-14885.0
天际	-14886.0
晚霞	-14887.0
水性	-14888.0
沉稳	-14889.0
流年	-14890.0
突发	-14891.0
笔者	-14892.0
维尔	-14893.0
胭脂	-14894.0
心灵的	-14895.0
数十丈	-14896.0
立时便	-14897.0
arch	-14898.0
一点都不	-14899.0
有多少人	-14900.0
目瞪口呆	-14901.0
▁incre	-14902.0
实验结果表明	-14903.0
一沉	-14904.0
介意	-14905.0
几种	-14906.0
刀柄	-14907.0
塑造	-14908.0
字的	-14909.0
平民	-14910.0
方证	-14911.0
步步	-14912.0
殿堂	-14913.0
海浪	-14914.0
缴纳	-14915.0
置之	-14916.0
至此	-14917.0
贯注	-14918.0
过儿	-14919.0
过招	-14920.0
降解	-14921.0
ior	-14922.0
催化剂	-14923.0
回了家	-14924.0
回去了	-14925.0
在怀里	-14926.0
其中一个	-14927.0
金蛇郎君	-14928.0
▁doesn	-14929.0
mp	-14930.0
前奏	-14931.0
却只	-14932.0
反思	-14933.0
员外	-14934.0
哭得	-14935.0
地吃	-14936.0
安宁	-14937.0
我走	-14938.0
求婚	-14939.0
海棠	-14940.0
熊熊	-14941.0
盖上	-14942.0
纠正	-14943.0
统统	-14944.0
范遥	-14945.0
该文	-14946.0
辽东	-14947.0
×××	-14948.0
▁虚竹	-14949.0
向自己	-14950.0
安全感	-14951.0
然一笑	-14952.0
通常是	-14953.0
一下子就	-14954.0
喜欢上了	-14955.0
▁having	-14956.0
七年	-14957.0
万水	-14958.0
右肩	-14959.0
撞到	-14960.0
无故	-14961.0
有名	-14962.0
的都	-14963.0
自尽	-14964.0
门中	-14965.0
停止了	-14966.0
听他说	-14967.0
喜爱的	-14968.0
那是我	-14969.0
灵机一动	-14970.0
鼓起勇气	-14971.0
▁base	-14972.0
uz	-14973.0
山大	-14974.0
惧怕	-14975.0
打出	-14976.0
的木	-14977.0
积蓄	-14978.0
起源	-14979.0
门人	-14980.0
Man	-14981.0
▁以为	-14982.0
公孙止	-14983.0
只是个	-14984.0
好好听	-14985.0
彼此的	-14986.0
我非常	-14987.0
知道你	-14988.0
解决了	-14989.0
跑过来	-14990.0
alth	-14991.0
像一个个	-14992.0
噗的一声	-14993.0
该怎么办	-14994.0
雪山飞狐	-14995.0
▁market	-14996.0
VD	-14997.0
▁原	-14998.0
乐乐	-14999.0
关门	-15000.0
刺痛	-15001.0
发泄	-15002.0
后就	-15003.0
太冲	-15004.0
暂停	-15005.0
沙天	-15006.0
父女	-15007.0
的吗	-15008.0
监视	-15009.0
岁那年	-15010.0
我的脸	-15011.0
无比的	-15012.0
标准的	-15013.0
汉人的	-15014.0
的想法	-15015.0
詹姆斯	-15016.0
不可思议	-15017.0
再也不敢	-15018.0
天下第一	-15019.0
片刻之间	-15020.0
如果有一天	-15021.0
一架	-15022.0
下定	-15023.0
云烟	-15024.0
但仍	-15025.0
南非	-15026.0
她对	-15027.0
念着	-15028.0
洗脸	-15029.0
涉案	-15030.0
物业	-15031.0
组的	-15032.0
走一	-15033.0
金轮	-15034.0
阐述	-15035.0
首席	-15036.0
off	-15037.0
三年级	-15038.0
了一天	-15039.0
头上的	-15040.0
纳赛尔	-15041.0
▁pay	-15042.0
两个人的	-15043.0
乱七八糟	-15044.0
▁wood	-15045.0
一瞧	-15046.0
传到	-15047.0
元宝	-15048.0
克兰	-15049.0
几千	-15050.0
厌倦	-15051.0
口音	-15052.0
强求	-15053.0
我更	-15054.0
支出	-15055.0
老歌	-15056.0
色谱	-15057.0
通报	-15058.0
铁杖	-15059.0
食材	-15060.0
▁当初	-15061.0
一系列	-15062.0
侠客岛	-15063.0
去医院	-15064.0
▁可是我	-15065.0
当的一声	-15066.0
是我们的	-15067.0
▁唐	-15068.0
劳累	-15069.0
安然	-15070.0
嵩山	-15071.0
指望	-15072.0
法案	-15073.0
石榴	-15074.0
秃秃	-15075.0
负面	-15076.0
til	-15077.0
▁南无	-15078.0
不同于	-15079.0
时间和	-15080.0
稳定的	-15081.0
only	-15082.0
中的应用	-15083.0
autiful	-15084.0
就该	-15085.0
很爱	-15086.0
月色	-15087.0
激发	-15088.0
血脂	-15089.0
说好	-15090.0
音频	-15091.0
how	-15092.0
不懂得	-15093.0
全新的	-15094.0
委书记	-15095.0
的那天	-15096.0
谈恋爱	-15097.0
▁cam	-15098.0
▁squ	-15099.0
到处都是	-15100.0
坚持不懈	-15101.0
ality	-15102.0
▁design	-15103.0
▁玉	-15104.0
交了	-15105.0
兄长	-15106.0
可使	-15107.0
吹着	-15108.0
大奇	-15109.0
对流	-15110.0
当家	-15111.0
无话	-15112.0
村的	-15113.0
法和	-15114.0
波澜	-15115.0
炯炯	-15116.0
烛火	-15117.0
焦点	-15118.0
网吧	-15119.0
萦绕	-15120.0
足足	-15121.0
长矛	-15122.0
他的话	-15123.0
免疫力	-15124.0
同意了	-15125.0
响起了	-15126.0
我以后	-15127.0
机动车	-15128.0
没半点	-15129.0
的一首	-15130.0
老婆婆	-15131.0
都是我	-15132.0
每天晚上	-15133.0
▁华	-15134.0
▁木	-15135.0
临头	-15136.0
光照	-15137.0
克制	-15138.0
初三	-15139.0
向日	-15140.0
外形	-15141.0
多时	-15142.0
急促	-15143.0
户口	-15144.0
找回	-15145.0
来势	-15146.0
沙子	-15147.0
济南	-15148.0
疙瘩	-15149.0
约约	-15150.0
纹理	-15151.0
舰队	-15152.0
船舶	-15153.0
跳进	-15154.0
▁Sp	-15155.0
你跟我	-15156.0
我自然	-15157.0
照顾好	-15158.0
▁buy	-15159.0
▁sal	-15160.0
的日子里	-15161.0
▁name	-15162.0
▁待	-15163.0
何不	-15164.0
出国	-15165.0
围棋	-15166.0
地主	-15167.0
坦然	-15168.0
忍心	-15169.0
排便	-15170.0
提督	-15171.0
斗得	-15172.0
武术	-15173.0
的信	-15174.0
省悟	-15175.0
纵使	-15176.0
锈钢	-15177.0
ler	-15178.0
完颜康	-15179.0
家乡的	-15180.0
忙脚乱	-15181.0
我决定	-15182.0
猫头鹰	-15183.0
考虑到	-15184.0
line	-15185.0
live	-15186.0
因为我们	-15187.0
▁tree	-15188.0
一次又一次	-15189.0
Be	-15190.0
乳腺	-15191.0
他家	-15192.0
企图	-15193.0
住口	-15194.0
倾盆	-15195.0
呼噜	-15196.0
喧嚣	-15197.0
嘀咕	-15198.0
大鱼	-15199.0
家丁	-15200.0
并以	-15201.0
星河	-15202.0
显微	-15203.0
火锅	-15204.0
的去	-15205.0
窗帘	-15206.0
纳闷	-15207.0
gle	-15208.0
hey	-15209.0
ony	-15210.0
一天天	-15211.0
一起走	-15212.0
妈妈在	-15213.0
我依然	-15214.0
类似于	-15215.0
蒲公英	-15216.0
这几个	-15217.0
ized	-15218.0
你知道吗	-15219.0
三爷	-15220.0
不善	-15221.0
他所	-15222.0
历程	-15223.0
吐槽	-15224.0
喷出	-15225.0
均已	-15226.0
它还	-15227.0
的血	-15228.0
自尊	-15229.0
追溯	-15230.0
阻拦	-15231.0
joy	-15232.0
▁Bl	-15233.0
坐下来	-15234.0
现在已经	-15235.0
健脾	-15236.0
围墙	-15237.0
室里	-15238.0
尖锐	-15239.0
总在	-15240.0
恩怨	-15241.0
攻打	-15242.0
显瘦	-15243.0
用量	-15244.0
目中	-15245.0
穿的	-15246.0
老去	-15247.0
霹雳	-15248.0
不确定	-15249.0
我连忙	-15250.0
来源于	-15251.0
枸杞子	-15252.0
沙漠中	-15253.0
环境下	-15254.0
▁我已经	-15255.0
原来如此	-15256.0
武功高强	-15257.0
高兴极了	-15258.0
▁look	-15259.0
ulation	-15260.0
南极	-15261.0
反馈	-15262.0
尖的	-15263.0
师门	-15264.0
床前	-15265.0
恒山	-15266.0
月底	-15267.0
点多	-15268.0
签名	-15269.0
箫声	-15270.0
紧握	-15271.0
而有	-15272.0
豪华	-15273.0
路面	-15274.0
这本	-15275.0
钢笔	-15276.0
一分钟	-15277.0
的好处	-15278.0
笔记本	-15279.0
▁way	-15280.0
叫了出来	-15281.0
和我一样	-15282.0
大不相同	-15283.0
Ti	-15284.0
”)	-15285.0
也将	-15286.0
何事	-15287.0
光盘	-15288.0
学历	-15289.0
守势	-15290.0
就从	-15291.0
效力	-15292.0
权益	-15293.0
条款	-15294.0
bel	-15295.0
了很久	-15296.0
项目的	-15297.0
高兴得	-15298.0
▁我不是	-15299.0
依依不舍	-15300.0
不一	-15301.0
交谈	-15302.0
光泽	-15303.0
午饭	-15304.0
同去	-15305.0
呼声	-15306.0
小黄	-15307.0
就跟	-15308.0
布拉	-15309.0
打闹	-15310.0
探险	-15311.0
梁上	-15312.0
碗里	-15313.0
解读	-15314.0
议院	-15315.0
arn	-15316.0
▁而且	-15317.0
不了解	-15318.0
什么呢	-15319.0
叫一声	-15320.0
沙天广	-15321.0
那也是	-15322.0
银行卡	-15323.0
again	-15324.0
不计	-15325.0
之日	-15326.0
乡亲	-15327.0
坐标	-15328.0
失手	-15329.0
市的	-15330.0
抓紧	-15331.0
搞笑	-15332.0
有声	-15333.0
烟管	-15334.0
红外	-15335.0
血的	-15336.0
跳出	-15337.0
世纪末	-15338.0
仍然是	-15339.0
喜欢吃	-15340.0
带你去	-15341.0
read	-15342.0
有一个人	-15343.0
一等	-15344.0
拉起	-15345.0
无形	-15346.0
某的	-15347.0
荒唐	-15348.0
跑着	-15349.0
退了	-15350.0
😉😉	-15351.0
他的心	-15352.0
我还在	-15353.0
然后就	-15354.0
不知去向	-15355.0
内心深处	-15356.0
交替	-15357.0
可要	-15358.0
在花	-15359.0
没用	-15360.0
研制	-15361.0
趣味	-15362.0
震南	-15363.0
▁也不	-15364.0
▁孤单	-15365.0
不下来	-15366.0
完整的	-15367.0
的小鸟	-15368.0
程青竹	-15369.0
提出一种	-15370.0
AB	-15371.0
GB	-15372.0
丧失	-15373.0
亲肤	-15374.0
人大	-15375.0
会对	-15376.0
关头	-15377.0
刻苦	-15378.0
季度	-15379.0
定神	-15380.0
宫门	-15381.0
违背	-15382.0
风味	-15383.0
厉害了	-15384.0
意义的	-15385.0
感觉很	-15386.0
接受了	-15387.0
自己却	-15388.0
天长地久	-15389.0
不知道为什么	-15390.0
▁average	-15391.0
倒影	-15392.0
可不	-15393.0
坚韧	-15394.0
复活	-15395.0
找出	-15396.0
放纵	-15397.0
晚期	-15398.0
[...]
